{"<unk>":0,"<pad>":1,"<bos>":2,"<eos>":3,"<newline>":4,"<tab>":5,"<quote>":6,"!":7,"\"":8,"#":9,"$":10,"%":11,"&":12,"'":13,"(":14,")":15,"*":16,"+":17,",":18,"-":19,".":20,"/":21,"0":22,"1":23,"2":24,"3":25,"4":26,"5":27,"6":28,"7":29,"8":30,"9":31,":":32,";":33,"<":34,"=":35,">":36,"?":37,"@":38,"A":39,"B":40,"C":41,"D":42,"E":43,"F":44,"G":45,"H":46,"I":47,"J":48,"K":49,"L":50,"M":51,"N":52,"O":53,"P":54,"Q":55,"R":56,"S":57,"T":58,"U":59,"V":60,"W":61,"X":62,"Y":63,"Z":64,"[":65,"\\":66,"]":67,"^":68,"_":69,"`":70,"a":71,"b":72,"c":73,"d":74,"e":75,"f":76,"g":77,"h":78,"i":79,"j":80,"k":81,"l":82,"m":83,"n":84,"o":85,"p":86,"q":87,"r":88,"s":89,"t":90,"u":91,"v":92,"w":93,"x":94,"y":95,"z":96,"{":97,"|":98,"}":99,"~":100,"¡":101,"¢":102,"£":103,"¤":104,"¥":105,"¦":106,"§":107,"¨":108,"©":109,"ª":110,"«":111,"¬":112,"®":113,"¯":114,"°":115,"±":116,"²":117,"³":118,"´":119,"µ":120,"¶":121,"·":122,"¸":123,"¹":124,"º":125,"»":126,"¼":127,"½":128,"¾":129,"¿":130,"À":131,"Á":132,"Â":133,"Ã":134,"Ä":135,"Å":136,"Æ":137,"Ç":138,"È":139,"É":140,"Ê":141,"Ë":142,"Ì":143,"Í":144,"Î":145,"Ï":146,"Ð":147,"Ñ":148,"Ò":149,"Ó":150,"Ô":151,"Õ":152,"Ö":153,"×":154,"Ø":155,"Ù":156,"Ú":157,"Û":158,"Ü":159,"Ý":160,"Þ":161,"ß":162,"à":163,"á":164,"â":165,"ã":166,"ä":167,"å":168,"æ":169,"ç":170,"è":171,"é":172,"ê":173,"ë":174,"ì":175,"í":176,"î":177,"ï":178,"ð":179,"ñ":180,"ò":181,"ó":182,"ô":183,"õ":184,"ö":185,"÷":186,"ø":187,"ù":188,"ú":189,"û":190,"ü":191,"ý":192,"þ":193,"ÿ":194,"Ā":195,"ā":196,"Ă":197,"ă":198,"Ą":199,"ą":200,"Ć":201,"ć":202,"Ĉ":203,"ĉ":204,"Ċ":205,"ċ":206,"Č":207,"č":208,"Ď":209,"ď":210,"Đ":211,"đ":212,"Ē":213,"ē":214,"Ĕ":215,"ĕ":216,"Ė":217,"ė":218,"Ę":219,"ę":220,"Ě":221,"ě":222,"Ĝ":223,"ĝ":224,"Ğ":225,"ğ":226,"Ġ":227,"ġ":228,"Ģ":229,"ģ":230,"Ĥ":231,"ĥ":232,"Ħ":233,"ħ":234,"Ĩ":235,"ĩ":236,"Ī":237,"ī":238,"Ĭ":239,"ĭ":240,"Į":241,"į":242,"İ":243,"ı":244,"Ĳ":245,"ĳ":246,"Ĵ":247,"ĵ":248,"Ķ":249,"ķ":250,"ĸ":251,"Ĺ":252,"ĺ":253,"Ļ":254,"ļ":255,"Ľ":256,"ľ":257,"Ŀ":258,"ŀ":259,"Ł":260,"ł":261,"Ń":262,"ne":263,"Ġt":264,"li":265,"Ġ<":266,"new":267,"line":268,"newline":269,"Ġa":270,"he":271,"Ġo":272,"Ġthe":273,"Ġ,":274,"in":275,"re":276,"Ġw":277,"Ġs":278,"is":279,"nd":280,"er":281,"at":282,"Ġof":283,"it":284,"Ġm":285,"on":286,"Ġ.":287,"en":288,"Ġb":289,"Ġh":290,"Ġc":291,"Ġf":292,"es":293,"Ġp":294,"Ġth":295,"Ġand":296,"Ġin":297,"or":298,"an":299,"Ġto":300,"ou":301,"ot":302,"Ġd":303,"st":304,"ll":305,"ing":306,"ed":307,"ic":308,"ar":309,"Ġe":310,"qu":311,"Ġbe":312,"le":313,"ion":314,"Ġis":315,"se":316,"om":317,"ĠĠ":318,"al":319,"Ġn":320,"Ġwh":321,"Ġit":322,"ote":323,"quote":324,"ve":325,"as":326,"ly":327,"ce":328,"Ġre":329,"ow":330,"im":331,"Ġg":332,"Ġthat":333,"ent":334,"ut":335,"ct":336,"ĠT":337,"ver":338,"Ġas":339,"ĠI":340,"Ġu":341,"Ġhe":342,"Ġfor":343,"ir":344,"Ġl":345,"Ġha":346,"Ġ:":347,"ld":348,"ur":349,"th":350,"ay":351,"id":352,"gh":353,"Ġan":354,"ith":355,"ss":356,"ich":357,"ra":358,"Ġnot":359,"Ġwhich":360,"Ġst":361,"ch":362,"Ġwe":363,"Ġcon":364,"od":365,"her":366,"Ġwith":367,"Ġ!":368,"Ġli":369,"ist":370,"Ġ;":371,"Ġsu":372,"Ġon":373,"Ġall":374,"ĠA":375,"Ġthis":376,"Ġde":377,"ation":378,"ul":379,"ri":380,"sel":381,"pe":382,"est":383,"Ġmo":384,"ro":385,"ain":386,"ĠThe":387,"Ġse":388,"Ġme":389,"Ġex":390,"Ġhis":391,"ust":392,"ght":393,"all":394,"ad":395,"ble":396,"Ġv":397,"ill":398,"Ġone":399,"ĠW":400,"Ġy":401,"Ġat":402,"Ġal":403,"ge":404,"ĠĠĠĠ":405,"Ġman":406,"ter":407,"ak":408,"if":409,"ure":410,"il":411,"Ġare":412,"Ġhave":413,"ous":414,"us":415,"Ġwho":416,"am":417,"ty":418,"Ġ'":419,"Ġ?":420,"ci":421,"ness":422,"ess":423,"ome":424,"ould":425,"rom":426,"Ġor":427,"ity":428,"fe":429,"self":430,"Ġdo":431,"very":432,"Ġso":433,"ong":434,"op":435,"Ġwor":436,"ate":437,"ence":438,"Ġhim":439,"ol":440,"Ġby":441,"Ġk":442,"ĠG":443,"ĠS":444,"our":445,"Ġthey":446,"Ġsh":447,"ali":448,"Ġev":449,"Ġwas":450,"Ġfrom":451,"et":452,"Ġhas":453,"Ġtheir":454,"um":455,"os":456,"and":457,"ĠH":458,"ast":459,"Ġint":460,"Ġno":461,"ard":462,"nt":463,"Ġpre":464,"Ġthem":465,"ĠC":466,"Ġthere":467,"Ġmy":468,"pt":469,"ant":470,"Ġper":471,"ac":472,"reat":473,"Ġmore":474,"Ġne":475,"ig":476,"pp":477,"ine":478,"ĠB":479,"Ġwhe":480,"Ġits":481,"ind":482,"ive":483,"ves":484,"ng":485,"ther":486,"Ġpo":487,"Ġlo":488,"Ġpro":489,"ian":490,"Ġbut":491,"Ġour":492,"em":493,"ru":494,"Ġim":495,"red":496,"ath":497,"ĠO":498,"ood":499,"Ġ)":500,"Ġ(":501,"Ġar":502,"ally":503,"Ġwill":504,"Ġcom":505,"Ġfe":506,"Ġonly":507,"Ġsp":508,"ide":509,"ner":510,"Ġevery":511,"Ġup":512,"Ġeven":513,"ĠN":514,"Ġab":515,"Ġun":516,"ĠE":517,"per":518,"iv":519,"Ġle":520,"'s":521,"ag":522,"ance":523,"Ġbec":524,"au":525,"ĠP":526,"ĠTh":527,"ke":528,"Ġus":529,"Ġdis":530,"now":531,"Ġch":532,"ment":533,"nder":534,"ĠF":535,"ings":536,"Ġhow":537,"Ġj":538,"Ġwhat":539,"thing":540,"ĠM":541,"Ġfa":542,"ose":543,"ort":544,"ality":545,"ame":546,"ans":547,"Ġgreat":548,"Ġthou":549,"Ġag":550,"ap":551,"Ġr":552,"ound":553,"art":554,"ions":555,"Ġmost":556,"ud":557,"ise":558,"able":559,"Ġmor":560,"ical":561,"ake":562,"Ġknow":563,"so":564,"Ġcan":565,"Ġbeen":566,"Ġother":567,"Ġsome":568,"Ġwould":569,"ĠCh":570,"ore":571,"Ġmust":572,"Ġlife":573,"cc":574,"ful":575,"ire":576,"ling":577,"Ġsuch":578,"Ġwhen":579,"Ġinto":580,"Ġtr":581,"pre":582,"out":583,"ays":584,"Ġinst":585,"Ġhad":586,"Ġpr":587,"Ġcont":588,"Ġyou":589,"Ġthan":590,"Ġany":591,"ower":592,"ary":593,"ĠL":594,"Ġtim":595,"ĠAnd":596,"Ġph":597,"ies":598,"rist":599,"Ġam":600,"selves":601,"ious":602,"ough":603,"og":604,"Ġpe":605,"Ġout":606,"Ġind":607,"Ġlong":608,"Ġalso":609,"Ġqu":610,"Ġitself":611,"ree":612,"ond":613,"Ġworld":614,"Ġgood":615,"Ġhimself":616,"Ġagain":617,"ili":618,"ĠD":619,"ok":620,"ight":621,"Ġact":622,"Ġcons":623,"Ġmen":624,"one":625,"ff":626,"ue":627,"Ġ1":628,"Ġlike":629,"ated":630,"ect":631,"Ġen":632,"Ġart":633,"ass":634,"ĠIn":635,"ĠIt":636,"ult":637,"tain":638,"Ġmay":639,"Ġthings":640,"ĠChrist":641,"Ġnow":642,"Ġspe":643,"Ġif":644,"ers":645,"Ġdes":646,"ism":647,"ĠHe":648,"Ġye":649,"Ġow":650,"Ġwere":651,"ice":652,"lie":653,"Ġunder":654,"ĠWh":655,"ual":656,"ish":657,"Ġthese":658,"ĠBut":659,"el":660,"ite":661,"ĠChristian":662,"ie":663,"Ġres":664,"Ġpower":665,"Ġca":666,"oc":667,"ang":668,"Ġpl":669,"irst":670,"uch":671,"Ġform":672,"Ġupon":673,"inct":674,"uth":675,"erm":676,"cept":677,"ature":678,"Ġval":679,"Ġtime":680,"Ġob":681,"Ġide":682,"ever":683,"ible":684,"ces":685,"Ġad":686,"Ġover":687,"Ġimp":688,"Ġstill":689,"Ġbelie":690,"fore":691,"irit":692,"Ġthose":693,"ople":694,"Ġphil":695,"ĠR":696,"ause":697,"cess":698,"Ġacc":699,"Ġsou":700,"ĠGod":701,"Ġown":702,"Ġshould":703,"ab":704,"ys":705,"Ġpres":706,"osop":707,"Ġvery":708,"Ġsay":709,"Ġfirst":710,"led":711,"un":712,"ink":713,"Ġpeople":714,"hed":715,"Ġspirit":716,"Ġsel":717,"Ġthen":718,"ell":719,"ple":720,"ition":721,"ars":722,"Ġphilosop":723,"pl":724,"Ġsa":725,"ertain":726,"ack":727,"ost":728,"Ġjust":729,"ens":730,"Ġposs":731,"ĠGerm":732,"ations":733,"ict":734,"Ġinstinct":735,"ved":736,"ward":737,"Ġyour":738,"Ġstr":739,"Ġlove":740,"Ġhig":741,"hen":742,"Ġsee":743,"Ġgr":744,"olog":745,"Ġ2":746,"Ġself":747,"ep":748,"Ġra":749,"irt":750,"Ġhowever":751,"ways":752,"less":753,"age":754,"Ġreg":755,"ign":756,"Ġdoes":757,"ory":758,"Ġtoo":759,"Ġsub":760,"Ġfact":761,"arath":762,"Zarath":763,"Zarathust":764,"Zarathustra":765,"int":766,"Ġmeans":767,"ction":768,"Ġthemselves":769,"aps":770,"hing":771,"Ġap":772,"ily":773,"Ġsoul":774,"ned":775,"der":776,"Ġalways":777,"Ġend":778,"ither":779,"Ġcl":780,"ount":781,"ĠZarathustra":782,"Ġmuch":783,"Ġdid":784,"Ġagainst":785,"end":786,"Ġcould":787,"Ġcall":788,"Ġatt":789,"ined":790,"ning":791,"haps":792,"gin":793,"Ġbecome":794,"Ġvirt":795,"Ġgo":796,"right":797,"ace":798,"Ġcertain":799,"Ġtra":800,"ach":801,"oll":802,"Ġnew":803,"Ġhum":804,"Ġexist":805,"ĠWhat":806,"are":807,"ord":808,"Ġwhole":809,"Ġword":810,"Ġtruth":811,"Ġregard":812,"tle":813,"lig":814,"cience":815,"iness":816,"ren":817,"Ġway":818,"ile":819,"the":820,"Ġsomething":821,"ven":822,"Ġnature":823,"Ġrem":824,"Ġthink":825,"ĠThis":826,"Ġthr":827,"Ġdist":828,"ĠTH":829,"atter":830,"ons":831,"hes":832,"Ġinc":833,"Ġorder":834,"ove":835,"Ġaf":836,"to":837,"read":838,"Ġkind":839,"als":840,"Ġmorality":841,"we":842,"oth":843,"Ġsame":844,"Ġdec":845,"ues":846,"ates":847,"Ġmus":848,"Ġhapp":849,"fect":850,"Ġsuff":851,"Ġfee":852,"Ġwell":853,"Ġpers":854,"Ġthought":855,"Ġappe":856,"Ġbeing":857,"ĠGerman":858,"Ġever":859,"Ġabout":860,"Ġpart":861,"ks":862,"Ġsy":863,"Ġold":864,"other":865,"Ġrec":866,"Ġbet":867,"ving":868,"Ġeverything":869,"peri":870,"Ġge":871,"Ġhand":872,"Ġfeeling":873,"ĠWe":874,"Ġhere":875,"ade":876,"Ġnecess":877,"Ġunderst":878,"ility":879,"Ġear":880,"Ġthy":881,"Ġperhaps":882,"ject":883,"Ġbr":884,"act":885,"pect":886,"Ġnothing":887,"ĠWag":888,"ĠFor":889,"ope":890,"Ġpass":891,"Ġdif":892,"Ġonce":893,"old":894,"ense":895,"Ġcond":896,"ry":897,"Ġ3":898,"Ġmusic":899,"les":900,"sh":901,"own":902,"Ġwhere":903,"eth":904,"Ġmake":905,"Ġcomm":906,"Ġreas":907,"Ġmod":908,"ĠTo":909,"sc":910,"Ġseem":911,"ild":912,"Ġwithout":913,"Ġbecause":914,"Ġthrough":915,"press":916,"Ġpresent":917,"Ġstand":918,"for":919,"Ġhuman":920,"ĠJ":921,"ĠY":922,"ĠWagner":923,"Ġmoral":924,"Ġey":925,"tern":926,"rit":927,"oy":928,"ick":929,"aw":930,"ip":931,"Ġopp":932,"Ġthus":933,"Ġaw":934,"here":935,"Ġem":936,"Ġnever":937,"ledge":938,"ced":939,"Ġunt":940,"Ġright":941,"ied":942,"Ġheart":943,"ĠTHE":944,"ĠĠĠĠĠ":945,"ute":946,"Ġlast":947,"ific":948,"Ġthing":949,"Ġent":950,"te":951,"ber":952,"Ġty":953,"Ġstrong":954,"Ġser":955,"Ġref":956,"Ġru":957,"Ġfar":958,"ents":959,"iet":960,"ook":961,"igh":962,"ĠChristianity":963,"Ġafter":964,"Ġbl":965,"Ġhist":966,"Ġspeak":967,"tic":968,"Ġchar":969,"Ġbefore":970,"Ġconc":971,"Ġext":972,"cious":973,"Ġlonger":974,"most":975,"lic":976,"Ġfind":977,"Ġte":978,"Ġinv":979,"Ġro":980,"Ġyet":981,"Ġamong":982,"ER":983,"Ġneed":984,"Ġdisc":985,"ull":986,"ivid":987,"Ġpri":988,"ĠV":989,"Ġwis":990,"empt":991,"Ġevil":992,"ually":993,"wards":994,"Ġapp":995,"ten":996,"ors":997,"ather":998,"Ġcomp":999,"Ġquest":1000,"not":1001,"ellect":1002,"Ġmade":1003,"Ġmany":1004,"fere":1005,"Ġlook":1006,"Ġknowledge":1007,"ttle":1008,"vel":1009,"ial":1010,"Ġsec":1011,"Ġmere":1012,"Ġimm":1013,"Ġgl":1014,"vers":1015,"Ġindivid":1016,"ON":1017,"Ġsim":1018,"akes":1019,"Ġintellect":1020,"anger":1021,"hy":1022,"ently":1023,"Ġcome":1024,"Ġreason":1025,"ted":1026,"Ġlittle":1027,"Ġshall":1028,"Ġday":1029,"ib":1030,"Ġsm":1031,"Ġvirtue":1032,"Ġinf":1033,"Ġmis":1034,"Ġins":1035,"ready":1036,"Ġtw":1037,"Ġwant":1038,"ress":1039,"ĠEur":1040,"ern":1041,"Ġcult":1042,"Ġher":1043,"ude":1044,"rigin":1045,"hest":1046,"Ġhigher":1047,"Ġrelig":1048,"ows":1049,"Ġperson":1050,"fic":1051,"Ġdanger":1052,"Ġphilosopher":1053,"Ġwom":1054,"atur":1055,"Ġcase":1056,"ĠThere":1057,"und":1058,"ised":1059,"Ġwork":1060,"AL":1061,"ering":1062,"Ġbad":1063,"Ġinter":1064,"ck":1065,"Ġalready":1066,"Ġ]":1067,"Ġsaid":1068,"Ġread":1069,"ged":1070,"Ġanother":1071,"asure":1072,"Ġlight":1073,"Ġgener":1074,"Ġ[":1075,"Ġsym":1076,"ody":1077,"Ġthee":1078,"ating":1079,"Ġsc":1080,"av":1081,"Ġorigin":1082,"Ġindividual":1083,"Ġpain":1084,"ative":1085,"Ġpossible":1086,"Ġpur":1087,"Ġourselves":1088,"Ġgra":1089,"dom":1090,"Ġexistence":1091,"Ġlet":1092,"Ġlear":1093,"sy":1094,"ists":1095,"Ġpoint":1096,"Ġbest":1097,"Ġconcept":1098,"OR":1099,"Ġ4":1100,"Ġsin":1101,"Ġmatter":1102,"Ġabs":1103,"Ġunderstand":1104,"edi":1105,"Ġexperi":1106,"Ġfeel":1107,"sequ":1108,"Ġexpress":1109,"cy":1110,"Ġtru":1111,"Ġsense":1112,"Ġfound":1113,"Ġcreat":1114,"Ġpra":1115,"ange":1116,"me":1117,"light":1118,"ocr":1119,"aut":1120,"Ġideal":1121,"IS":1122,"Ġdesire":1123,"Ġmight":1124,"Ġbelief":1125,"Ġhighest":1126,"ietz":1127,"ferent":1128,"Ġhappiness":1129,"aste":1130,"Ġhath":1131,"Ġple":1132,"sche":1133,"Ġquestion":1134,"Ġfoll":1135,"ere":1136,"Ġtrans":1137,"ĠEurope":1138,"Ġabove":1139,"ietzsche":1140,"Ġfl":1141,"Ġstate":1142,"ular":1143,"Ġcannot":1144,"cise":1145,"Ġstre":1146,"Ġprof":1147,"Ġenough":1148,"ĠNietzsche":1149,"ĠThat":1150,"Ġunto":1151,"Ġass":1152,"ĠGree":1153,"ourse":1154,"Ġgu":1155,"Ġadv":1156,"Ġwar":1157,"Ġnecessary":1158,"Ġalmost":1159,"Ġinde":1160,"atic":1161,"ĠĠĠĠĠĠ":1162,"den":1163,"Ġwhom":1164,"Ġfri":1165,"iew":1166,"Ġvalue":1167,"ained":1168,"ave":1169,"Ġsl":1170,"Ġfree":1171,"istic":1172,"ew":1173,"Ġconf":1174,"Ġvalues":1175,"day":1176,"Ġcalled":1177,"ts":1178,"ph":1179,"Ġappear":1180,"ĠIf":1181,"Ġcou":1182,"Ġanim":1183,"Ġhistory":1184,"Ġculture":1185,"Ġill":1186,"Ġconst":1187,"Ġmean":1188,"Ġcle":1189,"Ġtwo":1190,"Ġop":1191,"Ġpar":1192,"lt":1193,"Ġetern":1194,"Ġview":1195,"ĠHow":1196,"Ġcharact":1197,"cient":1198,"Ġbecom":1199,"oub":1200,"Ġfriend":1201,"IN":1202,"Ġsur":1203,"Ġback":1204,"Ġrep":1205,"ution":1206,"Ġsoci":1207,"sych":1208,"Ġtrue":1209,"Ġbook":1210,"Ġrel":1211,"Ġgod":1212,"Ġant":1213,"Ġjud":1214,"Ġbeaut":1215,"ĠWhen":1216,"Ġsens":1217,"Ġweak":1218,"Ġwords":1219,"Ġdifferent":1220,"Ġmerely":1221,"Ġtake":1222,"be":1223,"Ġef":1224,"Ġoppos":1225,"Ġdiv":1226,"Ġconsequ":1227,"Ġinstincts":1228,"of":1229,"ĠU":1230,"vation":1231,"ences":1232,"Ġearth":1233,"RE":1234,"Ġothers":1235,"Ġac":1236,"kind":1237,"Ġprin":1238,"Ġaway":1239,"Ġel":1240,"ĠAll":1241,"gg":1242,"Ġpsych":1243,"urn":1244,"ives":1245,"Ġmind":1246,"Ġcor":1247,"Ġfre":1248,"ately":1249,"Ġtherefore":1250,"Ġconscience":1251,"Ġlive":1252,"Ġdem":1253,"Ġquite":1254,"Ġcharacter":1255,"ĠBe":1256,"ĠOn":1257,"sm":1258,"Ġsign":1259,"Ġequ":1260,"Ġlaw":1261,"ĠAs":1262,"Ġscience":1263,"err":1264,"Ġeyes":1265,"mit":1266,"Ġable":1267,"alth":1268,"Ġgeneral":1269,"ĠThey":1270,"Ġalone":1271,"Ġplace":1272,"Ġhon":1273,"Ġess":1274,"ament":1275,"Ġpossess":1276,"AT":1277,"Ġresult":1278,"by":1279,"Ġele":1280,"cisely":1281,"Ġpsycholog":1282,"Ġsuper":1283,"Ġpriest":1284,"Ġones":1285,"Ġtowards":1286,"Ġconce":1287,"Ġeffect":1288,"Ġbre":1289,"Ġbeh":1290,"ĠSch":1291,"Ġobject":1292,"Ġfo":1293,"Ġput":1294,"ĠK":1295,"Ġhither":1296,"ark":1297,"Ġmankind":1298,"Ġnatur":1299,"sp":1300,"ase":1301,"ared":1302,"blem":1303,"Ġaccord":1304,"uous":1305,"itude":1306,"Ġrequ":1307,"that":1308,"ĠThus":1309,"Ġchild":1310,"Ġexam":1311,"Ġgive":1312,"ired":1313,"Ġbelieve":1314,"Ġsmall":1315,"Ġtaste":1316,"Ġfin":1317,"Ġprecisely":1318,"ia":1319,"Ġlau":1320,"ains":1321,"Ġpoet":1322,"pres":1323,"Ġmast":1324,"Ġphilosophy":1325,"row":1326,"ances":1327,"Ġdown":1328,"ionys":1329,"lit":1330,"Ġtri":1331,"Ġreally":1332,"ĠOne":1333,"Ġwoman":1334,"Ġdra":1335,"Ġdev":1336,"form":1337,"Ġhitherto":1338,"Ġfal":1339,"Ġbel":1340,"Ġsupp":1341,"Ġgreatest":1342,"Ġrespect":1343,"Ġprinci":1344,"bit":1345,"up":1346,"ret":1347,"Ġdeath":1348,"ween":1349,"ES":1350,"Ġinstance":1351,"Ġvalu":1352,"Ġdre":1353,"ures":1354,"ĠDionys":1355,"Ġsac":1356,"Ġcause":1357,"Ġname":1358,"Ġrest":1359,"Ġlack":1360,"Ġnor":1361,"rence":1362,"Ġgen":1363,"Ġproblem":1364,"Ġbegin":1365,"Ġuse":1366,"Ġphys":1367,"iz":1368,"Ġmyself":1369,"Ġwhether":1370,"Ġsuffering":1371,"Ġstreng":1372,"AN":1373,"Ġdoub":1374,"Ġprofound":1375,"Ġ=":1376,"Ġest":1377,"Ġoften":1378,"odu":1379,"Ġmodern":1380,"lish":1381,"orn":1382,"ases":1383,"ĠIs":1384,"Ġtype":1385,"EN":1386,"Ġhard":1387,"Ġcontra":1388,"ting":1389,"alist":1390,"itions":1391,"Ġbetween":1392,"Ġmakes":1393,"Ġden":1394,"Ġdest":1395,"ĠAt":1396,"aking":1397,"olute":1398,"ments":1399,"Ġfut":1400,"ĠLet":1401,"Ġtoday":1402,"Ġconscious":1403,"Ġ5":1404,"Ġreality":1405,"Ġtimes":1406,"Ġreal":1407,"Ġfear":1408,"Ġunc":1409,"ably":1410,"Ġconcer":1411,"wise":1412,"Ġut":1413,"Ġpurp":1414,"Ġfalse":1415,"Ġwish":1416,"velop":1417,"aken":1418,"ises":1419,"edu":1420,"Ġimag":1421,"IT":1422,"yond":1423,"ider":1424,"Ġhigh":1425,"usion":1426,"Ġage":1427,"Ġcourse":1428,"verse":1429,"Ġfaith":1430,"Ġdream":1431,"Ġboth":1432,"irc":1433,"Ġnoble":1434,"man":1435,"ub":1436,"ont":1437,"Ġcent":1438,"Ġspeci":1439,"Ġelse":1440,"Ġmom":1441,"ha":1442,"Ã¦":1443,"Ġwr":1444,"oud":1445,"open":1446,"Ġidea":1447,"ft":1448,"hat":1449,"ties":1450,"Ġjoy":1451,"Ġdeep":1452,"Ġleast":1453,"Ġseems":1454,"ery":1455,"auer":1456,"Ġbecomes":1457,"Ġstrength":1458,"Ġfuture":1459,"Ġdef":1460,"Ġdep":1461,"Ġes":1462,"Ġanything":1463,"erest":1464,"over":1465,"ying":1466,"icism":1467,"Ġcontin":1468,"openh":1469,"Ġsort":1470,"Ġfore":1471,"Ġdom":1472,"Ġke":1473,"ĠOF":1474,"Ġaccount":1475,"gic":1476,"Ġdevelop":1477,"Ġexample":1478,"Ġwhile":1479,"Ġless":1480,"Ġrather":1481,"ogn":1482,"openhauer":1483,"fort":1484,"ĠWith":1485,"rary":1486,"Ġcirc":1487,"Ġworth":1488,"ians":1489,"Ġbetter":1490,"ĠJew":1491,"Ġstru":1492,"Ġclass":1493,"Ġindeed":1494,"go":1495,"omen":1496,"ĠSchopenhauer":1497,"ih":1498,"Ġabsolute":1499,"Ġerr":1500,"aring":1501,"owed":1502,"osition":1503,"Ġthereby":1504,"Ġcomple":1505,"ety":1506,"Ġprev":1507,"Ġpassion":1508,"Ġfull":1509,"Ġwhy":1510,"ĠYe":1511,"Ġsacri":1512,"gan":1513,"Ġexcept":1514,"Ġdesp":1515,"de":1516,"ix":1517,"Ġsat":1518,"Ġshort":1519,"Ġphilosophers":1520,"Ġnatural":1521,"Ġpurpose":1522,"Ġconv":1523,"rib":1524,"Ġsun":1525,"Ġaccording":1526,"Ġshe":1527,"ury":1528,"gether":1529,"Ġdone":1530,"fulness":1531,"lu":1532,"ics":1533,"Ġeye":1534,"nce":1535,"Ġsick":1536,"Ġmar":1537,"Ġexpl":1538,"nem":1539,"Ġoff":1540,"Ġprom":1541,"Ġinn":1542,"Ġhealth":1543,"ater":1544,"Ġget":1545,"Ġocc":1546,"Ġeach":1547,"lect":1548,"Ġlead":1549,"Ġdangerous":1550,"Ġeternal":1551,"under":1552,"Ġcr":1553,"Ġhonour":1554,"Ġgiv":1555,"Ġdoubt":1556,"unt":1557,"ĠNot":1558,"henomen":1559,"Ġinterpre":1560,"vol":1561,"Ġsent":1562,"Ġasce":1563,"rage":1564,"Ġmanner":1565,"Ġjudg":1566,"oly":1567,"Ġret":1568,"Ġwisdom":1569,"Ġsimp":1570,"Ġexpression":1571,"ius":1572,"lis":1573,"Ġpract":1574,"ail":1575,"po":1576,"Ġco":1577,"ishment":1578,"Ġregarded":1579,"gedy":1580,"Ġrepres":1581,"pend":1582,"Ġprop":1583,"Ġaction":1584,"Ġsociety":1585,"iful":1586,"Ġrecogn":1587,"iod":1588,"mb":1589,"Ġpity":1590,"ĠSt":1591,"arily":1592,"owing":1593,"ĠĠĠĠĠĠĠĠ":1594,"Ġphenomen":1595,"Ġhel":1596,"Ġlie":1597,"Ġknows":1598,"Ġformer":1599,"Ġpleasure":1600,"nes":1601,"Ġaff":1602,"Ġimport":1603,"LI":1604,"ilt":1605,"Ġwhose":1606,"Ġrequire":1607,"Ġche":1608,"Ġpartic":1609,"par":1610,"Ġcur":1611,"ĠMan":1612,"Ġexperience":1613,"OU":1614,"ati":1615,"sthe":1616,"venge":1617,"Ġintellectual":1618,"ought":1619,"ention":1620,"Ġpure":1621,"edom":1622,"ĠMy":1623,"Ġunderstood":1624,"Ġbelong":1625,"ĠDionysian":1626,"Ġsing":1627,"Ġdoth":1628,"Ġmet":1629,"ĠSo":1630,"Ġperiod":1631,"Ġcare":1632,"Ġ}":1633,"ĠAn":1634,"Ġyears":1635,"undament":1636,"iss":1637,"Ġbody":1638,"Ġset":1639,"Ġthough":1640,"ĠGermans":1641,"Ġ18":1642,"Ġentire":1643,"Ġenem":1644,"iment":1645,"Ġfeelings":1646,"Ġdivine":1647,"Ġcap":1648,"Ġdoct":1649,"ĠHere":1650,"Ġve":1651,"onst":1652,"ustom":1653,"Ġ{":1654,"Ġ~":1655,"Ġpun":1656,"Ġexc":1657,"ĠSocr":1658,"Ġconcerning":1659,"Ġir":1660,"Ġcal":1661,"Ġreve":1662,"ĠEvery":1663,"ority":1664,"Ġeither":1665,"ceed":1666,"uring":1667,"Ġcontrary":1668,"Ġinflu":1669,"Ġmoment":1670,"nera":1671,"Ġsil":1672,"ird":1673,"osed":1674,"ered":1675,"Ġsch":1676,"ities":1677,"Ġrevenge":1678,"Ġlatter":1679,"Ġcaus":1680,"itive":1681,"Ġhy":1682,"Ġfundament":1683,"lly":1684,"Ġbene":1685,"Ġuni":1686,"iction":1687,"Ġclear":1688,"Ġhead":1689,"Ġreligion":1690,"alk":1691,"Ġdelight":1692,"iolog":1693,"ency":1694,"Ġcar":1695,"Ġprodu":1696,"where":1697,"Ġinterest":1698,"oned":1699,"AR":1700,"Ġter":1701,"Ġcru":1702,"urch":1703,"Ġstri":1704,"onest":1705,"Ġimpul":1706,"ĠRe":1707,"ici":1708,"ĠGreek":1709,"Ġcontempt":1710,"Ġhelp":1711,"oice":1712,"Ġid":1713,"Ġhar":1714,"Ġpast":1715,"ically":1716,"Ġbeyond":1717,"Ġask":1718,"ibility":1719,"Ġopin":1720,"isf":1721,"ĠWill":1722,"ife":1723,"ived":1724,"Ġartist":1725,"Ġhumanity":1726,"Ġparticular":1727,"ale":1728,"ser":1729,"Ġsw":1730,"Ġcrit":1731,"ified":1732,"ured":1733,"Ġvirtues":1734,"Ġconditions":1735,"ched":1736,"ides":1737,"essim":1738,"angu":1739,"ination":1740,"Ġvict":1741,"atever":1742,"ption":1743,"Ġplay":1744,"Ġdecad":1745,"ĠOr":1746,"Ġbecame":1747,"Ġfav":1748,"iously":1749,"Ġsecond":1750,"Ġpath":1751,"ours":1752,"Ġcondition":1753,"Ġmot":1754,"Ġdisg":1755,"Ġcommun":1756,"Ġstrugg":1757,"ane":1758,"air":1759,"Ġwrit":1760,"Ġfur":1761,"Ġperfect":1762,"Ġsubject":1763,"Ġanimal":1764,"Ġcomplete":1765,"ising":1766,"Ġdire":1767,"Ġgre":1768,"Ġconsider":1769,"Ġsimply":1770,"Ġbu":1771,"Ġcre":1772,"Ġlangu":1773,"Ġstep":1774,"Ġprim":1775,"Ġlearn":1776,"Ġbur":1777,"cip":1778,"ĠThou":1779,"Ġtragedy":1780,"Ġmaster":1781,"ier":1782,"Ġdeg":1783,"Ġmanif":1784,"Ġseek":1785,"Ġdiffic":1786,"Ġrun":1787,"Ġextent":1788,"Ġfinally":1789,"Ġgenius":1790,"its":1791,"Ġmine":1792,"ĠAl":1793,"Ġprocess":1794,"Ġfreedom":1795,"Ġeas":1796,"Ġmove":1797,"Ġcourage":1798,"ĠNow":1799,"Ġenj":1800,"Ġphysiolog":1801,"Ġgiven":1802,"lat":1803,"Ġsays":1804,"Ġsuperi":1805,"Ġactually":1806,"Ġblood":1807,"oss":1808,"Ġwa":1809,"Ġrace":1810,"Ġappearance":1811,"ING":1812,"Ġessent":1813,"ught":1814,"Ġcame":1815,"ank":1816,"ask":1817,"alities":1818,"ited":1819,"Ġcases":1820,"orm":1821,"Ġsucc":1822,"ĠNo":1823,"Ġgreater":1824,"Ġbeautiful":1825,"Ġrepresent":1826,"ison":1827,"Ġce":1828,"ages":1829,"Ġrid":1830,"Ġcontrad":1831,"ET":1832,"like":1833,"Ġnob":1834,"Ġappro":1835,"Ġdoctri":1836,"Ġ6":1837,"ased":1838,"Ġans":1839,"Ġwithin":1840,"ished":1841,"Ġbli":1842,"Ġbot":1843,"alis":1844,"Ġsouls":1845,"Ġsound":1846,"Ġmid":1847,"alt":1848,"imate":1849,"Ġult":1850,"ĠAp":1851,"peci":1852,"Ġvis":1853,"term":1854,"Ġterri":1855,"Ġma":1856,"Ġhope":1857,"Ġfat":1858,"Ġgrow":1859,"Ġfriends":1860,"Ġbehind":1861,"Ġtre":1862,"Ġhear":1863,"Ġhabit":1864,"Ġspake":1865,"Ġpride":1866,"ighb":1867,"Ġmeaning":1868,"full":1869,"itut":1870,"Ġobser":1871,"Ġsecret":1872,"Ġsymp":1873,"Ġconsciousness":1874,"ins":1875,"Ġhat":1876,"aph":1877,"Ġturn":1878,"Ġfam":1879,"Ġneighb":1880,"Ġideas":1881,"Ġacqu":1882,"inary":1883,"Ġmount":1884,"edness":1885,"Ġnum":1886,"Ġteach":1887,"Ġerror":1888,"Ġver":1889,"Ġtend":1890,"ples":1891,"ONT":1892,"ĠGreeks":1893,"Ġcircum":1894,"Ã©":1895,"inite":1896,"Ġhero":1897,"get":1898,"Ġdisp":1899,"Ġcontem":1900,"ification":1901,"Ġtaken":1902,"ices":1903,"Ġlies":1904,"Ġsud":1905,"aught":1906,"IC":1907,"rs":1908,"Ġhonest":1909,"Ġinj":1910,"stem":1911,"ross":1912,"Ġhands":1913,"Ġsymb":1914,"Ġprinciple":1915,"pecially":1916,"Ġsudden":1917,"Ġauth":1918,"omp":1919,"ands":1920,"Ġcommon":1921,"Ġconcl":1922,"Ġbra":1923,"Ġcra":1924,"Ġpub":1925,"Ġtogether":1926,"aint":1927,"Ġgenera":1928,"Ġcoun":1929,"Ġtrium":1930,"rust":1931,"Ġmist":1932,"Ġcomes":1933,"Ġattempt":1934,"Ġthoughts":1935,"Ġserv":1936,"cing":1937,"ls":1938,"Ġri":1939,"Ġpop":1940,"cted":1941,"Ġsystem":1942,"Ġascetic":1943,"Ġlanguage":1944,"Ġmanifest":1945,"fully":1946,"ST":1947,"az":1948,"Ġaim":1949,"Ġmag":1950,"Ġcount":1951,"arch":1952,"ĠHis":1953,"Ġimper":1954,"Ġfelt":1955,"Ġreligious":1956,"Ġconsequently":1957,"Ġinnoc":1958,"Ġinfluence":1959,"fice":1960,"aled":1961,"Ġnight":1962,"Ġwhatever":1963,"irm":1964,"ths":1965,"Ġprov":1966,"Ġaround":1967,"Ġlearned":1968,"Ġbless":1969,"Ġfall":1970,"Ġsure":1971,"ference":1972,"ĠPlat":1973,"Ġbeauty":1974,"liness":1975,"Ġcast":1976,"Ġdut":1977,"alvation":1978,"Ġadd":1979,"Ġhatred":1980,"ND":1981,"gr":1982,"ĠEven":1983,"Ġstrange":1984,"Ġtragic":1985,"cientific":1986,"ihili":1987,"PS":1988,"ma":1989,"Ġwo":1990,"Ġliving":1991,"ĠSu":1992,"Ġproper":1993,"Ġlaugh":1994,"ED":1995,"Ġside":1996,"orality":1997,"Ġancient":1998,"Ġmeasure":1999,"Ġfew":2000,"Ġpowerful":2001,"Ġespecially":2002,"Ġhaving":2003,"ided":2004,"Ġorgan":2005,"Ġspecies":2006,"Ġenjoy":2007,"wor":2008,"Ġthor":2009,"stand":2010,"Ġego":2011,"Ġvol":2012,"Ġadm":2013,"Ġattitude":2014,"Ġmetaph":2015,"Ġterrible":2016,"bid":2017,"Ġtem":2018,"ash":2019,"Ġsusp":2020,"Ġcertainly":2021,"Ġsuffici":2022,"Ġcorru":2023,"Ġcentury":2024,"Ġfundamental":2025,"Ġhold":2026,"ORI":2027,"Ġthorough":2028,"mer":2029,"ug":2030,"Ġine":2031,"ert":2032,"ator":2033,"Ġred":2034,"ĠWhere":2035,"ĠPer":2036,"Ġsubtle":2037,"Ġhistor":2038,"ĠKant":2039,"Ġinterpret":2040,"ĠSocrates":2041,"ĠApoll":2042,"Ġhome":2043,"Ġhence":2044,"ached":2045,"Ġimposs":2046,"Ġkeep":2047,"Ġdoctrine":2048,"Ġ7":2049,"Ġdeterm":2050,"ĠEng":2051,"ĠWho":2052,"Ġbelieved":2053,"Ġsubli":2054,"Ġremain":2055,"Ġbrought":2056,"Ġimmedi":2057,"Ġanimals":2058,"LLI":2059,"oral":2060,"Ġears":2061,"ĠSp":2062,"alism":2063,"Ġwomen":2064,"Ġadvant":2065,"Ġfurther":2066,"come":2067,"Ġcold":2068,"vere":2069,"Ġdece":2070,"Ġexp":2071,"gener":2072,"ols":2073,"acity":2074,"Ġinvent":2075,"Ġstruggle":2076,"Ġsympath":2077,"PSIS":2078,"HORI":2079,"ZONT":2080,"gy":2081,"val":2082,"Ġsk":2083,"Ġsle":2084,"Ġinner":2085,"Ġund":2086,"ĠGo":2087,"ĠELLI":2088,"Ġforms":2089,"Ġtyp":2090,"Ġopen":2091,"haust":2092,"Ġpunishment":2093,"Ġneighbour":2094,"HORIZONT":2095,"ĠELLIPSIS":2096,"HORIZONTAL":2097,"Ġsight":2098,"Ġscientific":2099,"Ġbro":2100,"Ġfine":2101,"Ġgives":2102,"Ġlonging":2103,"Ġspect":2104,"Ġdistinct":2105,"Ġpersonal":2106,"Ġdifficult":2107,"Ġdog":2108,"ethe":2109,"Ġfell":2110,"Ġrare":2111,"Ġthyself":2112,"wh":2113,"Ġhost":2114,"Ġciv":2115,"ĠTr":2116,"Ġknown":2117,"Ġphilosoph":2118,"Ġinvol":2119,"Ġherd":2120,"Ġharm":2121,"Ġsuccess":2122,"Ġnumber":2123,"aven":2124,"oom":2125,"Ġought":2126,"Ġseen":2127,"Ġmel":2128,"Ġvi":2129,"Ġformul":2130,"Ġjustice":2131,"hens":2132,"theless":2133,"Ġemot":2134,"Ġtriumph":2135,"ung":2136,"Ġpie":2137,"Ġthous":2138,"arly":2139,"illing":2140,"osing":2141,"Ġneither":2142,"Ġselfc":2143,"Ġthinking":2144,"Ġincre":2145,"Ġsacrifice":2146,"Ġexception":2147,"Ġdegree":2148,"Ġcircumst":2149,"Ġmetaphys":2150,"Ġsuspic":2151,"ION":2152,"Ġav":2153,"Ġforce":2154,"Ġforth":2155,"ĠSe":2156,"oses":2157,"Ġgoal":2158,"Ġassum":2159,"Ġsatisf":2160,"Ġair":2161,"oura":2162,"Ġheard":2163,"idence":2164,"Ġsea":2165,"acher":2166,"Ġspr":2167,"ĠLife":2168,"ĠDo":2169,"Ġmisunder":2170,"Ġconception":2171,"Ġopposite":2172,"Ġcruel":2173,"aim":2174,"ps":2175,"Ġswe":2176,"Ġhor":2177,"Ġthree":2178,"ively":2179,"Ġenv":2180,"ĠWhy":2181,"overed":2182,"Ġstands":2183,"Ġoccas":2184,"Ġgenerally":2185,"ges":2186,"Ġpessim":2187,"Ġforg":2188,"Ġhast":2189,"rog":2190,"ĠThen":2191,"Ġactions":2192,"Ġspirits":2193,"Ġappears":2194,"ler":2195,"pire":2196,"outh":2197,"asm":2198,"Ġsuf":2199,"Ġsuffer":2200,"Ġrule":2201,"Ġunivers":2202,"Ġfavour":2203,"ĠPlato":2204,"IL":2205,"uality":2206,"Ġhal":2207,"Ġotherwise":2208,"Ġpassions":2209,"Ġcommand":2210,"educ":2211,"yle":2212,"ĠTR":2213,"Ġlow":2214,"Ġstage":2215,"Ġdeed":2216,"Ġdegener":2217,"Ġproof":2218,"Ġyoung":2219,"lished":2220,"gar":2221,"hood":2222,"Ġtur":2223,"Ġmain":2224,"Ġcustom":2225,"Ġshow":2226,"Ġpeace":2227,"Ġbring":2228,"Ġanti":2229,"Ġbreak":2230,"Ġcircumstances":2231,"ining":2232,"Ġwise":2233,"Ġattain":2234,"ĠOur":2235,"ellig":2236,"Ġplac":2237,"ĠYou":2238,"Ġabsolutely":2239,"Ġcheer":2240,"Ġpublic":2241,"TER":2242,"uli":2243,"Ġmad":2244,"ony":2245,"Ġstates":2246,"Ġshame":2247,"Ġprob":2248,"Ġface":2249,"arent":2250,"Ġnecessity":2251,"Ġsimil":2252,"Ġchildren":2253,"Ġdestro":2254,"Ġhyp":2255,"Ġopinion":2256,"Ġcivili":2257,"ric":2258,"Ġwit":2259,"Ġsit":2260,"Ġsalvation":2261,"ctive":2262,"Ġune":2263,"ident":2264,"ried":2265,"ify":2266,"Ġpoli":2267,"ĠOh":2268,"ĠNihili":2269,"udd":2270,"Ġacts":2271,"ĠGermany":2272,"ger":2273,"Ġet":2274,"adays":2275,"Ġvan":2276,"Ġdiss":2277,"Ġclose":2278,"ship":2279,"ĠEuropean":2280,"OM":2281,"men":2282,"Ġly":2283,"Ġwind":2284,"Ġheight":2285,"Ġheav":2286,"pened":2287,"amed":2288,"fection":2289,"Ġmyst":2290,"keth":2291,"Ġpraise":2292,"Ġdraw":2293,"Ġcounter":2294,"Ġtakes":2295,"Ġvain":2296,"Ġpoor":2297,"Ġages":2298,"Ġresp":2299,"Ġweakness":2300,"Ġdevil":2301,"Ã¦sthe":2302,"Ġdomin":2303,"body":2304,"cul":2305,"tom":2306,"Ġbes":2307,"Ġhate":2308,"Ġfate":2309,"Ġforget":2310,"Ġdead":2311,"Ġchang":2312,"Ġrank":2313,"ĠChurch":2314,"Ġactual":2315,"hesis":2316,"Ġopposed":2317,"Ġdevelopment":2318,"Ġjudgment":2319,"Ġmovement":2320,"Ġimpossible":2321,"Ġviol":2322,"aid":2323,"dle":2324,"lies":2325,"Ġmaking":2326,"ingu":2327,"Ġann":2328,"Ġexhaust":2329,"Ġsoon":2330,"ants":2331,"ĠNature":2332,"Ġyouth":2333,"ĠRom":2334,"Ġextra":2335,"ĠVer":2336,"Ġwishes":2337,"Ġgrand":2338,"Ġexperiences":2339,"OT":2340,"what":2341,"Ġoper":2342,"Ġbo":2343,"asp":2344,"thod":2345,"ĠAh":2346,"ĠAr":2347,"ational":2348,"ĠThese":2349,"Ġdoing":2350,"ument":2351,"ock":2352,"Ġsince":2353,"Ġ8":2354,"Ġast":2355,"ites":2356,"Ġmedi":2357,"onian":2358,"Ġfan":2359,"oured":2360,"ĠTO":2361,"Ġlay":2362,"Ġmyth":2363,"ĠFrom":2364,"Ġpriv":2365,"Ġpsychological":2366,"Ġbottom":2367,"Ġsympathy":2368,"tr":2369,"Ġbound":2370,"Ġfain":2371,"Ġec":2372,"ĠIN":2373,"Ġstyle":2374,"Ġvoice":2375,"Ġevol":2376,"Ġyourselves":2377,"Ġuntil":2378,"Ġequal":2379,"ĠGoethe":2380,"ead":2381,"Ġtell":2382,"Ġcol":2383,"Ġlab":2384,"Ġsepar":2385,"ters":2386,"ivity":2387,"Ġsought":2388,"Ġnevertheless":2389,"ĠPerhaps":2390,"xt":2391,"Ġ9":2392,"ening":2393,"ann":2394,"ĠInd":2395,"Ġheaven":2396,"Ġfail":2397,"Ġproud":2398,"Ġowing":2399,"Ġreasons":2400,"Ġcrim":2401,"Ġphenomenon":2402,"Ġimportant":2403,"Ġcontempl":2404,"aves":2405,"ses":2406,"Ġeduc":2407,"Ġmir":2408,"Ġborn":2409,"Ġpict":2410,"Ġep":2411,"Ġrevol":2412,"Ġchange":2413,"Ġpresence":2414,"Ġsaw":2415,"Ġbeginning":2416,"alists":2417,"Ġphysiological":2418,"but":2419,"uation":2420,"with":2421,"lin":2422,"Ġbit":2423,"Ġbar":2424,"Ġener":2425,"Ġsees":2426,"Ġstronger":2427,"Ġserious":2428,"ocratic":2429,"Ġsingle":2430,"Ġadvantage":2431,"ĠVerily":2432,"ially":2433,"ioned":2434,"ingly":2435,"enth":2436,"Ġcharm":2437,"upid":2438,"Ġlacking":2439,"Ġthoroughly":2440,"II":2441,"fl":2442,"iest":2443,"Ġtheolog":2444,"Ġsong":2445,"ĠAND":2446,"Ġmethod":2447,"Ġqualities":2448,"Ġnowadays":2449,"ability":2450,"Ġkinds":2451,"ĠJews":2452,"CE":2453,"br":2454,"ror":2455,"ĠÃ¦sthe":2456,"Ġbreat":2457,"urd":2458,"Ġexer":2459,"rench":2460,"Ġtyr":2461,"Ġneeds":2462,"Ġestab":2463,"Ġdecadence":2464,"Ġcreate":2465,"Ġsuperior":2466,"Ġduty":2467,"jud":2468,"wer":2469,"Ġwild":2470,"this":2471,"ines":2472,"Ġ10":2473,"onscious":2474,"Ġgods":2475,"Ġbelongs":2476,"Ġimpulse":2477,"ĠEnglish":2478,"hus":2479,"Ġign":2480,"res":2481,"though":2482,"Ġlist":2483,"Ġexact":2484,"Ġsolit":2485,"Ġevent":2486,"Ġlikewise":2487,"Ġextre":2488,"Ġsurp":2489,"Ġrespons":2490,"LE":2491,"Ġeff":2492,"asc":2493,"Ġdeli":2494,"Ġvar":2495,"Ġshad":2496,"Ġintr":2497,"Ġintellig":2498,"Ġpreser":2499,"Ġtransform":2500,"Ġsenses":2501,"Ġsublime":2502,"Ġcomb":2503,"ĠFrench":2504,"Ġindividuals":2505,"Ġenemy":2506,"Ġoccasion":2507,"action":2508,"ches":2509,"Ġmouth":2510,"anch":2511,"Ġnotion":2512,"Ġneg":2513,"Ġnecessarily":2514,"ĠApollonian":2515,"'t":2516,"lled":2517,"Ġreverse":2518,"Ġalong":2519,"umb":2520,"Ġrise":2521,"Ġ11":2522,"Ġartists":2523,"Ġtrad":2524,"Ġdistingu":2525,"Ġfeels":2526,"ENT":2527,"Ġsilent":2528,"Ġcommunity":2529,"ios":2530,"Ġtalk":2531,"Ġhour":2532,"Ġholy":2533,"Ġthirst":2534,"ĠBudd":2535,"Ġeverywhere":2536,"Ġspiritual":2537,"Ġremains":2538,"Ġhappy":2539,"Ġcondem":2540,"Ġmodest":2541,"Ġseemed":2542,"Ġhalf":2543,"Ġdestroy":2544,"gress":2545,"Ġ*":2546,"lim":2547,"Ġsedu":2548,"Ġug":2549,"Ġstupid":2550,"Ġliber":2551,"Ġdelic":2552,"Ġperce":2553,"Ġgrat":2554,"Ġgold":2555,"Ġspeaks":2556,"Ġlooked":2557,"Ġcreated":2558,"Ġbooks":2559,"Ġconsequences":2560,"Ġenemies":2561,"The":2562,"aul":2563,"app":2564,"lud":2565,"oid":2566,"Ġtreat":2567,"Ġsake":2568,"Ġnar":2569,"Ġconqu":2570,"Ġlost":2571,"Ġdise":2572,"Ġrights":2573,"Ġgloom":2574,"Ġgrad":2575,"Ġnamely":2576,"point":2577,"Ġverily":2578,"Ġinterpretation":2579,"cer":2580,"rink":2581,"Ġhund":2582,"Ġcompe":2583,"Ġrich":2584,"Ġartistic":2585,"Ġpowers":2586,"Ġattack":2587,"Ġdesires":2588,"Ġslow":2589,"Ġfinal":2590,"Ġvaluations":2591,"Ġblind":2592,"Ġteaching":2593,"Ġwonder":2594,"Ġhundred":2595,"Ġcry":2596,"orrow":2597,"arge":2598,"Ġlives":2599,"Ġarist":2600,"idered":2601,"Ġdesc":2602,"Ġendure":2603,"Ġfinds":2604,"Ġreturn":2605,"know":2606,"ingdom":2607,"ulty":2608,"ĠCon":2609,"ptom":2610,"Ġleg":2611,"ĠPr":2612,"Ġsymptom":2613,"Ġconstant":2614,"ITY":2615,"Ġsacrific":2616,"ĠÃ¦sthetic":2617,"ken":2618,"side":2619,"une":2620,"enced":2621,"Ġbas":2622,"Ġho":2623,"Ġfather":2624,"Ġposition":2625,"Ġdie":2626,"Ġdark":2627,"que":2628,"irth":2629,"Ġallow":2630,"ĠSh":2631,"ĠSuch":2632,"uman":2633,"ĠPaul":2634,"ception":2635,"Ġimmediately":2636,"Ġsleep":2637,"EL":2638,"pir":2639,"use":2640,"Ġi":2641,"Ġfra":2642,"Ġeag":2643,"Ġbeast":2644,"Ġexcess":2645,"Ġworks":2646,"Ġknew":2647,"Ġmorals":2648,"prehens":2649,"Ġamount":2650,"Ġexisted":2651,"Ġbecoming":2652,"Ġschol":2653,"Ġenergy":2654,"ech":2655,"Ġterm":2656,"Ġwick":2657,"Ġpet":2658,"Ġduring":2659,"alled":2660,"ously":2661,"ames":2662,"Ġworst":2663,"astic":2664,"Ġspite":2665,"Ġconsidered":2666,"Ġmatters":2667,"Ġdefinite":2668,"Ġdomain":2669,"Ġscho":2670,"Ġvictory":2671,"Ġessential":2672,"OW":2673,"culi":2674,"eav":2675,"olish":2676,"Ġcross":2677,"Ġfig":2678,"rie":2679,"ĠWH":2680,"Ġprejud":2681,"ĠOf":2682,"Ġleft":2683,"ĠPro":2684,"Ġround":2685,"Ġ12":2686,"ield":2687,"Ġendeav":2688,"Ġuseful":2689,"Ġsentiment":2690,"UR":2691,"miss":2692,"por":2693,"tim":2694,"uine":2695,"ators":2696,"Ġmonst":2697,"Ġder":2698,"Ġlived":2699,"Ġmeet":2700,"Ġalthough":2701,"Ġnone":2702,"Ġcomfort":2703,"Ġattained":2704,"Ġabsurd":2705,"Ġelement":2706,"Ġdisgust":2707,"Ġeasily":2708,"TH":2709,"bar":2710,"oot":2711,"Ġmer":2712,"Ġlower":2713,"Ġyear":2714,"Ġfollow":2715,"Ġconstitut":2716,"Ġrelations":2717,"Ġprevail":2718,"Ġphenomena":2719,"Ġcauses":2720,"standing":2721,"Ġpolitic":2722,"Ġtort":2723,"itation":2724,"Ġhid":2725,"Ġcow":2726,"Ġhap":2727,"uries":2728,"Ġarg":2729,"ĠPe":2730,"Ġused":2731,"Ġpeculi":2732,"Ġgrown":2733,"Ġclaim":2734,"Ġgoes":2735,"Ġdistrust":2736,"Ġwished":2737,"Ġlaws":2738,"Ġpriests":2739,"Ġbehold":2740,"Ġwrong":2741,"Ġwait":2742,"Ġthousand":2743,"athe":2744,"Ġcoll":2745,"Ġdays":2746,"Ġbeings":2747,"cend":2748,"Ġforces":2749,"Ġstra":2750,"ners":2751,"ternal":2752,"Ġpsychology":2753,"Ġclasses":2754,"Ġvision":2755,"Ġhistorical":2756,"ape":2757,"nest":2758,"Ġtask":2759,"Ġhop":2760,"Ġfight":2761,"Ġpati":2762,"ctions":2763,"Ġlu":2764,"thren":2765,"Ġste":2766,"acle":2767,"rud":2768,"Ġsphere":2769,"Ġunf":2770,"Ġground":2771,"Ġdecl":2772,"Ġbrother":2773,"Ġgenuine":2774,"Ġprivile":2775,"IG":2776,"fter":2777,"land":2778,"ron":2779,"heth":2780,"ouse":2781,"Ġsum":2782,"Ġsupre":2783,"Ġoneself":2784,"ĠBy":2785,"ortion":2786,"Ġgrasp":2787,"ALL":2788,"Ġready":2789,"ĠUn":2790,"Ġbrethren":2791,"Ġdeny":2792,"ihil":2793,"Ġservice":2794,"Ġsuspicion":2795,"ourable":2796,"Ġsweet":2797,"Ġextreme":2798,"cceed":2799,"ĠX":2800,"ishes":2801,"Ġmass":2802,"Ġfac":2803,"Ġtook":2804,"oun":2805,"ication":2806,"Ġnon":2807,"Ġlimit":2808,"Ġdepend":2809,"uls":2810,"ruction":2811,"ĠPower":2812,"Ġ13":2813,"Ġ19":2814,"Ġoblig":2815,"Ġideals":2816,"Ġroot":2817,"Ġantit":2818,"Ġtendency":2819,"Ġconclusion":2820,"Ġcruelty":2821,"IR":2822,"fer":2823,"ray":2824,"vil":2825,"Ġbird":2826,"Ġfru":2827,"Ġdread":2828,"Ġrepe":2829,"Ġforward":2830,"Ġliter":2831,"Ġsucceed":2832,"ĠAm":2833,"Ġperfection":2834,"Ġlogic":2835,"Ġchor":2836,"ology":2837,"Ġstandard":2838,"Ġspeaking":2839,"Ġfollows":2840,"Ġresults":2841,"Ġelev":2842,"ialect":2843,"ĠJewish":2844,"Ġanswer":2845,"Ġuniversal":2846,"Ġbasis":2847,"Ġwent":2848,"Ġwilling":2849,"ician":2850,"Ġbear":2851,"asy":2852,"Ġgot":2853,"Ġshows":2854,"ospe":2855,"aches":2856,"Ġprove":2857,"Ġcoming":2858,"apter":2859,"ounded":2860,"Ġ17":2861,"Ġobv":2862,"Ġcloud":2863,"Ġstandpoint":2864,"Ġdiscover":2865,"Ġquestions":2866,"Ġpainful":2867,"Ġconcepts":2868,"REE":2869,"Ġaccept":2870,"Ġconcealed":2871,"ĠNihilism":2872,"iling":2873,"pic":2874,"Ġtest":2875,"Ġaut":2876,"Ġmed":2877,"Ġreached":2878,"Ġstud":2879,"Ġstone":2880,"Ġexce":2881,"fered":2882,"Ġsol":2883,"Ġsoil":2884,"Ġ14":2885,"tered":2886,"Ġguard":2887,"Ġguilt":2888,"Ġconsequence":2889,"Ġminds":2890,"Ġcharacteristic":2891,"Ġessence":2892,"Ġpossession":2893,"Ġutility":2894,"Ġcapable":2895,"Ġcarry":2896,"Ġprimitive":2897,"Ġcontradict":2898,"Ġpopular":2899,"Ġinnocence":2900,"Ġhappened":2901,"Ġpeculiar":2902,"oh":2903,"uff":2904,"Ġtaught":2905,"Ġment":2906,"Ġsole":2907,"ĠGood":2908,"Ġpoison":2909,"Ġdisci":2910,"ĠHell":2911,"Ġthinker":2912,"Ġdistance":2913,"Ġenthus":2914,"Ġimmort":2915,"ibly":2916,"Ġoriginal":2917,"Ġsignific":2918,"Ġimpulses":2919,"Ġcontradiction":2920,"Ġultimate":2921,"ancholy":2922,"Ġenthusi":2923,"gain":2924,"ration":2925,"Ġthird":2926,"Ġdialect":2927,"imul":2928,"iments":2929,"ils":2930,"anted":2931,"Ġfeet":2932,"ĠNOT":2933,"Ġ16":2934,"Ġdesir":2935,"Ġstrict":2936,"Ġdiscovered":2937,"Ġindepend":2938,"ĠYea":2939,"mp":2940,"xim":2941,"yn":2942,"Ġline":2943,"ouble":2944,"Ġdi":2945,"Ġgave":2946,"Ġweary":2947,"Ġsoc":2948,"ĠBE":2949,"ĠLe":2950,"Ġnatures":2951,"Ġjudge":2952,"Ġentirely":2953,"Ġsuddenly":2954,"Ġcorruption":2955,"hip":2956,"mn":2957,"uct":2958,"neth":2959,"erable":2960,"Ġfash":2961,"Ġallowed":2962,"rol":2963,"ĠHom":2964,"Ġprep":2965,"Ġner":2966,"Ġgoodness":2967,"Ġaccomp":2968,"Ġregards":2969,"Ġglor":2970,"Ġrelation":2971,"Ġutter":2972,"Ġcenturies":2973,"Ġcontinually":2974,"Ġmidst":2975,"Ġformula":2976,"Ġprobably":2977,"Ġsimilar":2978,"Ġsocalled":2979,"oke":2980,"isc":2981,"omm":2982,"ayer":2983,"Ġdet":2984,"Ġvent":2985,"acy":2986,"Ġprogress":2987,"ival":2988,"ĠPh":2989,"Ġgreatness":2990,"Ġ15":2991,"Ġremained":2992,"Ġstrongest":2993,"Ġapparent":2994,"Ġfool":2995,"Ġbegins":2996,"Ġhealthy":2997,"Ġrecognised":2998,"Ġcompletely":2999,"ĠSuper":3000,"Ġannihil":3001,"Ġdelicate":3002,"times":3003,"Ġchorus":3004,"Ġtheory":3005,"Ġmon":3006,"aries":3007,"Ġled":3008,"Ġlate":3009,"ract":3010,"chie":3011,"Ġsever":3012,"Ġpress":3013,"ĠON":3014,"ĠDe":3015,"Ġmode":3016,"Ġhearts":3017,"ĠOnly":3018,"Ġpossessed":3019,"Ġpractice":3020,"Ġimportance":3021,"Ġrequires":3022,"Ġsuffere":3023,"ened":3024,"gn":3025,"olic":3026,"rew":3027,"isp":3028,"Ġmult":3029,"Ġfast":3030,"Ġfun":3031,"Ġdrink":3032,"asant":3033,"imately":3034,"Ġgif":3035,"Ġstood":3036,"Ġsex":3037,"ĠWell":3038,"Ġperform":3039,"Ġchance":3040,"Ġrul":3041,"Ġyea":3042,"Ġ20":3043,"Ġdistress":3044,"together":3045,"Ġcorre":3046,"Ġlaught":3047,"Ġpoets":3048,"Ġmountains":3049,"Ġauthor":3050,"Ġsufficiently":3051,"Ġshadow":3052,"Ġtradition":3053,"ĠBuddh":3054,"Ġcoward":3055,"spect":3056,"iny":3057,"Ġsaint":3058,"ats":3059,"Ġmali":3060,"Ġcred":3061,"lection":3062,"Ġland":3063,"rop":3064,"Ġmem":3065,"Ġmeant":3066,"Ġpost":3067,"Ġproved":3068,"ables":3069,"Ġemb":3070,"avi":3071,"ixed":3072,"Ġessentially":3073,"ground":3074,"Ġetc":3075,"Ġvanity":3076,"Ġheavy":3077,"Ġsolitude":3078,"Ġexcell":3079,"Ġsignificance":3080,"gen":3081,"ms":3082,"lied":3083,"Ġsan":3084,"Ġfly":3085,"esc":3086,"Ġlater":3087,"Ġexpect":3088,"Ġvit":3089,"Ġvul":3090,"amp":3091,"ciation":3092,"fend":3093,"Ġproceed":3094,"Ġimpress":3095,"ĠNew":3096,"Ġleave":3097,"Ġamb":3098,"Ġraces":3099,"Ġdecay":3100,"Ġrefined":3101,"Ġreligions":3102,"Ġillness":3103,"Ġsocial":3104,"Ġdemand":3105,"Ġcontrast":3106,"Ġunconscious":3107,"Ġfalsehood":3108,"Ġformerly":3109,"Ġcriticism":3110,"Ġtypical":3111,"Ġdistinction":3112,"ĠTruth":3113,"Ġmelancholy":3114,"ĠArt":3115,"ob":3116,"Ġtaking":3117,"rent":3118,"Ġdance":3119,"Ġbegan":3120,"Ġren":3121,"Ġgent":3122,"Ġash":3123,"ulous":3124,"illed":3125,"Ġaltogether":3126,"umn":3127,"Ġtherein":3128,"pted":3129,"ĠChapter":3130,"Ġprote":3131,"ĠLi":3132,"Ġindif":3133,"onent":3134,"iety":3135,"ares":3136,"Ġthinks":3137,"Ġwants":3138,"IST":3139,"Ġsuperst":3140,"litical":3141,"Ġreverence":3142,"Ġwritten":3143,"Ġhonesty":3144,"Ġauthority":3145,"Ġmetaphysical":3146,"achers":3147,"known":3148,"hib":3149,"Ġdan":3150,"Ġdri":3151,"edy":3152,"cies":3153,"Ġresist":3154,"Ġovercome":3155,"Ġappeared":3156,"Ġcompar":3157,"ressed":3158,"Ġfoolish":3159,"Ġdreams":3160,"Ġmarri":3161,"Ġexplan":3162,"Ġmagn":3163,"Ġantiqu":3164,"Ġfashion":3165,"Ġlaughter":3166,"ior":3167,"Ġsour":3168,"Ġscept":3169,"quis":3170,"sec":3171,"uther":3172,"Ġarbit":3173,"ĠPar":3174,"Ġmorbid":3175,"ĠLuther":3176,"Ġdesign":3177,"Ġresent":3178,"Ġsaying":3179,"Ġtruths":3180,"Ġunderstanding":3181,"Ġdrama":3182,"Ġworthy":3183,"Ġconviction":3184,"Ġcivilis":3185,"Ġbreath":3186,"Ġpetty":3187,"IV":3188,"ued":3189,"liest":3190,"Ġwalk":3191,"Ġpit":3192,"Ġna":3193,"Ġlarge":3194,"Ġconne":3195,"Ġevents":3196,"ĠMorality":3197,"Ġfacts":3198,"Ġearly":3199,"Ġexperienced":3200,"Ġfolly":3201,"Ġvaluation":3202,"ribed":3203,"ĠNothing":3204,"Ġcapacity":3205,"Ġsilence":3206,"Ġbeneath":3207,"Ġdisgu":3208,"Ġturned":3209,"Ġrom":3210,"ision":3211,"Ġfire":3212,"Ġnames":3213,"asing":3214,"Ġgone":3215,"Ġwear":3216,"Ġdeal":3217,"Ġexper":3218,"gel":3219,"ush":3220,"aling":3221,"Ġarri":3222,"Ġrate":3223,"Ġinstr":3224,"ĠLET":3225,"ishness":3226,"Ġplain":3227,"Ġ21":3228,"Ġsubst":3229,"Ġroad":3230,"Ġlooks":3231,"atural":3232,"ĠBec":3233,"Ġeffects":3234,"Ġimagine":3235,"ĠEverything":3236,"Ġinex":3237,"Ġemotion":3238,"Ġgradually":3239,"Ġashamed":3240,"eed":3241,"gor":3242,"rance":3243,"uss":3244,"atch":3245,"Ġfem":3246,"Ġpen":3247,"otten":3248,"let":3249,"ries":3250,"Ġsevere":3251,"Ġard":3252,"Ġdiscip":3253,"aketh":3254,"Ġapart":3255,"wered":3256,"Ġseriously":3257,"Ġprinciples":3258,"ized":3259,"Ġdepths":3260,"Ġdeveloped":3261,"Ġascend":3262,"Ġcalm":3263,"alised":3264,"Ġmaj":3265,"Ġspring":3266,"Ġextraord":3267,"Ġecst":3268,"Ġbitter":3269,"Ġtyrann":3270,"Ġhidden":3271,"Ġsupreme":3272,"ĠSuperman":3273,"bed":3274,"ium":3275,"Ġack":3276,"Ġwilt":3277,"otest":3278,"ason":3279,"Ġasc":3280,"Ġheld":3281,"Ġsugg":3282,"Ġpret":3283,"Ġperish":3284,"Ġloved":3285,"iliar":3286,"Ġenc":3287,"ĠChristians":3288,"Ġimpro":3289,"Ġaccustom":3290,"lessness":3291,"Ġglance":3292,"Ġconstit":3293,"Ġfoot":3294,"Ġpiece":3295,"Ġlying":3296,"REEK":3297,"Ġacknow":3298,"Ġsuggest":3299,"Ġer":3300,"inter":3301,"Ġmin":3302,"Ġmut":3303,"Ġmort":3304,"Ġcost":3305,"Ġfr":3306,"Ġthine":3307,"Ġrej":3308,"Ġang":3309,"Ġord":3310,"Ġuns":3311,"udes":3312,"Ġactivity":3313,"Ġspeech":3314,"Ġcave":3315,"Ġcalls":3316,"Ġopponent":3317,"edience":3318,"Ġtransl":3319,"retched":3320,"ESS":3321,"Ġesc":3322,"Ġconvin":3323,"untary":3324,"Ġsufficient":3325,"Ġbeside":3326,"aviour":3327,"OS":3328,"Ġtree":3329,"itable":3330,"Ġfals":3331,"Ġdaring":3332,"Ġnations":3333,"Ġshalt":3334,"run":3335,"Ġabst":3336,"ĠMOR":3337,"Ġsometimes":3338,"Ġintox":3339,"Ġbelieves":3340,"Ġ23":3341,"Ġearnest":3342,"version":3343,"Ġequally":3344,"Ġopinions":3345,"Ġmotives":3346,"Ġmaintain":3347,"Ġsurpr":3348,"Ġgloomy":3349,"Ġpolitics":3350,"ole":3351,"vity":3352,"yss":3353,"Ġmark":3354,"Ġasso":3355,"Ġforbid":3356,"Ġanal":3357,"rad":3358,"ĠSM":3359,"Ġthereof":3360,"Ġabyss":3361,"Ġrhy":3362,"Ġinstead":3363,"Ġoutside":3364,"oken":3365,"Ġsav":3366,"Ġincom":3367,"Ġinclud":3368,"Ġpersons":3369,"ĠJes":3370,"Ġempl":3371,"Ġappre":3372,"Ġsigns":3373,"Ġimagination":3374,"Ġhighly":3375,"Ġevolution":3376,"Ġeffort":3377,"Ġaristocratic":3378,"ĠLike":3379,"Ġantiquity":3380,"GREEK":3381,"lus":3382,"ox":3383,"upp":3384,"way":3385,"eng":3386,"Ġtouch":3387,"chan":3388,"Ġven":3389,"iled":3390,"ĠHer":3391,"Ġpermit":3392,"Ġpolitical":3393,"Ġlose":3394,"ĠThose":3395,"Ġchurch":3396,"ĠFOR":3397,"ĠRen":3398,"ĠRome":3399,"Ġexists":3400,"arer":3401,"Ġconduct":3402,"Ġruling":3403,"Ġcompan":3404,"Ġsimple":3405,"ficial":3406,"Ġproblems":3407,"Ġjudgments":3408,"Ġanswered":3409,"Ġphilosophical":3410,"Ġenvy":3411,"Ġcrimin":3412,"Ġvulgar":3413,"Ġgentle":3414,"ĠLETTER":3415,"ĠSMALL":3416,"CT":3417,"OL":3418,"ging":3419,"Ġsad":3420,"Ġfright":3421,"Ġdw":3422,"Ġgaz":3423,"uted":3424,"Ġstart":3425,"ĠAfter":3426,"ifying":3427,"oples":3428,"antic":3429,"ĠFoot":3430,"Ġtrust":3431,"Ġconsist":3432,"Ġobe":3433,"Ġobsc":3434,"ĠRE":3435,"Ġ22":3436,"Ġ26":3437,"Ġselfs":3438,"Ġvirtuous":3439,"Ġimmoral":3440,"Ġillusion":3441,"Ġdirect":3442,"Ġgrowth":3443,"Ġemotions":3444,"Ġbarbar":3445,"RA":3446,"US":3447,"note":3448,"will":3449,"Ġwater":3450,"Ġbig":3451,"Ġfour":3452,"Ġlust":3453,"urity":3454,"Ġmechan":3455,"uments":3456,"Ġ24":3457,"Ġ27":3458,"ended":3459,"Ġbrings":3460,"Ġneeded":3461,"ĠEurip":3462,"Ġparty":3463,"preser":3464,"alistic":3465,"Ġconcerned":3466,"Ġleads":3467,"Ġrecognise":3468,"Ġ188":3469,"Ġasked":3470,"Ġultimately":3471,"Ġaims":3472,"Ġfellow":3473,"Ġexceptional":3474,"Ġhypot":3475,"Ġpicture":3476,"Ġestablished":3477,"Ġignor":3478,"bs":3479,"cl":3480,"tru":3481,"yr":3482,"Ġopt":3483,"Ġwand":3484,"Ġfing":3485,"Ġingen":3486,"Ġeth":3487,"Ġstorm":3488,"Ġkingdom":3489,"Ġarr":3490,"Ġfeature":3491,"udi":3492,"Ġtry":3493,"Ġactor":3494,"place":3495,"Ġdecline":3496,"awn":3497,"Ġeman":3498,"Ġmisery":3499,"Ġconstra":3500,"Ġprincip":3501,"Ġerrors":3502,"Ġnobility":3503,"Ġapproach":3504,"Ġpopul":3505,"Ġselfcont":3506,"Ġintrodu":3507,"Ġstupidity":3508,"Ġschool":3509,"Ġextraordinary":3510,"ĠFootnote":3511,"fty":3512,"face":3513,"Ġtempt":3514,"Ġhung":3515,"Ġpos":3516,"arn":3517,"arse":3518,"Ġrese":3519,"Ġstimul":3520,"pet":3521,"used":3522,"Ġkn":3523,"ĠHave":3524,"Ġspoken":3525,"agon":3526,"ĠMY":3527,"Ġquiet":3528,"ilit":3529,"Ġimpati":3530,"Ġaccident":3531,"Ġattention":3532,"they":3533,"Ġthinkers":3534,"Ġhappens":3535,"Ġwherever":3536,"ĠJud":3537,"Ġinvest":3538,"Ġfrequ":3539,"Ġpsychologist":3540,"Ġvaluable":3541,"Ġspecial":3542,"Ġsentiments":3543,"Ġperiods":3544,"Ġparticularly":3545,"Ġinnocent":3546,"Ġavoid":3547,"Ġclosely":3548,"ĠRoman":3549,"Ġperceive":3550,"Ġobvious":3551,"Ġaccustomed":3552,"IM":3553,"look":3554,"ĠÃ":3555,"lier":3556,"Ġcour":3557,"Ġnation":3558,"urable":3559,"Ġstar":3560,"ĠAgain":3561,"Ġlog":3562,"Ġunknown":3563,"Ġagree":3564,"Ġmorning":3565,"Ġpeoples":3566,"ensive":3567,"Ġ28":3568,"Ġcertainty":3569,"Ġeternity":3570,"ĠDionysus":3571,"Ġmountain":3572,"Ġegoism":3573,"Ġhencefor":3574,"Ġdeceived":3575,"Ġdegeneration":3576,"ĠHellen":3577,"Ġcivilisation":3578,"AS":3579,"bur":3580,"fig":3581,"Ġali":3582,"head":3583,"Ġwretched":3584,"Ġmother":3585,"Ġprud":3586,"Ġdied":3587,"ĠIm":3588,"seless":3589,"Ġmock":3590,"Ġsooth":3591,"olation":3592,"Ġloves":3593,"Ġloath":3594,"Ġevening":3595,"ĠNE":3596,"Ġthanks":3597,"lief":3598,"ocre":3599,"Ġinstinctive":3600,"Ġseeks":3601,"Ġ25":3602,"Ġawake":3603,"Ġrob":3604,"Ġmisfort":3605,"Ġfollowing":3606,"Ġeternally":3607,"ĠĠĠĠĠĠĠĠĠĠĠĠĠĠĠĠ":3608,"ĠAlas":3609,"Ġeasy":3610,"Ġbliss":3611,"Ġredu":3612,"Ġplaces":3613,"Ġnarrow":3614,"Ġantithesis":3615,"Ġlogical":3616,"just":3617,"kes":3618,"king":3619,"ze":3620,"Ġanew":3621,"het":3622,"Ġfle":3623,"iced":3624,"cely":3625,"Ġrender":3626,"Ġaspect":3627,"Ġlaid":3628,"Ġanarch":3629,"ĠSome":3630,"Ġunre":3631,"ortun":3632,"ishing":3633,"ĠGods":3634,"Ġsave":3635,"Ġ29":3636,"Ġremark":3637,"Ġinclin":3638,"Ġcreatures":3639,"Ġmasters":3640,"Ġdepth":3641,"Ġbuild":3642,"Ġsuperiority":3643,"Ġacquire":3644,"Ġmediocre":3645,"Ġeducation":3646,"Ġresponsible":3647,"ĠPeople":3648,"Ġresentment":3649,"Ġdiscipline":3650,"eper":3651,"Ġtal":3652,"Ġwall":3653,"atisf":3654,"sts":3655,"Ġnote":3656,"Ġleng":3657,"Ġselect":3658,"Ġexhib":3659,"ifies":3660,"ocra":3661,"Ġobedience":3662,"Ġhappen":3663,"Ġthroughout":3664,"ĠJust":3665,"Ġtender":3666,"Ġcometh":3667,"Ġinfinite":3668,"Ġwarm":3669,"Ġrelated":3670,"Ġopposition":3671,"Ġconceal":3672,"Ġlaug":3673,"Ġmoments":3674,"Ġdeepest":3675,"Ġcurios":3676,"airs":3677,"Ġfatal":3678,"Ġblessed":3679,"Ġmadness":3680,"Ġmyster":3681,"Ġaston":3682,"Ġexactly":3683,"Ġdisease":3684,"Ġeager":3685,"Ġfruit":3686,"Ġmemory":3687,"Ġexplanation":3688,"Ġemancip":3689,"aper":3690,"natural":3691,"rous":3692,"ĠQ":3693,"Ġvers":3694,"Ġachie":3695,"inity":3696,"Ġsce":3697,"isive":3698,"Ġhur":3699,"Ġtot":3700,"Ġdue":3701,"Ġreach":3702,"Ġfort":3703,"Ġintention":3704,"Ġthereto":3705,"ĠEvil":3706,"ĠEpic":3707,"Ġusually":3708,"Ġindul":3709,"ĠDid":3710,"Ġenorm":3711,"assion":3712,"ief":3713,"Ġremem":3714,"Ġreflect":3715,"undance":3716,"Ġslave":3717,"Ġelevation":3718,"Ġpoetry":3719,"Ġdestruction":3720,"fortun":3721,"Ġmarty":3722,"Ġoccur":3723,"untarily":3724,"Ġbenef":3725,"Ġdecadent":3726,"Ġdirection":3727,"Ġtypes":3728,"Ġcondemn":3729,"Ġmasses":3730,"Ġdisciples":3731,"ĠHomer":3732,"Ġmarriage":3733,"Ġemploy":3734,"Th":3735,"What":3736,"apt":3737,"pired":3738,"uc":3739,"ancy":3740,"lebr":3741,"seau":3742,"Ġla":3743,"ousseau":3744,"Ġshar":3745,"Ġlones":3746,"Ġspread":3747,"agger":3748,"ĠPessim":3749,"Ġcho":3750,"Ġje":3751,"Ġquick":3752,"ilities":3753,"Ġpresupp":3754,"Ġseeing":3755,"Ġselfpreser":3756,"Ġmusician":3757,"Ġimmense":3758,"Ġwanted":3759,"Ġcreating":3760,"Ġcreature":3761,"Ġadvent":3762,"Ġantagon":3763,"Ġdemonst":3764,"Ġrequired":3765,"Ġsupposed":3766,"Ġdestiny":3767,"Ġaffirm":3768,"Ġperfectly":3769,"Ġprovided":3770,"Ġenjoyment":3771,"Ġinvented":3772,"Ġspectator":3773,"Ġpessimism":3774,"Ġgolden":3775,"Ġslowly":3776,"prehensible":3777,"rief":3778,"Ġhopes":3779,"Ġindependent":3780,"Ġassoci":3781,"EM":3782,"eem":3783,"lest":3784,"oz":3785,"rated":3786,"Ġtired":3787,"lict":3788,"Ġmater":3789,"Ġbold":3790,"Ġfit":3791,"Ġtoler":3792,"Ġrece":3793,"Ġforced":3794,"thy":3795,"aying":3796,"ister":3797,"ulf":3798,"ptuous":3799,"Ġimage":3800,"Ġeverybody":3801,"ĠNay":3802,"Ġknowing":3803,"Ġadmit":3804,"Ġgrows":3805,"ords":3806,"Ġpersu":3807,"Ġenter":3808,"Ġlightning":3809,"Ġscar":3810,"Ġconceived":3811,"Ġuncertain":3812,"Ġdespair":3813,"ĠMany":3814,"Ġmotive":3815,"Ġfamous":3816,"Ġexercise":3817,"Ġgratitude":3818,"ĠAmong":3819,"Ġsource":3820,"ĠEuripides":3821,"Ġinvestig":3822,"Ġcuriosity":3823,"vest":3824,"vous":3825,"Ġslight":3826,"onom":3827,"Ġbod":3828,"Ġdign":3829,"ime":3830,"Ġur":3831,"iring":3832,"Ġdepress":3833,"Ġvo":3834,"Ġworse":3835,"Ġprefer":3836,"Ġnear":3837,"ĠFrance":3838,"Ġactive":3839,"Ġrad":3840,"Ġattrib":3841,"there":3842,"Ġbrid":3843,"Ġ30":3844,"Ġamongst":3845,"Ġdiscourse":3846,"Ġscorn":3847,"Ġadvance":3848,"ĠUp":3849,"ĠBeyond":3850,"Ġwrite":3851,"Ġcelebr":3852,"Ġobserve":3853,"Ġhostile":3854,"ĠSee":3855,"Ġmisunderstanding":3856,"Ġdeeds":3857,"Ġchanged":3858,"Ġlabour":3859,"Ġrelationship":3860,"Ġsanct":3861,"Ġcomparison":3862,"ocracy":3863,"CH":3864,"mat":3865,"mble":3866,"oys":3867,"oved":3868,"pid":3869,"pri":3870,"Ã¯":3871,"âĢ":3872,"isation":3873,"iting":3874,"Ġbus":3875,"Ġfest":3876,"oming":3877,"ichard":3878,"Ġevidence":3879,"andal":3880,"ĠHence":3881,"iveness":3882,"Ġdisint":3883,"Ġcontent":3884,"Ġindisp":3885,"Ġdeser":3886,"ĠRousseau":3887,"Ġsubmiss":3888,"Ġblack":3889,"Ġconcern":3890,"Ġglad":3891,"Ġinfer":3892,"Ġinsight":3893,"Ġreadily":3894,"Ġviews":3895,"Ġrepudi":3896,"Ġsensation":3897,"Ġpriestly":3898,"Ġkept":3899,"Ġprevent":3900,"Ġpurely":3901,"Ġfundamentally":3902,"Ġconsideration":3903,"world":3904,"Ġforgotten":3905,"Ġcheerful":3906,"Ġconstantly":3907,"Ġtorture":3908,"Ġcollect":3909,"Ġstraight":3910,"Ġprivilege":3911,"ĠnaÃ¯":3912,"ĠJesus":3913,"ĠPessimism":3914,"âĢĵ":3915,"ring":3916,"itudes":3917,"Ġmask":3918,"otic":3919,"Ġreward":3920,"Ġdel":3921,"ribe":3922,"Ġexal":3923,"ĠSaviour":3924,"Ġprey":3925,"ĠPre":3926,"Ġfair":3927,"Ġenlight":3928,"ĠRichard":3929,"Ġpossibility":3930,"Ġgoing":3931,"Ġreck":3932,"Ġserve":3933,"Ġrefer":3934,"Ġreflection":3935,"Ġafterwards":3936,"ERS":3937,"Ġdemands":3938,"ITH":3939,"Ġdeeply":3940,"Ġpractical":3941,"Ġcalcul":3942,"alisation":3943,"Ġimperative":3944,"Ġhorror":3945,"Ġplaced":3946,"Ġcheerfulness":3947,"Ġciviliz":3948,"Ġexhaustion":3949,"IGH":3950,"Ġmajority":3951,"Ġpopulace":3952,"OP":3953,"from":3954,"Ġten":3955,"Ġtor":3956,"Ġtheat":3957,"inate":3958,"Ġsn":3959,"Ġtone":3960,"Ġnay":3961,"ĠTra":3962,"Ġanx":3963,"raid":3964,"Ġalas":3965,"usions":3966,"ciences":3967,"ĠSU":3968,"alid":3969,"Ġpred":3970,"ĠCON":3971,"ĠNever":3972,"Ġunless":3973,"aged":3974,"Ġric":3975,"iousness":3976,"Ġconsists":3977,"els":3978,"Ġreser":3979,"Ġphilolog":3980,"Ġopportun":3981,"Ġpersonality":3982,"Ġreading":3983,"Ġlearnt":3984,"Ġclean":3985,"Ġobjection":3986,"Ġestim":3987,"Ġsuffered":3988,"Ġprejudice":3989,"Ġdreadful":3990,"Ġmisfortune":3991,"acious":3992,"course":3993,"ec":3994,"oli":3995,"sch":3996,"Ġterr":3997,"Ġsorrow":3998,"Ġbirth":3999,"Ġpot":4000,"icated":4001,"lend":4002,"Ġnons":4003,"Ġreference":4004,"Ġgospe":4005,"ĠIS":4006,"ilosop":4007,"Ġlone":4008,"Ġsomewhat":4009,"Ġarts":4010,"ignation":4011,"Ġolder":4012,"Ġbetray":4013,"lesh":4014,"ĠVol":4015,"Ġmiss":4016,"Ġwanteth":4017,"Ġparad":4018,"Ġleading":4019,"Ġinteresting":4020,"Ġcease":4021,"Ġfamily":4022,"Ġskin":4023,"Ġmodesty":4024,"Ġendeavour":4025,"Ġdesirable":4026,"ĠBuddhism":4027,"ĠMORAL":4028,"Ġhenceforth":4029,"Ġscarcely":4030,"BLE":4031,"UT":4032,"UST":4033,"mal":4034,"hend":4035,"itate":4036,"Ġbased":4037,"Ġfirm":4038,"Ġpale":4039,"arm":4040,"arian":4041,"Ġmood":4042,"aming":4043,"Ġdost":4044,"Ġshown":4045,"osp":4046,"ement":4047,"ĠMe":4048,"amely":4049,"Ġconsum":4050,"Ġrapid":4051,"Ġends":4052,"arest":4053,"Ġperspect":4054,"ĠYes":4055,"Ġcompared":4056,"Ġlooking":4057,"Ġconfidence":4058,"Ġsurr":4059,"Ġsmallest":4060,"Ġwrote":4061,"Ġdepart":4062,"Ġforeign":4063,"Ġgiving":4064,"Ġrepresents":4065,"Ġproduced":4066,"Ġbuilt":4067,"Ġadmire":4068,"Ġhostility":4069,"Ġsatisfaction":4070,"Ġfanatic":4071,"ĠIndeed":4072,"Ġwickedness":4073,"Ġargument":4074,"Ġfaculty":4075,"Ch":4076,"bre":4077,"Ġverse":4078,"Ġhang":4079,"Ġcate":4080,"Ġcrow":4081,"Ġflight":4082,"Ġfixed":4083,"Ġflesh":4084,"Ġpat":4085,"ots":4086,"Ġdig":4087,"oman":4088,"ĠTest":4089,"verted":4090,"Ġdefend":4091,"Ġexagger":4092,"ĠCH":4093,"Ġloft":4094,"ĠFa":4095,"Ġlongest":4096,"Ġspeaketh":4097,"Ġdescend":4098,"Ġadop":4099,"ension":4100,"Ġpossibly":4101,"Ġraise":4102,"Ġaffect":4103,"cked":4104,"sequently":4105,"Ġtransfig":4106,"ĠEuropeans":4107,"Ġpossesses":4108,"Ġsuppose":4109,"Ġprofoundly":4110,"Ġdenial":4111,"Ġuncond":4112,"Ġcoarse":4113,"Ġproportion":4114,"Ġgrew":4115,"asmuch":4116,"Ġdominion":4117,"Ġexcessive":4118,"Ġfigure":4119,"Ġpatience":4120,"Ġinstrument":4121,"Ġescape":4122,"Ġoptim":4123,"VE":4124,"XX":4125,"cest":4126,"eenth":4127,"gl":4128,"ho":4129,"oint":4130,"rate":4131,"vative":4132,"Ġice":4133,"eration":4134,"Ġban":4135,"Ġbow":4136,"Ġcli":4137,"anim":4138,"rian":4139,"Ġyield":4140,"Ġworship":4141,"Ġlofty":4142,"Ġunfortun":4143,"iving":4144,"Ġchoice":4145,"ĠChandal":4146,"Ġprice":4147,"Ġobst":4148,"Ġdecisive":4149,"Ġdifference":4150,"Ġ31":4151,"Ġ34":4152,"Ġ37":4153,"tere":4154,"Ġruin":4155,"licity":4156,"Ġintercourse":4157,"Ġassert":4158,"Ġslaves":4159,"Ġconfess":4160,"Ġclever":4161,"Ġnaturally":4162,"Ġsickness":4163,"Ġvictor":4164,"Ġgregar":4165,"Ġmistake":4166,"Ġexhausted":4167,"Ġcompelled":4168,"Ġsacrifices":4169,"Ġlaughed":4170,"Ġenormous":4171,"ĠnaÃ¯ve":4172,"Ġexalted":4173,"PP":4174,"cad":4175,"ient":4176,"iable":4177,"vent":4178,"Ġtong":4179,"hem":4180,"Ġson":4181,"Ġsqu":4182,"attle":4183,"Ġmild":4184,"Ġcut":4185,"Ġpal":4186,"Ġpious":4187,"Ġdying":4188,"stood":4189,"arant":4190,"Ġlion":4191,"aints":4192,"Ġupright":4193,"ĠPasc":4194,"ĠFin":4195,"Ġtrouble":4196,"ristian":4197,"Ġobtain":4198,"irtue":4199,"Ġremind":4200,"Ġpassed":4201,"Ġ32":4202,"Ġ33":4203,"Ġwhereas":4204,"Ġserp":4205,"Ġgeneration":4206,"Ġfollowed":4207,"Ġrelative":4208,"ATION":4209,"Ġelements":4210,"Ġphysical":4211,"Ġirre":4212,"Ġirrit":4213,"Ġbenevol":4214,"Ġclearly":4215,"Ġacquired":4216,"Ġadmir":4217,"Ġassume":4218,"Ġviolent":4219,"Ġexerc":4220,"Ġlegs":4221,"Ġwicked":4222,"Ġobliged":4223,"Ġmental":4224,"ĠBecause":4225,"Ġrhyth":4226,"Ġvenge":4227,"Ġcriminal":4228,"Ġloathing":4229,"Ġlength":4230,"Ġsharp":4231,"ĠChandala":4232,"OD":4233,"UL":4234,"ax":4235,"fied":4236,"matic":4237,"ored":4238,"lined":4239,"requis":4240,"Ġways":4241,"ndered":4242,"encies":4243,"Ġbright":4244,"Ġfood":4245,"ounce":4246,"ĠdÃ©":4247,"Ġeight":4248,"Ġbeg":4249,"alous":4250,"Ġreali":4251,"Ġhes":4252,"Ġhell":4253,"Ġstop":4254,"ĠAre":4255,"ests":4256,"Ġseas":4257,"Ġsearch":4258,"Ġaltru":4259,"osen":4260,"asts":4261,"Ġprerequis":4262,"acles":4263,"pped":4264,"ĠNap":4265,"ĠEm":4266,"Ġlevel":4267,"Ġdisch":4268,"Ġris":4269,"Ġquar":4270,"ĠIts":4271,"Ġpresum":4272,"play":4273,"Ġsaith":4274,"Ġremote":4275,"Ġdistur":4276,"Ġdistant":4277,"Ġincap":4278,"Ġearlier":4279,"Ġpurs":4280,"Ġsland":4281,"ĠOnce":4282,"Ġsuperficial":4283,"happ":4284,"Ġpromise":4285,"volution":4286,"OUR":4287,"Ġriddle":4288,"Ġmaxim":4289,"Ġhabits":4290,"Ġfamiliar":4291,"Ġimmediate":4292,"Ġmelody":4293,"Ġincrease":4294,"Ġseriousness":4295,"Ġlisten":4296,"Ġresponsibility":4297,"Ġdestroyed":4298,"Ġugly":4299,"Ġconstitutes":4300,"athetic":4301,"Ġindifferent":4302,"ĠHellenic":4303,"Ġlonesome":4304,"Ġgregarious":4305,"RI":4306,"cks":4307,"lling":4308,"Ġtit":4309,"onic":4310,"Ġhouse":4311,"Ġport":4312,"ounder":4313,"Ġdrun":4314,"alcul":4315,"urre":4316,"ĠAph":4317,"Ġmob":4318,"ros":4319,"Ġvice":4320,"Ġwholly":4321,"Ġship":4322,"aster":4323,"antom":4324,"anticism":4325,"Ġchief":4326,"owers":4327,"ogue":4328,"Ġattitudes":4329,"Ġinspired":4330,"Ġherself":4331,"erer":4332,"Ġrepose":4333,"Ġsensitive":4334,"Ġesteem":4335,"Ġdepri":4336,"Ġcontinue":4337,"Ġdespise":4338,"ixt":4339,"Ġinterpreted":4340,"Ġstrive":4341,"Ġburden":4342,"Ġbotched":4343,"Ġinjury":4344,"Ġsymbol":4345,"Ġtemper":4346,"Ġdetermined":4347,"Ġdeceive":4348,"Ġsatisfied":4349,"Ġchanges":4350,"Ġcontemplation":4351,"Ġmirror":4352,"Ġdistinguished":4353,"Ġlux":4354,"Ġsolemn":4355,"Ġcredit":4356,"Ġsuperstition":4357,"Ġdignity":4358,"Ġbusiness":4359,"ĠTestament":4360,"ĠNapole":4361,"AK":4362,"DE":4363,"aiss":4364,"rough":4365,"never":4366,"Ġtables":4367,"ince":4368,"isdom":4369,"Ġmill":4370,"Ġpay":4371,"Ġdare":4372,"llow":4373,"Ġreb":4374,"ldom":4375,"rain":4376,"race":4377,"Ġweight":4378,"Ġdear":4379,"peak":4380,"Ġwhoever":4381,"ĠSel":4382,"Ġprec":4383,"ilight":4384,"ĠHegel":4385,"Ġoverfl":4386,"Ġinstinctively":4387,"Ġ35":4388,"Ġ36":4389,"Ġoppressed":4390,"emption":4391,"Ġglory":4392,"ĠTherefore":4393,"Ġbadly":4394,"Ġcreator":4395,"Ġcreative":4396,"Ġpleasant":4397,"Ġadvoc":4398,"Ġsupport":4399,"Ġhardly":4400,"Ġexplain":4401,"Ġexplained":4402,"Ġvener":4403,"Ġcritic":4404,"Ġvictim":4405,"Ġripe":4406,"Ġdetermine":4407,"valuation":4408,"Ġbroken":4409,"Ġthousands":4410,"Ġlowest":4411,"Ġmethods":4412,"Ġrepeat":4413,"Ġelevated":4414,"Ġconstitute":4415,"Ġterror":4416,"ĠPascal":4417,"aissance":4418,"egr":4419,"how":4420,"hold":4421,"uated":4422,"uber":4423,"ney":4424,"Ġcity":4425,"Ġtold":4426,"oted":4427,"sthat":4428,"ĠTw":4429,"Ġconj":4430,"ĠArist":4431,"ousness":4432,"Ġperpet":4433,"Ġmoreover":4434,"Ġunw":4435,"Ġran":4436,"Ġoutcome":4437,"oked":4438,"Ġsuffers":4439,"Ġtears":4440,"Ġinspire":4441,"Ġgrace":4442,"REAT":4443,"Ġessay":4444,"ĠKnow":4445,"Ġrealm":4446,"Ġheads":4447,"Ġcontemptible":4448,"Ġpathos":4449,"Ġdifficulty":4450,"Ġnobody":4451,"Ġsurely":4452,"ĠTrans":4453,"Ġdegenerate":4454,"Ġwitness":4455,"Ġeconom":4456,"Ġseparate":4457,"Ġseductive":4458,"Ġwonderful":4459,"Ġscholar":4460,"Ġaccompan":4461,"Ġarbitrary":4462,"Ġconnection":4463,"Ġweariness":4464,"Ġecstasy":4465,"Ġobscure":4466,"Ġignorance":4467,"Ġquickly":4468,"ĠNapoleon":4469,"EAR":4470,"ah":4471,"mity":4472,"nature":4473,"ye":4474,"Ġed":4475,"Ġwound":4476,"atory":4477,"itated":4478,"onment":4479,"Ġfif":4480,"ster":4481,"stic":4482,"Ġrevel":4483,"Ġgh":4484,"verty":4485,"Ġwel":4486,"Ġwealth":4487,"ĠAb":4488,"Ġdeeper":4489,"ĠTheir":4490,"Ġseldom":4491,"Ġvast":4492,"ĠWould":4493,"oph":4494,"aces":4495,"Ġpoverty":4496,"Ġloss":4497,"ĠNe":4498,"ĠNor":4499,"ĠEn":4500,"ĠPars":4501,"lings":4502,"Ġpray":4503,"ĠLo":4504,"Ġtimid":4505,"Ġquality":4506,"itional":4507,"Ġsage":4508,"Ġgranted":4509,"Ġselfishness":4510,"Ġclum":4511,"ordial":4512,"Ġafraid":4513,"Ġmusical":4514,"Ġrecon":4515,"ĠYet":4516,"teenth":4517,"Ġteachers":4518,"Ġreader":4519,"Ġexpressed":4520,"Ġconceive":4521,"EST":4522,"poch":4523,"Ġaffli":4524,"Ġcurse":4525,"ĠSocratic":4526,"Ġappropri":4527,"Ġmiddle":4528,"Ġattempts":4529,"Ġmanifests":4530,"work":4531,"which":4532,"Ġcustoms":4533,"Ġfancy":4534,"Ġcolour":4535,"Ġintrins":4536,"Ġliberty":4537,"piration":4538,"Ġscholars":4539,"porary":4540,"Ġprepared":4541,"Ġambition":4542,"Ġopponents":4543,"Ġincluding":4544,"ĠRenaissance":4545,"Ġprincipal":4546,"ĠJuda":4547,"Ġjealous":4548,"Ġindispens":4549,"ĠTragedy":4550,"Ġcrowd":4551,"ĠFinally":4552,"Ġrhythm":4553,"human":4554,"overy":4555,"uptuous":4556,"Ġtable":4557,"Ġaud":4558,"init":4559,"Ġwide":4560,"Ġwinter":4561,"Ġsaints":4562,"Ġfant":4563,"Ġinher":4564,"Ġinasmuch":4565,"Ġdam":4566,"ari":4567,"Ġaside":4568,"Ġsus":4569,"ript":4570,"ription":4571,"cili":4572,"Ġsovere":4573,"ĠSc":4574,"ĠOut":4575,"ĠMoral":4576,"Ġfault":4577,"Ġago":4578,"Ġring":4579,"ictions":4580,"ĠTHAT":4581,"Ġpassage":4582,"Ġrefine":4583,"Ġfriendship":4584,"Ġdifferently":4585,"Ġbelow":4586,"Ġimagined":4587,"Ġfully":4588,"Ġoffer":4589,"Ġgets":4590,"Ġhonours":4591,"Ġident":4592,"Ġpaths":4593,"Ġturns":4594,"Ġcountry":4595,"ĠSupp":4596,"Ġbroad":4597,"Ġfellows":4598,"who":4599,"Ġmisunderstood":4600,"Ġviolence":4601,"Ġcrime":4602,"Ġpictures":4603,"Ġconquer":4604,"Ġsucceeded":4605,"Ġenthusiasm":4606,"Ġnervous":4607,"Ġannihilation":4608,"Ġseverity":4609,"Ġsufferer":4610,"Ġexperiment":4611,"Ġmortal":4612,"Ġrejo":4613,"Ġordinary":4614,"Ġforbidden":4615,"Ġobey":4616,"Ġmartyr":4617,"Ġserpent":4618,"Ġsovereign":4619,"Be":4620,"VER":4621,"iated":4622,"long":4623,"min":4624,"mon":4625,"oon":4626,"whe":4627,"Ġinward":4628,"orous":4629,"ales":4630,"utation":4631,"cture":4632,"ĠIT":4633,"think":4634,"Ġancest":4635,"chor":4636,"Ġweap":4637,"ĠAnt":4638,"Ġdeb":4639,"Ġvig":4640,"ĠWE":4641,"ĠWas":4642,"Ġorg":4643,"inent":4644,"Ġarises":4645,"ĠEx":4646,"ĠMAN":4647,"Ġamid":4648,"ĠDE":4649,"lessly":4650,"Ġthrow":4651,"Ġinclined":4652,"Ġemp":4653,"Ġcultured":4654,"Ġsurv":4655,"Ġsensuality":4656,"oft":4657,"Ġaccordance":4658,"Ġsuppress":4659,"ize":4660,"Ġdenied":4661,"Ġwrath":4662,"Ġuniverse":4663,"Ġsteps":4664,"Ġsounds":4665,"Ġduties":4666,"Ġvoluntary":4667,"Ġsubtlety":4668,"ĠApollo":4669,"Ġspectacle":4670,"while":4671,"Ġinvoluntarily":4672,"Ġsurpass":4673,"Ġcondemned":4674,"ounced":4675,"Ġdialectics":4676,"Ġdancing":4677,"Ġhypothesis":4678,"Ġsooths":4679,"Ġmaterial":4680,"Ġvengeance":4681,"ĠSelf":4682,"AY":4683,"AIN":4684,"af":4685,"father":4686,"iver":4687,"med":4688,"rays":4689,"uit":4690,"Ġwine":4691,"atives":4692,"enn":4693,"Ġbase":4694,"Ġhom":4695,"Ġpaid":4696,"Ġthreat":4697,"Ġtones":4698,"Ġdawn":4699,"Ġlad":4700,"urrence":4701,"Ġnotions":4702,"Ġstro":4703,"Ġalle":4704,"ĠAN":4705,"ulated":4706,"Ġexuber":4707,"ĠWITH":4708,"terior":4709,"Ġsoft":4710,"etter":4711,"Ġperception":4712,"ĠBay":4713,"Ġcompl":4714,"Ġspo":4715,"Ġspace":4716,"Ġleaves":4717,"Ġchast":4718,"Ġchosen":4719,"ĠMay":4720,"Ġcontains":4721,"Ġench":4722,"Ġcaut":4723,"Ġselfd":4724,"Ġregular":4725,"Ġpartly":4726,"ĠWagne":4727,"Ġ38":4728,"Ġpresented":4729,"Ġstanding":4730,"Ġscale":4731,"Ġunderstands":4732,"Ġtruly":4733,"Ġearthly":4734,"Ġwritings":4735,"Ġsymbols":4736,"Ġbrain":4737,"Ġmistrust":4738,"Ġholds":4739,"ĠSpirit":4740,"Ġtransformed":4741,"Ġstudy":4742,"Ġapparently":4743,"Ġexcellence":4744,"Ġscepticism":4745,"Ġsubstance":4746,"ĠÃĨ":4747,"ĠAgainst":4748,"Ġsubmission":4749,"AM":4750,"GE":4751,"cr":4752,"gence":4753,"ked":4754,"oqu":4755,"son":4756,"uck":4757,"Ã¼":4758,"nean":4759,"lid":4760,"itious":4761,"Ġfil":4762,"orism":4763,"Ġecc":4764,"lean":4765,"Ġisol":4766,"Ġnine":4767,"Ġgame":4768,"cts":4769,"urs":4770,"idious":4771,"Ġdefect":4772,"estion":4773,"Ġexceed":4774,"Ġalter":4775,"ushing":4776,"amb":4777,"ĠHim":4778,"anting":4779,"Ġunity":4780,"arted":4781,"Ġconscient":4782,"Ġspec":4783,"Ġdesired":4784,"Ġbelieving":4785,"Ġgrate":4786,"ological":4787,"Ġrab":4788,"Ġsubter":4789,"ends":4790,"Ġincalcul":4791,"ĠToo":4792,"Ġaware":4793,"Ġemph":4794,"Ġsecurity":4795,"Ġimmorality":4796,"Ġstret":4797,"Ġstream":4798,"Ġprofess":4799,"Ġdivined":4800,"Ġdemocratic":4801,"ATH":4802,"Ġsuperfl":4803,"Ġmastery":4804,"Ġpassionate":4805,"Ġoccup":4806,"Ġrevealed":4807,"Ġcaused":4808,"Ġcarried":4809,"Ġstriving":4810,"Ġrepresented":4811,"Ġsymbolic":4812,"Ġinev":4813,"Ġpessimistic":4814,"Ġunex":4815,"Ġtheologians":4816,"ELF":4817,"Ġbeasts":4818,"Ġimmortality":4819,"Ġmultitude":4820,"Ġimpression":4821,"Ġacknowled":4822,"Ġearnestness":4823,"Ġremarkable":4824,"atisfied":4825,"ĠQu":4826,"Thou":4827,"Ġcivilization":4828,"ĠdÃ©cad":4829,"Ġindispensable":4830,"Ġempty":4831,"Ġsuperfluous":4832,"And":4833,"aire":4834,"dra":4835,"ov":4836,"ped":4837,"win":4838,"yra":4839,"netr":4840,"Ġtill":4841,"inoz":4842,"resh":4843,"Ġsen":4844,"isy":4845,"att":4846,"itating":4847,"Ġthro":4848,"Ġthunder":4849,"arf":4850,"Ġnational":4851,"Ġanchor":4852,"Ġsuspect":4853,"Ġaltern":4854,"Ġaloft":4855,"ilty":4856,"ĠGreat":4857,"osm":4858,"ĠHapp":4859,"Ġnoise":4860,"Ġpreach":4861,"ĠBra":4862,"Ġimitation":4863,"ĠOUR":4864,"Ġcomprehens":4865,"Ġunle":4866,"Ġunable":4867,"Ġunhapp":4868,"ĠMore":4869,"orted":4870,"sooth":4871,"Ġindu":4872,"Ġquant":4873,"Ġconsid":4874,"oney":4875,"Ġcaution":4876,"Ġaccess":4877,"Ġaccum":4878,"unning":4879,"Ġjustified":4880,"Ġseeketh":4881,"ollect":4882,"Ġexisting":4883,"Ġrecollect":4884,"Ġintellectuality":4885,"Ġinterrog":4886,"Ġpoints":4887,"Ġfoundation":4888,"Ġsurm":4889,"being":4890,"Ġequality":4891,"Ġtried":4892,"Ġprofoundest":4893,"ĠSoci":4894,"Ġcausality":4895,"Ġfavourable":4896,"Ġfatig":4897,"Ġtreasure":4898,"Ġheroes":4899,"Ġbrave":4900,"Ġcraving":4901,"ugn":4902,"Ġpiety":4903,"Ġsuspicious":4904,"Ġmisunderstand":4905,"Ġheights":4906,"Ġcolours":4907,"Ġsymptoms":4908,"ĠWHAT":4909,"Ġsolution":4910,"Ġfunction":4911,"Ġfemin":4912,"Ġardent":4913,"Ġangry":4914,"Ġconstraint":4915,"Ġcourt":4916,"Ġenlighten":4917,"God":4918,"ait":4919,"con":4920,"ene":4921,"hist":4922,"ivers":4923,"pie":4924,"some":4925,"Ġtast":4926,"Ġod":4927,"Ġmach":4928,"Ġbid":4929,"Ġcop":4930,"Ġcried":4931,"Ġfond":4932,"Ġdim":4933,"icious":4934,"lex":4935,"omach":4936,"Ġwhis":4937,"Ġforsooth":4938,"urious":4939,"rap":4940,"ranean":4941,"Ġstomach":4942,"ĠAL":4943,"ifal":4944,"Ġdoor":4945,"ĠST":4946,"ĠHas":4947,"Ġproc":4948,"Ġimpe":4949,"Ġarise":4950,"Ġcompre":4951,"Ġability":4952,"ĠPR":4953,"ĠPRE":4954,"ĠMus":4955,"Ġrational":4956,"Ġpenetr":4957,"unciation":4958,"Ġdecided":4959,"Ġbetrays":4960,"Ġbrut":4961,"ĠYour":4962,"Ġcomprom":4963,"Ġcompassion":4964,"Ġsecre":4965,"Ġreaders":4966,"Ġ41":4967,"Ġexpresses":4968,"Ġsurface":4969,"Ġbackwards":4970,"Ġjudged":4971,"Ġdemon":4972,"Ġputting":4973,"Ġclassical":4974,"Ġpromises":4975,"Ġcool":4976,"Ġproposition":4977,"mbs":4978,"Ġcurrent":4979,"OUS":4980,"Ġdirected":4981,"Ġseeking":4982,"Ġmaid":4983,"itutions":4984,"Ġlaughing":4985,"Ġmeasures":4986,"ĠSpinoz":4987,"Ġincreasing":4988,"Ġturning":4989,"Ġrevolution":4990,"Ġdeclared":4991,"Ġbirds":4992,"Ġventure":4993,"Ġsexual":4994,"Ġagreeable":4995,"Ġprudence":4996,"Ġmysterious":4997,"Ġradical":4998,"Ġopportunity":4999,"Ġnonsense":5000,"Christian":5001,"Ġtongue":5002,"urrection":5003,"UE":5004,"aff":5005,"hand":5006,"namely":5007,"oven":5008,"vi":5009,"Ġtension":5010,"rep":5011,"Ġsix":5012,"itioned":5013,"Ġbri":5014,"Ġhunt":5015,"Ġfol":5016,"Ġfive":5017,"Ġfulf":5018,"anced":5019,"Ġda":5020,"ental":5021,"utable":5022,"irl":5023,"ironment":5024,"Ġstars":5025,"Ġlips":5026,"Ġallto":5027,"aked":5028,"Ġkne":5029,"Ġkings":5030,"Ġshut":5031,"ume":5032,"Ġprepar":5033,"antly":5034,"Ġpois":5035,"ĠOld":5036,"agan":5037,"Ġwhence":5038,"Ġartific":5039,"Ġdesert":5040,"angers":5041,"Ġoverc":5042,"Ġyourself":5043,"Ġrecomm":5044,"Ġwhereby":5045,"herent":5046,"Ġblame":5047,"Ġsecure":5048,"ibilities":5049,"Ġ42":5050,"Ġsins":5051,"Ġflour":5052,"Ġguilty":5053,"Ġrepro":5054,"Ġrepugn":5055,"ĠBeing":5056,"Ġsuperab":5057,"Ġobjective":5058,"ENCE":5059,"Ġsickly":5060,"mbling":5061,"Ġinterests":5062,"ĠRevolution":5063,"Ġidi":5064,"Ġredemption":5065,"Ġsky":5066,"Ġmetaphysics":5067,"Ġenvironment":5068,"Ġintelligence":5069,"Ġterms":5070,"ulsion":5071,"Ġliterature":5072,"ĠONE":5073,"Ġgift":5074,"Ġcowardly":5075,"Ġfront":5076,"Ġtranslated":5077,"Ġinclination":5078,"ĠEpicur":5079,"Ġbridge":5080,"Ġdisinterest":5081,"ĠParsifal":5082,"initself":5083,"AC":5084,"LD":5085,"const":5086,"iog":5087,"night":5088,"oe":5089,"pr":5090,"Ġbal":5091,"Ġhint":5092,"Ġfasc":5093,"esp":5094,"Ġinqu":5095,"orable":5096,"Ġdust":5097,"icate":5098,"arwin":5099,"Ġnut":5100,"Ġgard":5101,"verage":5102,"Ġdepre":5103,"ulation":5104,"ulate":5105,"iller":5106,"amount":5107,"olution":5108,"ĠGr":5109,"ĠSP":5110,"ĠScience":5111,"Ġnovel":5112,"pture":5113,"thern":5114,"Ġarm":5115,"Ġaband":5116,"Ġunm":5117,"ĠThy":5118,"ĠThrough":5119,"Ġdish":5120,"ĠMen":5121,"Ġtroub":5122,"Ġinstitutions":5123,"ĠLaw":5124,"ogy":5125,"Ġadapt":5126,"Ġgrowing":5127,"Ġselfde":5128,"Ġtraining":5129,"Ġpersist":5130,"Ġmaketh":5131,"Ġseries":5132,"Ġsmell":5133,"Ġ43":5134,"Ġ45":5135,"Ġmighty":5136,"Ġguess":5137,"Ġconflict":5138,"Ġpsychologists":5139,"Ġrests":5140,"Ġdenies":5141,"Ġforest":5142,"Ġmanners":5143,"Ġaffairs":5144,"Ġidios":5145,"Ġsuccumb":5146,"Ġvisible":5147,"Ġorganic":5148,"Ġcorrupted":5149,"Ġexpedi":5150,"Ġharmony":5151,"Ġsimilarly":5152,"Ġdrawn":5153,"Ġbesides":5154,"Ġopera":5155,"Ġdeliver":5156,"Ġoccasionally":5157,"Ġprejudices":5158,"Ġconstituted":5159,"Ġimmortal":5160,"Ġstrictly":5161,"Ġlines":5162,"ĠPhilosop":5163,"Ġvitality":5164,"ĠParis":5165,"Ġdisguise":5166,"Ġromantic":5167,"Ġgaze":5168,"Ġscene":5169,"Ġdelusion":5170,"Ġprerequisite":5171,"Ġmillenn":5172,"Ġsoothsayer":5173,"ĠWagnerian":5174,"draw":5175,"ĠSpinoza":5176,"Ġidiosyn":5177,"FF":5178,"VII":5179,"his":5180,"inth":5181,"reuth":5182,"Ġske":5183,"nds":5184,"Ġhot":5185,"oul":5186,"ourage":5187,"Ġdouble":5188,"icians":5189,"Ġepoch":5190,"set":5191,"vell":5192,"Ġreact":5193,"Ġrendered":5194,"imp":5195,"imil":5196,"enty":5197,"Ġlot":5198,"Ġanger":5199,"ĠWor":5200,"Ġking":5201,"ĠSoph":5202,"inence":5203,"Ġsplend":5204,"ĠMor":5205,"ĠMust":5206,"Ġsaved":5207,"Ġjustification":5208,"Ġjustify":5209,"Ġraised":5210,"Ġhumility":5211,"Ġregarding":5212,"Ġparts":5213,"Ġ39":5214,"Ġteacher":5215,"Ġinvention":5216,"Ġsmile":5217,"Ġgravity":5218,"Ġconceptions":5219,"Ġ40":5220,"Ġ44":5221,"ĠĠĠĠĠĠĠ":5222,"Ġsensations":5223,"Ġfresh":5224,"Ġhonoured":5225,"Ġhonourable":5226,"spond":5227,"ANS":5228,"Ġestimate":5229,"Ġdefence":5230,"ĠWithout":5231,"Ġretur":5232,"ails":5233,"ĠState":5234,"Ġcalling":5235,"ARD":5236,"Ġruns":5237,"Ġobserved":5238,"Ġdisposition":5239,"Ġconclusions":5240,"Ġblessedness":5241,"Ġfallen":5242,"Ġwoe":5243,"Ġproperty":5244,"Ġorganism":5245,"worthy":5246,"Ġvoluptuous":5247,"Ġmonstrous":5248,"Ġpatient":5249,"Ġclouds":5250,"Ġfunctions":5251,"Ġrules":5252,"Ġcorrespond":5253,"Ġexcellent":5254,"Ġresistance":5255,"Ġconvinced":5256,"Ġcelebrated":5257,"Ġtheatre":5258,"olism":5259,"Ġmission":5260,"Ġrealise":5261,"Ġdisturb":5262,"Ġdrunken":5263,"Ġrefinement":5264,"ĠBayreuth":5265,"Ġcomprehend":5266,"Ġidiosyncr":5267,"LY":5268,"fare":5269,"lli":5270,"oble":5271,"rical":5272,"ĠZ":5273,"inating":5274,"rees":5275,"reation":5276,"Ġcro":5277,"Ġcunning":5278,"Ġfer":5279,"Ġinternal":5280,"anity":5281,"Ġdull":5282,"Ġdedu":5283,"Ġbew":5284,"asks":5285,"Ġrealised":5286,"Ġgar":5287,"Ġgain":5288,"vert":5289,"Ġhered":5290,"uration":5291,"Ġantic":5292,"rium":5293,"Ġexec":5294,"ustice":5295,"ĠGospe":5296,"umerable":5297,"ards":5298,"Ġpregn":5299,"ĠCertain":5300,"Ġnext":5301,"pper":5302,"Ġloving":5303,"Ġunnatural":5304,"Ġdisplay":5305,"ĠME":5306,"soever":5307,"Ġprod":5308,"Ġcontrol":5309,"ĠLO":5310,"ĠDarwin":5311,"Ġactors":5312,"Ġconsolation":5313,"Ġenig":5314,"ĠWhatever":5315,"anged":5316,"Ġplays":5317,"Ġsubmit":5318,"Ġtravel":5319,"Ġhumble":5320,"heses":5321,"Ġincarn":5322,"shi":5323,"Ġteeth":5324,"Ġdiscl":5325,"Ġwanton":5326,"Ġplebe":5327,"Ġtranscend":5328,"Ġparas":5329,"Ġsurre":5330,"ĠBeeth":5331,"Ġdrag":5332,"ĠIsra":5333,"Ġutmost":5334,"Ġjoyful":5335,"Ġexceptions":5336,"Ġdespised":5337,"Ġexplo":5338,"Ġsentence":5339,"Ġ187":5340,"Ġnoblest":5341,"Ġmistaken":5342,"Ġsystems":5343,"Ġmagic":5344,"Ġcounten":5345,"Ġimperson":5346,"Ġproperly":5347,"ĠDoes":5348,"withstanding":5349,"Ġintelligible":5350,"Ġpreservation":5351,"Ġsacrificed":5352,"Ġeagle":5353,"Ġcorrect":5354,"Ġbitterness":5355,"Ġacknowledge":5356,"Ġmutual":5357,"Ġpermitted":5358,"Ġfingers":5359,"Ġselfcontrol":5360,"Ġtalent":5361,"Ġremember":5362,"Ġchoose":5363,"Ġdepression":5364,"ĠVolt":5365,"Ġparadox":5366,"Ġperspective":5367,"natured":5368,"Ġchastity":5369,"ĠEpicurus":5370,"Ġanticip":5371,"UM":5372,"io":5373,"then":5374,"uge":5375,"vag":5376,"Ġz":5377,"Ġawe":5378,"Ġalike":5379,"inc":5380,"rest":5381,"reedom":5382,"Ġsink":5383,"Ġsigh":5384,"Ġhide":5385,"Ġhours":5386,"Ġhoney":5387,"Ġcosm":5388,"Ġfill":5389,"Ġfount":5390,"Ġfurn":5391,"Ġthri":5392,"Ġdiet":5393,"lls":5394,"ĠĠĠ":5395,"lymp":5396,"Ġrev":5397,"Ġreject":5398,"Ġgest":5399,"Ġgate":5400,"utions":5401,"ĠInt":5402,"Ġheir":5403,"thou":5404,"ithyra":5405,"Ġnotwithstanding":5406,"Ġstory":5407,"ĠAcc":5408,"ester":5409,"Ġsets":5410,"ĠWisdom":5411,"fee":5412,"ĠGen":5413,"Ġshare":5414,"Ġintended":5415,"Ġprecept":5416,"Ġpreced":5417,"Ġprepo":5418,"Ġwhenever":5419,"Ġproves":5420,"ĠOlymp":5421,"Ġabundance":5422,"apse":5423,"appe":5424,"ableness":5425,"Ġprot":5426,"Ġthank":5427,"Ġphantom":5428,"Ġundert":5429,"Ġobt":5430,"Ġimpart":5431,"ysis":5432,"Ġrage":5433,"Ġbecometh":5434,"Ġwellbeing":5435,"ĠFormer":5436,"Ġtext":5437,"Ġteaches":5438,"Ġdiscer":5439,"Ġwisest":5440,"fici":5441,"Ġflatter":5442,"ĠSchiller":5443,"Ġdevised":5444,"formation":5445,"Ġsupposing":5446,"Ġforeground":5447,"Ġcarefully":5448,"Ġiron":5449,"Ġcalumn":5450,"Ġproduce":5451,"Ġtrem":5452,"Ġinjustice":5453,"Ġmagician":5454,"Ġinnermost":5455,"Ġrarely":5456,"ILL":5457,"Ġextravag":5458,"Ġsongs":5459,"Ġestablish":5460,"Ġdeliber":5461,"Ġintelligent":5462,"Ġnegation":5463,"cerning":5464,"Ġlimits":5465,"Ġseveral":5466,"Ġexpected":5467,"Ġmagnific":5468,"gorical":5469,"Ġsavage":5470,"Ġincomprehensible":5471,"Ġappreci":5472,"Ġefforts":5473,"Ġfinger":5474,"Ġfrequently":5475,"Ġemployed":5476,"Ġantagonism":5477,"Ġbodies":5478,"Ġsurround":5479,"ĠEmpire":5480,"Ġtitle":5481,"Ġsuscept":5482,"ĠÃĨsch":5483,"Ġsubterranean":5484,"Ġincalculable":5485,"Ġprodig":5486,"ĠBeethoven":5487,"ĠIsrael":5488,"ĠVoltaire":5489,"ĠFormerly":5490,"AST":5491,"avery":5492,"bb":5493,"bly":5494,"born":5495,"fall":5496,"gent":5497,"mane":5498,"mosp":5499,"oes":5500,"off":5501,"sed":5502,"Âł":5503,"Ġaid":5504,"Ġaverage":5505,"held":5506,"Ġsag":5507,"Ġoffered":5508,"Ġmaint":5509,"Ġbed":5510,"oric":5511,"Ġtou":5512,"Ġdow":5513,"Ġbears":5514,"Ġbearing":5515,"Ġnour":5516,"Ġrede":5517,"ĠIde":5518,"Ġlest":5519,"Ġstages":5520,"ĠAd":5521,"iff":5522,"ushed":5523,"ets":5524,"Ġintent":5525,"acri":5526,"Ġpoem":5527,"ructive":5528,"Ġarrog":5529,"Ġeveryone":5530,"Ġunbe":5531,"ĠEX":5532,"ĠEd":5533,"Ġleap":5534,"Ġgreatly":5535,"Ġanyone":5536,"ĠLove":5537,"ulture":5538,"Ġplan":5539,"Ġpresc":5540,"Ġselfe":5541,"Ġtruthfulness":5542,"tofore":5543,"Ġappeal":5544,"Ġawaken":5545,"Ġrightly":5546,"Ġinvalid":5547,"ĠVirtue":5548,"Ġapplies":5549,"Ġapplied":5550,"Ġinspiration":5551,"Ġgenerations":5552,"Ġguarant":5553,"Ġwarri":5554,"Ġparal":5555,"Ġbackward":5556,"Ġbackground":5557,"ĠUN":5558,"upon":5559,"ANT":5560,"Ġunclean":5561,"Ġimaginary":5562,"Ġcontinual":5563,"Ġprompt":5564,"Ġafford":5565,"Ġburst":5566,"ETH":5567,"Ġmidnight":5568,"Ġobservation":5569,"Ġtendencies":5570,"Ġrig":5571,"Ġnegative":5572,"ĠConcerning":5573,"Ġfrag":5574,"Ġnonent":5575,"Ġlimited":5576,"Ġroots":5577,"Ġnerves":5578,"Ġcowardice":5579,"Ġindifference":5580,"Ġcompany":5581,"Ġdwell":5582,"Ġmechanical":5583,"Ġachieved":5584,"Ġpersuade":5585,"Ġeighteenth":5586,"Ġrabble":5587,"Ġenlightenment":5588,"Ġbrilli":5589,"constitut":5590,"Ġmillennium":5591,"Ġskept":5592,"Ġplebeian":5593,"Ġmaintained":5594,"Ġredeem":5595,"CI":5596,"EA":5597,"ailing":5598,"gard":5599,"ky":5600,"rich":5601,"wixt":5602,"Ġoh":5603,"itement":5604,"Ġbattle":5605,"Ġpin":5606,"Ġinsc":5607,"eding":5608,"Ġeat":5609,"Ġease":5610,"ley":5611,"ald":5612,"Ġwhite":5613,"Ġgrief":5614,"vern":5615,"ayed":5616,"chance":5617,"hers":5618,"ĠAR":5619,"ĠAS":5620,"ainted":5621,"Ġexternal":5622,"Ġatmosp":5623,"ift":5624,"Ġsold":5625,"ĠGREAT":5626,"Ġpreachers":5627,"ĠCrit":5628,"Ġtherefrom":5629,"Ġpermane":5630,"Ġnearer":5631,"ĠNote":5632,"Ġdisag":5633,"Ġdisapp":5634,"ortions":5635,"Ġpron":5636,"Ġindication":5637,"elling":5638,"ignific":5639,"Ġoldest":5640,"ERE":5641,"akespe":5642,"Ġinsist":5643,"Ġinsignific":5644,"Ġoriginally":5645,"Ġ46":5646,"Ġabsor":5647,"Ġflow":5648,"Ġconfound":5649,"Ġeloqu":5650,"Ġobjects":5651,"uously":5652,"Ġlacks":5653,"Ġnormal":5654,"Ġhardest":5655,"versely":5656,"Ġforemost":5657,"Ġexcl":5658,"Ġdoctrines":5659,"Ġmanifested":5660,"Ġorganisation":5661,"ĠWherever":5662,"Ġadvantages":5663,"Ġdogma":5664,"Ġinvolved":5665,"Ġsuccessful":5666,"Ġpieces":5667,"Ġassumption":5668,"Ġsprang":5669,"Ġhoriz":5670,"Ġbreaks":5671,"Ġhypocr":5672,"Ġmystery":5673,"Ġrevolt":5674,"Ġcombat":5675,"Ġconquest":5676,"ĠShould":5677,"Ġdistrustful":5678,"Ġwillingly":5679,"Ġautumn":5680,"Ġtyranny":5681,"Ġabstract":5682,"Ġintoxication":5683,"Ġsurprise":5684,"Ġarrange":5685,"Ġintroduced":5686,"Ġhunger":5687,"Ġpositive":5688,"Ġreduced":5689,"Ġflee":5690,"Ġwalls":5691,"Ġbenefit":5692,"Ġselfpreservation":5693,"Ġincapable":5694,"ĠJudaism":5695,"Ġancestors":5696,"Ġgrateful":5697,"ĠBrah":5698,"Ġinterrogation":5699,"Ġpreponder":5700,"'ll":5701,"GH":5702,"iers":5703,"lated":5704,"rict":5705,"neous":5706,"Ġopened":5707,"reed":5708,"Ġwings":5709,"Ġsciences":5710,"iser":5711,"Ġoffend":5712,"Ġmention":5713,"Ġmilit":5714,"Ġcree":5715,"Ġcaste":5716,"Ġcere":5717,"Ġclim":5718,"Ġfix":5719,"Ġpomp":5720,"Ġinmost":5721,"othe":5722,"Ġdro":5723,"icide":5724,"icating":5725,"Ġwhither":5726,"asies":5727,"Ġrelief":5728,"ichrist":5729,"racted":5730,"Ġweather":5731,"Ġconform":5732,"Ġallows":5733,"Ġdeem":5734,"aded":5735,"geth":5736,"Ġkill":5737,"ĠSE":5738,"ĠSto":5739,"ĠCom":5740,"ĠCOM":5741,"Ġlover":5742,"Ġproced":5743,"Ġours":5744,"Ġunhe":5745,"ĠFR":5746,"Ġplant":5747,"Ġoverlook":5748,"Ġremedy":5749,"Ġsynt":5750,"Ġmusicians":5751,"Ġentertain":5752,"Ġroom":5753,"Ġcompare":5754,"Ġimmor":5755,"Ġworking":5756,"Ġbestow":5757,"Ġcreates":5758,"ISM":5759,"Ġplease":5760,"Ġconfron":5761,"Ġconfounded":5762,"oubted":5763,"Ġtrib":5764,"AND":5765,"Ġcircle":5766,"Ġstruck":5767,"Ġdespite":5768,"Ġpropag":5769,"Ġgreen":5770,"Ġprimordial":5771,"Ġmovements":5772,"Ġcourageous":5773,"Ġceased":5774,"Ġridic":5775,"Ġheroic":5776,"Ġimperfect":5777,"Ġadded":5778,"Ġkeeping":5779,"Ġfinest":5780,"Ġspectators":5781,"Ġharmful":5782,"Ġcounterp":5783,"Ġcounterfe":5784,"Ġmiracle":5785,"Ġdistinguishes":5786,"Ġugliness":5787,"Ġtreated":5788,"ĠShakespe":5789,"Ġdependent":5790,"Ġmedic":5791,"Ġenthusiastic":5792,"Ġsufferers":5793,"Ġgifts":5794,"Ġarbitr":5795,"Ġimprove":5796,"Ġmarket":5797,"Ġalien":5798,"Ġalive":5799,"Ġastonishment":5800,"Ġadventure":5801,"EMP":5802,"Ġreserved":5803,"Ġpotent":5804,"Ġadmiration":5805,"ĠKnowledge":5806,"ĠSupposing":5807,"Ġnineteenth":5808,"piece":5809,"ĠMusic":5810,"Ġdaily":5811,"iograp":5812,"ĠAccord":5813,"Ġmagnificent":5814,"Ġnonentity":5815,"Ġmillenniums":5816,"URE":5817,"aine":5818,"aving":5819,"ex":5820,"mas":5821,"pher":5822,"teth":5823,"ux":5824,"vant":5825,"ata":5826,"Ġmil":5827,"Ġbind":5828,"Ġhind":5829,"Ġcover":5830,"Ġinit":5831,"Ġinability":5832,"otion":5833,"Ġdon":5834,"Ġdict":5835,"Ġreaches":5836,"Ġhair":5837,"Ġstat":5838,"Ġwithdraw":5839,"Ġdearly":5840,"Ġmoon":5841,"tering":5842,"uses":5843,"Ġworshi":5844,"ourn":5845,"oser":5846,"ĠCan":5847,"Ġnearly":5848,"ĠOri":5849,"Ġcomedy":5850,"aped":5851,"Ġwouldst":5852,"Ġanybody":5853,"Ġindust":5854,"Ġgoodnatured":5855,"ĠWhile":5856,"ocrit":5857,"Ġimpot":5858,"Ġimpover":5859,"Ġaccur":5860,"Ġspiritu":5861,"Ġsafe":5862,"Ġsubt":5863,"Ġheretofore":5864,"Ġcomposed":5865,"Ġgrave":5866,"Ġpraised":5867,"ISE":5868,"Ġfollowers":5869,"Ġflame":5870,"Ġslavery":5871,"Ġreply":5872,"Ġweaker":5873,"ĠUnder":5874,"Ġfools":5875,"Ġputs":5876,"spirit":5877,"Ġvaluing":5878,"izing":5879,"Ġhardness":5880,"Ġstructure":5881,"Ġprevious":5882,"Ġshepher":5883,"Ġpromised":5884,"Ġinnumerable":5885,"Ġcrown":5886,"Ġprophe":5887,"parable":5888,"Ġinfluences":5889,"nerable":5890,"Ġunique":5891,"Ġproduct":5892,"Ġinterested":5893,"ĠRelig":5894,"Ġmotion":5895,"Ġwriting":5896,"Ġcreation":5897,"Ġprocesses":5898,"Ġsymbolism":5899,"Ġprobable":5900,"Ġtyrant":5901,"Ġwilder":5902,"Ġvarious":5903,"Ġdiseased":5904,"ĠProtest":5905,"Ġfigures":5906,"Ġmonster":5907,"Ġwaiting":5908,"Ġluck":5909,"Ġextremely":5910,"Ġaccepted":5911,"Ġdisciple":5912,"Ġutterly":5913,"Ġpressure":5914,"Ġprotection":5915,"Ġdesignated":5916,"Ġplainly":5917,"Ġfrequent":5918,"Ġpresupposes":5919,"Ġassociated":5920,"Ġvoices":5921,"Ġgospel":5922,"Ġslander":5923,"Ġoverflowing":5924,"Ġadvocate":5925,"ĠNeither":5926,"Ġisolated":5927,"Ġconscientious":5928,"ithyramb":5929,"Ġatmosphere":5930,"ĠShakespeare":5931,"Ġshepherd":5932,"ID":5933,"ener":5934,"good":5935,"iac":5936,"ming":5937,"ois":5938,"tÃ©":5939,"Ã¢":5940,"Ġaversion":5941,"inated":5942,"erate":5943,"attered":5944,"Ġhier":5945,"Ġcri":5946,"Ġcyn":5947,"Ġcatch":5948,"Ġportion":5949,"Ġthin":5950,"Ġelim":5951,"lead":5952,"Ġnigh":5953,"Ġnaught":5954,"Ġnihili":5955,"vered":5956,"utes":5957,"ĠTake":5958,"Ġaspire":5959,"Ġhaz":5960,"idity":5961,"idents":5962,"raph":5963,"Ġconsec":5964,"Ġlieth":5965,"Ġlimbs":5966,"rose":5967,"ĠWhe":5968,"Ġyes":5969,"Ġathe":5970,"omethe":5971,"Ġshowing":5972,"ositions":5973,"ĠHA":5974,"ĠHuman":5975,"Ġpredom":5976,"ĠCons":5977,"ĠCont":5978,"atholic":5979,"ĠNO":5980,"Ġunself":5981,"Ġusual":5982,"Ġdisple":5983,"Ġration":5984,"Ġmorally":5985,"Ġtrick":5986,"Ġambit":5987,"ocles":5988,"Ġformed":5989,"erman":5990,"Ġidealism":5991,"Ġoverth":5992,"Ġbelievers":5993,"ĠRather":5994,"ĠRuss":5995,"Ġspirituality":5996,"pless":5997,"Ġmoderation":5998,"Ġpresentday":5999,"Ġoppress":6000,"Ġserved":6001,"Ġrefute":6002,"Ġrefrain":6003,"Ġcompens":6004,"Ġintellects":6005,"Ġmiserable":6006,"Ġcultiv":6007,"Ġ48":6008,"Ġabsence":6009,"Ġassist":6010,"Ġdivinity":6011,"Ġbreast":6012,"Ġchildish":6013,"Ġrespectable":6014,"Ġphysician":6015,"ontide":6016,"Ġdefin":6017,"Ġcontinued":6018,"Ġpreviously":6019,"Ġexclus":6020,"Ġrepresentation":6021,"Ġfatality":6022,"Ġdispense":6023,"ĠEngland":6024,"ĠWhoever":6025,"Ġdogs":6026,"Ġtriumphant":6027,"Ġincreased":6028,"rogress":6029,"Ġattains":6030,"Ġtells":6031,"Ġfailed":6032,"Ġtheologian":6033,"Ġperceived":6034,"Ġdescription":6035,"Ġfathers":6036,"Ġclaims":6037,"Ġcharacteristics":6038,"Ġperformed":6039,"Ġtraditional":6040,"Ġembod":6041,"Ġrenounce":6042,"Ġprotect":6043,"Ġconstitution":6044,"Ġfrightful":6045,"Ġdwarf":6046,"Ġverses":6047,"Ġselfpreservative":6048,"ĠFaust":6049,"Ġadopt":6050,"Ġaltruism":6051,"Ġclumsy":6052,"ĠAntichrist":6053,"Ġeccles":6054,"Ġfeminine":6055,"Ġdimin":6056,"ĠCertainly":6057,"Ġcountenance":6058,"Ġintentions":6059,"constituted":6060,"Ġdisappoint":6061,"NOW":6062,"aos":6063,"cent":6064,"cond":6065,"ee":6066,"fers":6067,"gra":6068,"lo":6069,"last":6070,"lau":6071,"mind":6072,"nings":6073,"power":6074,"uing":6075,"uity":6076,"lity":6077,"rel":6078,"rer":6079,"Ġwife":6080,"Ġsli":6081,"atum":6082,"itary":6083,"itled":6084,"itution":6085,"Ġbread":6086,"Ġbrief":6087,"Ġcure":6088,"Ġcove":6089,"Ġpour":6090,"Ġtow":6091,"Ġdry":6092,"Ġdrop":6093,"sto":6094,"icable":6095,"alling":6096,"lying":6097,"Ġhearing":6098,"Ġlat":6099,"Ġham":6100,"Ġnotes":6101,"Ġnotice":6102,"Ġsting":6103,"ode":6104,"ĠAug":6105,"Ġdeception":6106,"esthe":6107,"Ġsem":6108,"Ġselection":6109,"Ġexalt":6110,"Ġvon":6111,"Ġvices":6112,"ĠWoman":6113,"Ġmanly":6114,"amber":6115,"ĠGO":6116,"Ġshowed":6117,"Ġshrew":6118,"aliz":6119,"asters":6120,"Ġprecious":6121,"Ġpersec":6122,"Ġperchance":6123,"athom":6124,"Ġspoke":6125,"ĠEr":6126,"ĠEternal":6127,"ivable":6128,"Ġju":6129,"ĠMid":6130,"Ġtrying":6131,"ĠLXX":6132,"Ġindignation":6133,"Ġgoodwill":6134,"ones":6135,"Ġowe":6136,"Ġidealists":6137,"Ġovert":6138,"Ġenduring":6139,"Ġdidst":6140,"Ġcommands":6141,"Ġmodes":6142,"ĠTHERE":6143,"Ġentitled":6144,"Ġblunder":6145,"licit":6146,"ĠVal":6147,"Ġreasoning":6148,"Ġinsati":6149,"Ġoriginated":6150,"Ġ47":6151,"Ġeffe":6152,"END":6153,"ĠSchopenhauerian":6154,"Ġcomplex":6155,"Ġconvictions":6156,"Ġsimplicity":6157,"Ġclearness":6158,"Ġcriter":6159,"Ġfurthe":6160,"Ġbung":6161,"Ġfalls":6162,"Ġcorrupt":6163,"Ġinvolves":6164,"Ġinvoluntary":6165,"Ġincreases":6166,"Ġsatisfy":6167,"Ġsprings":6168,"Ġlabyr":6169,"ĠBuddha":6170,"Ġugliest":6171,"Ġnarc":6172,"Ġdescribed":6173,"ĠPromethe":6174,"Ġmerit":6175,"Ġprevails":6176,"Ġsummer":6177,"ulsive":6178,"iscovered":6179,"Ġmalice":6180,"Ġmalicious":6181,"Ġmalign":6182,"Ġambig":6183,"Ġdisguised":6184,"Ġarrive":6185,"Ġminute":6186,"Ġrejoice":6187,"Ġcompanions":6188,"Ġimpatient":6189,"Ġimpatience":6190,"Ġachieve":6191,"Ġdemonstrated":6192,"Ġattribute":6193,"Ġvictorious":6194,"Ġdischarge":6195,"Ġdeprived":6196,"Ġaffliction":6197,"whel":6198,"Ġweapons":6199,"Ġexuberant":6200,"Ġcautious":6201,"Ġexceedingly":6202,"Ġspecific":6203,"Ġfatigue":6204,"Ġsuperabundance":6205,"Ġtremend":6206,"Ġinsignificant":6207,"ĠFROM":6208,"Ġconfronted":6209,"oubtedly":6210,"Ġcounterpart":6211,"iography":6212,"Ġwilderness":6213,"FOR":6214,"SE":6215,"hum":6216,"iast":6217,"kward":6218,"oing":6219,"sight":6220,"tical":6221,"yl":6222,"yal":6223,"Ã¶":6224,"Ġtid":6225,"lining":6226,"hearted":6227,"Ġwon":6228,"isure":6229,"isible":6230,"erd":6231,"Ġbond":6232,"Ġfame":6233,"Ġpup":6234,"oration":6235,"ories":6236,"otes":6237,"icing":6238,"leep":6239,"see":6240,"Ġnaked":6241,"asaying":6242,"Ġreaction":6243,"Ġgained":6244,"Ġheed":6245,"Ġhealing":6246,"Ġlur":6247,"rase":6248,"Ġstead":6249,"Ġsuicide":6250,"ĠAT":6251,"Ġdeity":6252,"Ġseized":6253,"Ġsevent":6254,"advant":6255,"Ġvir":6256,"iform":6257,"urean":6258,"ilst":6259,"ouses":6260,"Ġ''":6261,"Ġworm":6262,"olence":6263,"ĠSince":6264,"astly":6265,"Ġnoontide":6266,"Ġpreached":6267,"Ġprelim":6268,"ĠBible":6269,"ĠBook":6270,"ĠBirth":6271,"Ġdislike":6272,"ĠFirst":6273,"Ġmoralist":6274,"Ġmoralists":6275,"ĠDis":6276,"Ġenra":6277,"Ġenmity":6278,"Ġoverwhel":6279,"arsh":6280,"Ġstrang":6281,"Ġnewsp":6282,"these":6283,"Ġkindness":6284,"Ġmusc":6285,"Ġfeeble":6286,"shine":6287,"Ġawkward":6288,"bert":6289,"Ġruined":6290,"Ġblow":6291,"Ġfinding":6292,"ONG":6293,"Ġwanting":6294,"undant":6295,"Ġquestionable":6296,"Ġconfusion":6297,"Ġantip":6298,"ĠWhence":6299,"ĠBefore":6300,"Ġobjections":6301,"lition":6302,"ĠAthen":6303,"ribes":6304,"Ġsunshine":6305,"Ġjudges":6306,"Ġsingular":6307,"Ġreveals":6308,"ĠRec":6309,"Ġcritical":6310,"Ġstruggles":6311,"Ġmanifold":6312,"Ġceases":6313,"Ġtrees":6314,"Ġsympathetic":6315,"ICE":6316,"Ġaddition":6317,"Ġphilosophic":6318,"Ġselfcon":6319,"Ġavail":6320,"Ġdominant":6321,"ĠRomans":6322,"Ġevolved":6323,"Ġcontemplative":6324,"Ġignoble":6325,"pirations":6326,"Ġprevailed":6327,"Ġarguments":6328,"Ġmentioned":6329,"Ġglorious":6330,"Ġmultip":6331,"Ġproceeds":6332,"Ġunconsciously":6333,"Ġanalog":6334,"Ġingenious":6335,"Ġfeatures":6336,"ĠImm":6337,"Ġinclinations":6338,"Ġemancipation":6339,"Ġinferior":6340,"IGHT":6341,"Ġtorment":6342,"Ġpatri":6343,"Ġaffected":6344,"Ġrelatively":6345,"Ġbenevolence":6346,"Ġluxury":6347,"Ġintrinsic":6348,"Ġorgans":6349,"Ġemphas":6350,"Ġsenseless":6351,"Ġcomprehension":6352,"Ġnutr":6353,"Ġidiosyncrasy":6354,"Ġsurrender":6355,"esterday":6356,"Ġobtained":6357,"Ġhypocrisy":6358,"ĠAugust":6359,"Ġshrewd":6360,"Ġnewspaper":6361,"**":6362,"HIL":6363,"LAT":6364,"NESS":6365,"SELF":6366,"che":6367,"cher":6368,"ral":6369,"rum":6370,"uish":6371,"was":6372,"Åĵ":6373,"Ġarose":6374,"Ġtheore":6375,"Ġwin":6376,"Ġwat":6377,"Ġwag":6378,"isers":6379,"itic":6380,"ittle":6381,"itative":6382,"itably":6383,"Ġmatur":6384,"Ġcat":6385,"Ġfro":6386,"Ġfost":6387,"Ġpalt":6388,"Ġparent":6389,"Ġpagan":6390,"Ġthick":6391,"orse":6392,"Ġtom":6393,"Ġdu":6394,"Ġdili":6395,"Ġdangers":6396,"ariness":6397,"alesc":6398,"Ġgn":6399,"Ġgru":6400,"ented":6401,"ĠII":6402,"ĠId":6403,"iding":6404,"Ġstu":6405,"ching":6406,"ĠARE":6407,"ĠAway":6408,"Ġmoved":6409,"amiliar":6410,"ĠShe":6411,"ourge":6412,"Ġshout":6413,"alian":6414,"umes":6415,"ĠCatholic":6416,"Ġproject":6417,"iance":6418,"ĠOther":6419,"Ġarch":6420,"Ġunworthy":6421,"Ġleisure":6422,"Ġdisadvant":6423,"ĠMuch":6424,"Ġrough":6425,"Ġknoweth":6426,"Ġinstant":6427,"Ġinstances":6428,"Ġprayer":6429,"Ġprotest":6430,"Ġoutlook":6431,"Ġoutbur":6432,"Ġworlds":6433,"Ġenn":6434,"Ġyellow":6435,"elt":6436,"Ġresol":6437,"Ġimply":6438,"Ġphilology":6439,"Ġselfm":6440,"Ġcalleth":6441,"Ġtrait":6442,"ĠTHIS":6443,"Ġappeals":6444,"Ġpassing":6445,"Ġcommit":6446,"ERM":6447,"Ġglow":6448,"Ġmislead":6449,"Ġtwilight":6450,"Ġscales":6451,"ĠGreece":6452,"Ġadvanced":6453,"Ġconfused":6454,"Ġcharacters":6455,"Ġliveth":6456,"ĠKNOW":6457,"Ġtries":6458,"Ġsacred":6459,"Ġconvalesc":6460,"Ġgetting":6461,"Ġpractically":6462,"Ġcoars":6463,"mbl":6464,"Ġcurious":6465,"ĠManu":6466,"Ġcareful":6467,"Ġhyster":6468,"Ġproductive":6469,"Ġstrives":6470,"Ġidle":6471,"Ġgrey":6472,"Ġburning":6473,"Ġdegrees":6474,"Ġsecretly":6475,"Ġdisposed":6476,"Ġpublished":6477,"Ġenjoyed":6478,"Ġadmin":6479,"Ġdetermines":6480,"Ġassumed":6481,"Ġforgive":6482,"Ġsufferings":6483,"Ġbringing":6484,"Ġsitting":6485,"Ġforgetfulness":6486,"Ġdeadly":6487,"ĠRomanticism":6488,"Ġmediocr":6489,"Ġprivate":6490,"Ġseparated":6491,"ĠIndian":6492,"Ġfailure":6493,"Ġepic":6494,"Ġtheology":6495,"Ġtheological":6496,"Ġpreserve":6497,"Ġneglect":6498,"Ġ***":6499,"Ġholiness":6500,"Ġunfamiliar":6501,"Ġliterary":6502,"uffici":6503,"Ġpoisonous":6504,"Ġinstruments":6505,"ĠBecoming":6506,"Ġemotional":6507,"Ġabysses":6508,"Ġethical":6509,"Ġmocking":6510,"ĠNEW":6511,"Ġtotal":6512,"âĢĵâĢĵ":6513,"Ġgospels":6514,"Ġlonely":6515,"Ġoptimism":6516,"Ġunfortunate":6517,"Ġunfortunately":6518,"Ġuprightness":6519,"Ġbegun":6520,"Ġquarter":6521,"Ġveneration":6522,"Ġrevelation":6523,"Ġwelfare":6524,"Ġfilth":6525,"Ġreproach":6526,"Ġvoluptuousness":6527,"ĠCriticism":6528,"Ġpermanent":6529,"Ġprocedure":6530,"Ġambitious":6531,"Ġecclesiast":6532,"Ġcriterion":6533,"Ġtremendous":6534,"GAIN":6535,"It":6536,"IAN":6537,"OK":6538,"UD":6539,"aith":6540,"after":6541,"brium":6542,"dles":6543,"equ":6544,"ffect":6545,"gs":6546,"gre":6547,"olis":6548,"rors":6549,"tes":6550,"tled":6551,"zz":6552,"zig":6553,"Ġtorn":6554,"inst":6555,"atism":6556,"Ġmur":6557,"Ġmature":6558,"Ġhated":6559,"Ġfilled":6560,"Ġpage":6561,"Ġinfect":6562,"arks":6563,"Ġech":6564,"Ġrearing":6565,"Ġuseless":6566,"Ġloses":6567,"Ġhall":6568,"raction":6569,"Ġstern":6570,"Ġstamp":6571,"change":6572,"ĠAGAIN":6573,"Ġdealing":6574,"Ġdeterior":6575,"Ġmoves":6576,"Ġseven":6577,"Ġalarm":6578,"ĠHE":6579,"ardon":6580,"Ġtherewith":6581,"ptured":6582,"antism":6583,"igned":6584,"ĠBetter":6585,"Ġpros":6586,"Ġproxim":6587,"reder":6588,"Ġwilled":6589,"Ġunb":6590,"ĠEN":6591,"Ġuses":6592,"Ġchaos":6593,"mentary":6594,"ĠFreder":6595,"ĠLook":6596,"Ġamaz":6597,"ilibrium":6598,"Ġconsciences":6599,"ĠInst":6600,"Ġdesider":6601,"lieve":6602,"ocal":6603,"Ġplants":6604,"Ġaccus":6605,"Ġpossibilities":6606,"Ġselfre":6607,"Ġfactor":6608,"Ġaph":6609,"Ġtrain":6610,"Ġtrained":6611,"ollow":6612,"Ġhumane":6613,"Ġdistorted":6614,"pected":6615,"Ġpresents":6616,"ternity":6617,"Ġoppose":6618,"Ġstrongly":6619,"Ġblue":6620,"Ġblasp":6621,"Ġrock":6622,"Ġshallow":6623,"Ġinfli":6624,"Ġmischie":6625,"Ġpains":6626,"Ġpointed":6627,"Ġ49":6628,"Ġsinister":6629,"Ġflood":6630,"Ġparamount":6631,"Ġrepulsive":6632,"Ġacute":6633,"Ġacross":6634,"Ġcorp":6635,"Ġequals":6636,"Ġequilibrium":6637,"Ġrespects":6638,"Ġ50":6639,"Ġ54":6640,"Ġ56":6641,"Ġfearful":6642,"Ġcentre":6643,"Ġcircles":6644,"Ġaccordingly":6645,"Ġaffair":6646,"Ġrequirements":6647,"OULD":6648,"Ġexclud":6649,"Ġproduces":6650,"Ġcrude":6651,"Ġhelped":6652,"Ġplayed":6653,"Ġsecondly":6654,"Ġprime":6655,"Ġdegrad":6656,"Ġeasier":6657,"Ġwaves":6658,"Ġtremble":6659,"Ġneighbours":6660,"Ġinjurious":6661,"Ġtriump":6662,"Ġrigor":6663,"Ġasceticism":6664,"archy":6665,"Ġblessing":6666,"Ġcastes":6667,"Ġtemporary":6668,"Ġdissatisfied":6669,"Ġwinds":6670,"Ġchanging":6671,"brid":6672,"respect":6673,"Ġsolitary":6674,"Ġeventually":6675,"Ġvariety":6676,"Ġtransformation":6677,"Ġgratification":6678,"Ġdescribe":6679,"Ġfraud":6680,"Ġendeavours":6681,"Ġdisgusted":6682,"Ġgrasped":6683,"Ġliterally":6684,"Ġvital":6685,"Ġrenunciation":6686,"Ġfemale":6687,"Ġascending":6688,"Ġerro":6689,"Ġanalysis":6690,"Ġmechanism":6691,"Ġawakened":6692,"Ġbodily":6693,"Ġreckoned":6694,"Ġanxiety":6695,"Ġestimates":6696,"ĠFaith":6697,"Ġclimb":6698,"Ġbenevolent":6699,"Ġunwilling":6700,"Ġfantastic":6701,"Ġmartyrdom":6702,"Ġodour":6703,"Ġwhisper":6704,"Ġpreparation":6705,"Ġrepugnant":6706,"ĠMorals":6707,"Ġhereditary":6708,"ĠGospels":6709,"Ġimpersonal":6710,"Ġsusceptibility":6711,"Ġpreponderance":6712,"Ġdefinition":6713,"Ġhammer":6714,"Ġlabyrinth":6715,"Ġtidings":6716,"Ġpreliminary":6717,"But":6718,"FUL":6719,"German":6720,"OC":6721,"ey":6722,"gation":6723,"love":6724,"oner":6725,"rim":6726,"rows":6727,"sin":6728,"wing":6729,"ylus":6730,"zy":6731,"Ġwast":6732,"Ġsor":6733,"Ġsnow":6734,"erous":6735,"Ġoft":6736,"itan":6737,"ital":6738,"Ġble":6739,"Ġborrow":6740,"Ġcries":6741,"Ġpaper":6742,"Ġthither":6743,"Ġthrew":6744,"orne":6745,"Ġtoward":6746,"otle":6747,"arned":6748,"Ġere":6749,"lets":6750,"Ġretain":6751,"ĠTe":6752,"irty":6753,"Ġlar":6754,"Ġloud":6755,"Ġlaz":6756,"Ġstir":6757,"Ġconverted":6758,"ulates":6759,"Ġmoney":6760,"ades":6761,"ĠWILL":6762,"ifice":6763,"cial":6764,"cipe":6765,"Ġshake":6766,"Ġshape":6767,"umin":6768,"ĠHOW":6769,"Ġnose":6770,"Ġprem":6771,"Ġtheme":6772,"acc":6773,"aced":6774,"pping":6775,"ĠBoth":6776,"Ġprospect":6777,"ember":6778,"rup":6779,"ĠOb":6780,"ĠOrigin":6781,"Ġspot":6782,"Ġspent":6783,"ivine":6784,"ĠPers":6785,"Ġdisappe":6786,"Ġsomewhere":6787,"Ġyouths":6788,"Ġanywhere":6789,"ĠLX":6790,"Ġquali":6791,"ĠDay":6792,"ĠDem":6793,"ĠDIS":6794,"Ġacting":6795,"Ġdesper":6796,"Ġunderm":6797,"Ġimpud":6798,"Ġstillness":6799,"Ġshoulders":6800,"unishment":6801,"Ġrain":6802,"Ġhumili":6803,"Ġremoved":6804,"Ġaftern":6805,"Ġseemeth":6806,"Ġawful":6807,"Ġempire":6808,"Ġrefuse":6809,"Ġrefuted":6810,"Ġinvisible":6811,"Ġdiscuss":6812,"Ġdiscovery":6813,"ĠVIR":6814,"Ġglances":6815,"Ġindividuation":6816,"Ġreasonable":6817,"Ġreads":6818,"Ġpurity":6819,"Ġtransp":6820,"Ġtransvaluation":6821,"atically":6822,"Ġparag":6823,"Ġrepent":6824,"Ġcorner":6825,"smen":6826,"Ġequival":6827,"Ġsupple":6828,"ANCE":6829,"Ġ51":6830,"Ġ55":6831,"Ġpurposes":6832,"Ġsorts":6833,"Ġsunk":6834,"Ġmarvel":6835,"Ġdoubtful":6836,"Ġveil":6837,"Ġreveal":6838,"Ġplaying":6839,"Ġdecadents":6840,"Ġbuff":6841,"Ġprimary":6842,"Ġenjoys":6843,"Ġphysiology":6844,"alising":6845,"Ġobserv":6846,"Ġbravery":6847,"Ġmistakes":6848,"Ġservant":6849,"Ġmanifestation":6850,"Ġcountries":6851,"Ġmeasured":6852,"Ġtemp":6853,"Ġtemple":6854,"Ġimpossibility":6855,"Ġinventive":6856,"Ġundoubtedly":6857,"Ġfiner":6858,"ĠSecond":6859,"Ġpolite":6860,"Ġdissolution":6861,"Ġbored":6862,"Ġsincere":6863,"Ġastray":6864,"Ġseparates":6865,"Ġcharming":6866,"Ġdistinguish":6867,"Ġseduction":6868,"ĠConsequently":6869,"Ġderive":6870,"Ġabsurdity":6871,"Ġyearning":6872,"ĠUnivers":6873,"Ġobligation":6874,"Ġfruits":6875,"Ġobviously":6876,"Ġdriven":6877,"Ġinexorable":6878,"Ġardour":6879,"Ġsuggested":6880,"interpre":6881,"ĠHerac":6882,"Ġresemble":6883,"Ġstimulus":6884,"Ġrobbed":6885,"Ġhurt":6886,"ĠEpicurean":6887,"Ġreceive":6888,"Ġslightest":6889,"Ġreferred":6890,"Ġanxious":6891,"Ġriches":6892,"Ġphilologist":6893,"Ġfirmly":6894,"Ġconsumm":6895,"Ġunconditional":6896,"Ġbowels":6897,"Ġtemperament":6898,"AKE":6899,"ĠAristotle":6900,"Ġghastly":6901,"Ġjealousy":6902,"Ġinherited":6903,"Ġinevitable":6904,"Ġunexpected":6905,"ĠdÃ©cadence":6906,"Ġalternative":6907,"ĠMoreover":6908,"Ġsurmount":6909,"Ġcrooked":6910,"Ġgestures":6911,"Ġextravagant":6912,"Ġbrilliant":6913,"Ġdisagree":6914,"Ġhorizon":6915,"Ġridiculous":6916,"Ġmedicine":6917,"Ġexaltation":6918,"Ġbungled":6919,"Ġpaltry":6920,"Ġtomorrow":6921,"Ġecclesiastical":6922,"ĠAGAINST":6923,"Ġproximity":6924,"ĠFrederick":6925,"Ġafternoon":6926,"ĠVIRT":6927,"ECT":6928,"QU":6929,"Sem":6930,"UN":6931,"can":6932,"cal":6933,"cra":6934,"fold":6935,"hal":6936,"lude":6937,"morality":6938,"pro":6939,"uations":6940,"nel":6941,"Ġwars":6942,"Ġwont":6943,"erity":6944,"itect":6945,"encer":6946,"Ġfet":6947,"Ġfounder":6948,"Ġped":6949,"Ġpull":6950,"orious":6951,"othing":6952,"eds":6953,"icature":6954,"Ġbell":6955,"Ġbelly":6956,"Ġisolation":6957,"alogy":6958,"Ġrecipe":6959,"Ġgle":6960,"Ġgro":6961,"Ġgushing":6962,"Ġupper":6963,"Ġhears":6964,"Ġlament":6965,"Ġanci":6966,"Ġsto":6967,"Ġstress":6968,"Ġweep":6969,"Ġconject":6970,"Ġconvert":6971,"oday":6972,"ested":6973,"Ġviz":6974,"Ġalc":6975,"ilo":6976,"ump":6977,"ighed":6978,"ĠBad":6979,"ĠBless":6980,"Ġwheel":6981,"ruct":6982,"rung":6983,"Ġarms":6984,"Ġwills":6985,"Ġunjust":6986,"ĠMar":6987,"ĠMUST":6988,"Ġrange":6989,"udder":6990,"Ġcanon":6991,"Ġprison":6992,"Ġcontact":6993,"Ġcontained":6994,"ĠLa":6995,"ĠLord":6996,"ogical":6997,"Ġindign":6998,"Ġconser":6999,"Ġens":7000,"Ġyeasaying":7001,"Ġresignation":7002,"ocks":7003,"angled":7004,"Ġpluck":7005,"Ġimposed":7006,"ĠRes":7007,"Ġaccidents":7008,"Ġthence":7009,"plus":7010,"ensed":7011,"Ġgrim":7012,"Ġapost":7013,"Ġtrace":7014,"Ġremorse":7015,"Ġincons":7016,"Ġrecall":7017,"Ġnothingness":7018,"forward":7019,"ĠJoy":7020,"ipzig":7021,"Ġrefers":7022,"lical":7023,"licable":7024,"Ġroll":7025,"Ġdiscern":7026,"Ġdiscont":7027,"ĠVery":7028,"Ġinsurrection":7029,"Ġinsanity":7030,"Ġsche":7031,"Ġlearning":7032,"Ġsinful":7033,"Ġpleased":7034,"Ġguests":7035,"Ġfreethink":7036,"Ġconfirm":7037,"INE":7038,"Ġreputation":7039,"ĠUnt":7040,"Ġdemocracy":7041,"sman":7042,"Ġeffective":7043,"Ġfoe":7044,"ĠKingdom":7045,"Ġsmaller":7046,"Ġdevise":7047,"Ġbeloved":7048,"izes":7049,"Ġdoubts":7050,"Ġ52":7051,"Ġuttered":7052,"Ġimages":7053,"Ã¦s":7054,"Ġdespises":7055,"Ġpractised":7056,"Ġrecognized":7057,"Ġ186":7058,"Ġvenerable":7059,"Ġpunish":7060,"Ġexcitement":7061,"ART":7062,"Ġstrike":7063,"ĠReformation":7064,"aneously":7065,"Ġsubjects":7066,"Ġsubjective":7067,"Ġconsiderable":7068,"Ġphysiologically":7069,"Ġnobler":7070,"Ġtrembling":7071,"ICH":7072,"Ġcommonplace":7073,"Ġcraft":7074,"Ġcounsel":7075,"Ġaddress":7076,"Ġinterpretations":7077,"ĠSpencer":7078,"ĠformulÃ¦":7079,"Ġpeaceful":7080,"Ġunequ":7081,"Ġdraws":7082,"Ġoperate":7083,"Ġcontemplate":7084,"Ġdelivered":7085,"Ġtalking":7086,"Ġblindness":7087,"Ġdarkness":7088,"Ġmeets":7089,"Ġspheres":7090,"Ġprivileges":7091,"ĠXXX":7092,"Ġcontradictions":7093,"ĠLeipzig":7094,"Ġfastidious":7095,"Ġromanticism":7096,"Ġpenal":7097,"Ġascertain":7098,"Ġconvince":7099,"Ġincomparable":7100,"Ġselfsacri":7101,"Ġfourth":7102,"Ġhypotheses":7103,"Ġignorant":7104,"Ġethics":7105,"Ġtemptation":7106,"Ġquietly":7107,"Ġaccidental":7108,"Ġrenders":7109,"Ġanarchy":7110,"Ġunreason":7111,"Ġexhibit":7112,"Ġinfinitely":7113,"Ġfestiv":7114,"Ġcalculated":7115,"Ġexaggerated":7116,"Ġloftiest":7117,"Ġsquand":7118,"Ġdischar":7119,"Ġrisk":7120,"Ġeconomy":7121,"ĠAbove":7122,"Ġidentical":7123,"Ġthreatening":7124,"Ġconsiders":7125,"Ġmachine":7126,"Ġcopy":7127,"lexand":7128,"Ġcompromise":7129,"Ġgarden":7130,"ĠLOVE":7131,"ĠÃĨschylus":7132,"Ġsagacity":7133,"Ġnourishment":7134,"Ġceremon":7135,"Ġclimate":7136,"Ġconformity":7137,"Ġmarketplace":7138,"Ġcovet":7139,"Ġfurthest":7140,"ĠRecurrence":7141,"ĠIdols":7142,"Ġmediocrity":7143,"Ġblasphem":7144,"Ġtriumphed":7145,"Ġparagraph":7146,"ĠHeraclit":7147,"Ġancients":7148,"AD":7149,"All":7150,"Tis":7151,"ais":7152,"do":7153,"dens":7154,"iality":7155,"onder":7156,"oling":7157,"Ã´":7158,"Î¿":7159,"Ġtact":7160,"lian":7161,"Ġwond":7162,"Ġwaste":7163,"Ġwaged":7164,"Ġsides":7165,"ativ":7166,"atible":7167,"Ġming":7168,"Ġmasc":7169,"Ġmixed":7170,"Ġhosp":7171,"Ġhollow":7172,"Ġcas":7173,"Ġcook":7174,"Ġfi":7175,"Ġfish":7176,"Ġfled":7177,"Ġfield":7178,"Ġpill":7179,"Ġpathetic":7180,"Ġinherent":7181,"orical":7182,"anc":7183,"Ġtop":7184,"Ġdaw":7185,"Ġdared":7186,"Ġdithyramb":7187,"Ġbegg":7188,"Ġwhilst":7189,"vey":7190,"cean":7191,"Ġga":7192,"ential":7193,"ĠToday":7194,"ĠIM":7195,"Ġung":7196,"Ġfors":7197,"Ġstated":7198,"Ġconvers":7199,"Ġallure":7200,"ĠAges":7201,"Ġdearest":7202,"Ġdeaf":7203,"Ġvalid":7204,"Ġyesterday":7205,"Ġatom":7206,"usive":7207,"Ġsolid":7208,"olent":7209,"ĠSil":7210,"ĠSpeak":7211,"Ġshine":7212,"osis":7213,"ĠHy":7214,"ĠHath":7215,"Ġintegr":7216,"Ġprede":7217,"ĠCA":7218,"ĠCR":7219,"ĠComp":7220,"ĠCarly":7221,"acheth":7222,"igher":7223,"Ġpoll":7224,"Ġloose":7225,"rue":7226,"rupt":7227,"Ġimitate":7228,"aths":7229,"Ġfeared":7230,"Ġunint":7231,"Ġunited":7232,"Ġuniform":7233,"ĠEternity":7234,"Ġlege":7235,"ĠFe":7236,"ĠFreedom":7237,"Ġwhatsoever":7238,"Ġagit":7239,"Ġknowest":7240,"Ġinstitution":7241,"Ġpris":7242,"Ġphrase":7243,"Ġindig":7244,"ĠDES":7245,"Ġenab":7246,"Ġadvers":7247,"Ġadorn":7248,"Ġsail":7249,"eps":7250,"Ġrapture":7251,"Ġendowed":7252,"ending":7253,"Ġvirtu":7254,"Ġgoeth":7255,"areth":7256,"arers":7257,"Ġincred":7258,"Ġreco":7259,"Ġentered":7260,"Ġrosy":7261,"Ġrocks":7262,"Ġcompulsion":7263,"Ġsimile":7264,"Ġpersonally":7265,"Ġsinner":7266,"Ġfounded":7267,"angelical":7268,"Ġprofund":7269,"Ġasser":7270,"Ġguest":7271,"Ġparable":7272,"Ġfriendly":7273,"RES":7274,"Ġprinces":7275,"ATE":7276,"Ġobjectivity":7277,"spons":7278,"Ġdramatic":7279,"formed":7280,"Ġvalued":7281,"Ġ53":7282,"Ġfaithful":7283,"Ġesp":7284,"Ġprevailing":7285,"Ġsatyr":7286,"Ġsheep":7287,"Ġmarvell":7288,"Ġprophet":7289,"oughts":7290,"Ġcarries":7291,"Ġcaricature":7292,"Ġharb":7293,"Ġswall":7294,"Ġswamp":7295,"Ġdisgrace":7296,"Ġwrites":7297,"Ġsubjection":7298,"Ġdirections":7299,"Ġansw":7300,"Ġcontemporary":7301,"Ġinjured":7302,"Ġcraw":7303,"Ġcountless":7304,"ĠSpake":7305,"Ġcoldness":7306,"Ġundiscovered":7307,"IONS":7308,"Ġassumes":7309,"Ġoccasions":7310,"Ġpessimist":7311,"Ġcommanding":7312,"Ġcustomary":7313,"Ġdissimul":7314,"Ġbounds":7315,"ĠProv":7316,"Ġendeavoured":7317,"Ġderived":7318,"Ġfighting":7319,"Ġfaces":7320,"Ġstones":7321,"ohn":7322,"Ġprepare":7323,"Ġposterity":7324,"Ġproceeding":7325,"Ġsuperstitious":7326,"Ġconnected":7327,"Ġarrived":7328,"Ġtranslation":7329,"Ġfalsified":7330,"Ġincluded":7331,"ĠRenan":7332,"claim":7333,"Ġwanderer":7334,"Ġingenuous":7335,"Ġknife":7336,"ASS":7337,"burg":7338,"Ġprudent":7339,"ĠĠĠĠĠĠĠĠĠĠĠĠĠĠĠĠĠĠĠĠĠĠĠ":7340,"ĠJustice":7341,"Ġfortun":7342,"Ġcondemnation":7343,"Ġreceived":7344,"Ġvolition":7345,"matical":7346,"Ġfestival":7347,"Ġcollective":7348,"Ġreckon":7349,"ĠNevertheless":7350,"Ġricher":7351,"ĠMean":7352,"Ġfanaticism":7353,"Ġaltruistic":7354,"Ġfifth":7355,"ĠEnough":7356,"Ġreconcili":7357,"Ġacknowledged":7358,"Ġanchorite":7359,"Ġtastes":7360,"Ġsecrets":7361,"Ġartificial":7362,"Ġbalance":7363,"ĠPhilosophy":7364,"ĠWorld":7365,"Ġtranscendental":7366,"Ġprecepts":7367,"ĠOlympian":7368,"Ġwarrior":7369,"Ġmilitary":7370,"Ġcreep":7371,"Ġimpotence":7372,"Ġhazard":7373,"Ġpredomin":7374,"Ġunselfish":7375,"minded":7376,"ĠValues":7377,"ĠPrometheus":7378,"Ġtheoretical":7379,"Ġcoarser":7380,"Ġaphorism":7381,"Ġerroneous":7382,"ĠUniversity":7383,"Ġdisagreeable":7384,"ĠHeraclitus":7385,"Human":7386,"OG":7387,"RIST":7388,"SI":7389,"UTH":7390,"VI":7391,"We":7392,"Who":7393,"book":7394,"gory":7395,"ii":7396,"iations":7397,"jug":7398,"kin":7399,"lers":7400,"mes":7401,"more":7402,"ny":7403,"ool":7404,"oided":7405,"oketh":7406,"rod":7407,"rass":7408,"rational":7409,"well":7410,"Ġtame":7411,"Ġah":7412,"inable":7413,"Ġwood":7414,"Ġsand":7415,"atin":7416,"onism":7417,"Ġball":7418,"Ġbore":7419,"Ġbite":7420,"Ġcup":7421,"esth":7422,"Ġpam":7423,"anks":7424,"otism":7425,"Ġdumb":7426,"arth":7427,"Ġbeat":7428,"omfort":7429,"Ġnative":7430,"asurable":7431,"Ġrealities":7432,"Ġaspirations":7433,"Ġlun":7434,"thus":7435,"Ġdetr":7436,"road":7437,"Ġexult":7438,"Ġviv":7439,"Ġsore":7440,"ĠSw":7441,"Ġtheirs":7442,"umble":7443,"ĠHIS":7444,"Ġintu":7445,"Ġintim":7446,"Ġprefers":7447,"ĠCross":7448,"Ġthereon":7449,"Ġpermiss":7450,"Ġpoore":7451,"Ġlovers":7452,"Ġproclaim":7453,"Ġupwards":7454,"Ġabuse":7455,"perhaps":7456,"ĠPity":7457,"Ġdispar":7458,"ĠFree":7459,"Ġrising":7460,"ĠrÃ´":7461,"Ġlifet":7462,"Ġenable":7463,"Ġartic":7464,"Ġspell":7465,"ĠHeaven":7466,"ieg":7467,"Ġplane":7468,"Ġplastic":7469,"Ġobtr":7470,"Ġimpl":7471,"Ġimpr":7472,"abb":7473,"Ġloveth":7474,"Ġselfden":7475,"inted":7476,"Ġendured":7477,"Ġclo":7478,"Ġclosed":7479,"Ġdeclining":7480,"Ġeverlast":7481,"Ġrecurrence":7482,"Ġpasses":7483,"Ġpassages":7484,"Ġconditioned":7485,"Ġwherein":7486,"Ġrighte":7487,"Ġblock":7488,"Ġinvari":7489,"Ġdiscove":7490,"ĠVict":7491,"Ġwisheth":7492,"Ġinsists":7493,"Ġinterm":7494,"Ġgracious":7495,"Ġexpressions":7496,"Ġflas":7497,"Ġwarlike":7498,"Ġslay":7499,"Ġfreely":7500,"ĠHowever":7501,"Ġgodless":7502,"bered":7503,"Ġcorners":7504,"althy":7505,"Ġsupernatural":7506,"Ġbehave":7507,"Ġdevoted":7508,"Ġdevotion":7509,"ĠAthens":7510,"Ġ57":7511,"Ġutilit":7512,"Ġjoyous":7513,"Ġkey":7514,"Ġkeen":7515,"Ġoffence":7516,"Ġpractise":7517,"Ġrecognition":7518,"mbled":7519,"Ġpleasures":7520,"Ġparticip":7521,"Ġdoctor":7522,"Ġexcite":7523,"Ġirony":7524,"Ġirrational":7525,"Ġproduction":7526,"Ġgreet":7527,"Ġburdens":7528,"Ġriddles":7529,"Ã©e":7530,"Ġcontempor":7531,"Ġholding":7532,"Ġsublim":7533,"Ġavoided":7534,"Ġhorse":7535,"Ġpessimists":7536,"Ġcommanded":7537,"ĠNihilistic":7538,"Ġdissip":7539,"Ġlyric":7540,"Ġgrandfather":7541,"Ġmedium":7542,"truth":7543,"Ġepile":7544,"Ġbreathe":7545,"Ġmouthpiece":7546,"Ġconquered":7547,"Ġmerry":7548,"Ġcollapse":7549,"Ġvisionary":7550,"Ġhoped":7551,"Ġdeclare":7552,"Ġsuprem":7553,"Ġdepends":7554,"Ġelevate":7555,"Ġcontradictory":7556,"ĠHomo":7557,"Ġsexes":7558,"Ġdemanded":7559,"Ġdancer":7560,"Ġpitiful":7561,"Ġinexp":7562,"Ġmutually":7563,"Ġcosts":7564,"Ġsadness":7565,"Ġapproaching":7566,"Ġknight":7567,"Ġconcealment":7568,"Ġmysteries":7569,"Ġeagerly":7570,"Ġtotally":7571,"ĠHomeric":7572,"Ġassociate":7573,"Ġdisintegr":7574,"ĠMORALITY":7575,"Ġsurrounded":7576,"ĠnaÃ¯vetÃ©":7577,"Ġlonesomeness":7578,"ĠAphorism":7579,"Ġcreditor":7580,"ĠTwilight":7581,"Ġghost":7582,"Ġappropriate":7583,"Ġinherit":7584,"Ġinwardly":7585,"Ġsurpassed":7586,"ĠHappiness":7587,"ĠALL":7588,"Ġknees":7589,"Ġdisinterestedness":7590,"Ġtroubled":7591,"Ġdeliverance":7592,"FFER":7593,"ĠSophocles":7594,"Ġsplendid":7595,"Ġdowng":7596,"Ġcounterfeit":7597,"Ġcripp":7598,"ĠWhether":7599,"Ġcompensation":7600,"ĠMiddle":7601,"FORE":7602,"Ġnutrition":7603,"Ġdisadvantage":7604,"Ġprofundity":7605,"Ġmarvellous":7606,"ĠMeanwhile":7607,"Ġdetriment":7608,"Ġinvariably":7609,"IA":7610,"In":7611,"MENT":7612,"PT":7613,"Why":7614,"WARD":7615,"Ye":7616,"bl":7617,"evil":7618,"fou":7619,"free":7620,"fying":7621,"iation":7622,"nk":7623,"occ":7624,"rion":7625,"range":7626,"zen":7627,"Ġted":7628,"life":7629,"liance":7630,"Ġape":7631,"Ġomn":7632,"Ġocean":7633,"Ġtheories":7634,"ina":7635,"recked":7636,"Ġwounded":7637,"isable":7638,"itz":7639,"Ġmal":7640,"Ġmould":7641,"ongeth":7642,"Ġhates":7643,"Ġharsh":7644,"Ġcul":7645,"Ġfren":7646,"Ġinquis":7647,"otal":7648,"icates":7649,"Ġnause":7650,"Ġreared":7651,"Ġgulf":7652,"ĠTEMP":7653,"Ġheat":7654,"Ġlord":7655,"Ġlamb":7656,"rand":7657,"Ġconversely":7658,"odern":7659,"Ġonwards":7660,"ĠAM":7661,"ĠAlexand":7662,"rine":7663,"peth":7664,"estic":7665,"Ġsequ":7666,"Ġsect":7667,"Ġvall":7668,"Ġvind":7669,"gets":7670,"usal":7671,"ushes":7672,"oloured":7673,"ĠGre":7674,"ĠGene":7675,"ĠSem":7676,"ĠSouth":7677,"Ġshining":7678,"umm":7679,"ĠHad":7680,"astery":7681,"Ġintens":7682,"Ġpertain":7683,"Ġnet":7684,"Ġnearest":7685,"inese":7686,"Ġpope":7687,"Ġprost":7688,"Ġprose":7689,"Ġprolong":7690,"Ġbutter":7691,"Ġarrow":7692,"Ġfever":7693,"Ġsprung":7694,"Ġunqu":7695,"Ġunple":7696,"ĠEV":7697,"ĠEc":7698,"ĠPo":7699,"ĠPart":7700,"ĠThree":7701,"Ġdisd":7702,"Ġdisse":7703,"Ġdisill":7704,"ĠFather":7705,"Ġfable":7706,"akened":7707,"Ġcontrib":7708,"ĠDO":7709,"ĠDr":7710,"Ġlikely":7711,"Ġeng":7712,"Ġowes":7713,"Ġcapt":7714,"unction":7715,"Ġgrou":7716,"Ġsubjug":7717,"Ġgoals":7718,"Ġgovern":7719,"Ġtruthful":7720,"rences":7721,"Ġthrown":7722,"attering":7723,"Ġkindly":7724,"Ġdecide":7725,"Ġsuffice":7726,"Ġrecord":7727,"Ġrecover":7728,"perium":7729,"ĠYOU":7730,"Ġthinginitself":7731,"Ġbloom":7732,"Ġextinct":7733,"Ġrose":7734,"Ġdiscord":7735,"Ġpriesth":7736,"Ġapply":7737,"Ġappalling":7738,"Ġglowing":7739,"Ġsimult":7740,"Ġinflict":7741,"Ġinsane":7742,"ernal":7743,"Ġherald":7744,"Ġlights":7745,"Ġoriginate":7746,"ISH":7747,"Ġflat":7748,"Ġassured":7749,"Ġguide":7750,"Ġappearances":7751,"Ġillum":7752,"Ġsurplus":7753,"Ġweakening":7754,"Ġprince":7755,"Ġessays":7756,"Ġbreaking":7757,"Ġpoetic":7758,"Ġtrif":7759,"Ġsuppressed":7760,"Ġrestless":7761,"Ġrestrict":7762,"Ġelsewhere":7763,"Ġcontinuous":7764,"goistic":7765,"Ġsaty":7766,"Ġoffensive":7767,"Ġinnov":7768,"Ġinterpreting":7769,"Ġjudging":7770,"Ġhelpless":7771,"sthey":7772,"ĠAnother":7773,"Ġdelightful":7774,"Ġcruc":7775,"Ġidol":7776,"Ġidols":7777,"Ġmanifestations":7778,"Ġorganiz":7779,"Ġvoluntarily":7780,"Ġremaining":7781,"Ġbrood":7782,"Ġbroke":7783,"Ġdifficulties":7784,"Ġharmon":7785,"Ġharmless":7786,"Ġuniversality":7787,"ĠTRANS":7788,"Ġstatesman":7789,"Ġhypnot":7790,"Ġmythical":7791,"Ġalongside":7792,"Ġdefinitely":7793,"Ġsentimental":7794,"Ġmonsters":7795,"barrass":7796,"Ġtortured":7797,"ĠByron":7798,"Ġaccomplish":7799,"Ġperformance":7800,"Ġsanction":7801,"Ġcomparative":7802,"Ġmagnanim":7803,"Ġsources":7804,"Ġpitch":7805,"Ġpenit":7806,"Ġunspeak":7807,"Ġintoxicated":7808,"Ġfrightened":7809,"Ġarranged":7810,"Ġtempted":7811,"ĠSomething":7812,"Ġscenes":7813,"Ġindulge":7814,"Ġdeserve":7815,"OPH":7816,"Ġreserve":7817,"Ġrapidly":7818,"Ġcategorical":7819,"Ġpalp":7820,"Ġexercises":7821,"Ġprecaut":7822,"ĠTwo":7823,"Ġperpetual":7824,"Ġwounds":7825,"ĠNorth":7826,"Ġintrinsically":7827,"Ġconqueror":7828,"Ġladder":7829,"Ġallevi":7830,"Ġspoil":7831,"ĠHimself":7832,"Ġaccumulated":7833,"Ġdepreci":7834,"Ġdishonest":7835,"Ġadaptation":7836,"Ġfountains":7837,"feeling":7838,"Ġguarantee":7839,"Ġparalys":7840,"Ġskepticism":7841,"Ġsoldier":7842,"Ġdispleasure":7843,"Ġambiguous":7844,"Ġparents":7845,"Ġarchitect":7846,"Ġecho":7847,"Ġprosper":7848,"ĠTeut":7849,"Ã¦sar":7850,"Ġfestivals":7851,"Ġenabled":7852,"Ġanswers":7853,"Ġdissimulation":7854,"ĠrÃ´le":7855,"Ġpriesthood":7856,"AG":7857,"aci":7858,"apted":7859,"cour":7860,"fts":7861,"faith":7862,"hab":7863,"iqu":7864,"ique":7865,"ns":7866,"nicious":7867,"oHuman":7868,"rong":7869,"rant":7870,"ruth":7871,"rown":7872,"uline":7873,"when":7874,"why":7875,"xi":7876,"ÏĤ":7877,"Ġic":7878,"Ġtire":7879,"Ġtick":7880,"Ġtasks":7881,"list":7882,"hered":7883,"inations":7884,"insp":7885,"ream":7886,"rers":7887,"Ġwage":7888,"Ġsed":7889,"Ġoffic":7890,"Ġmou":7891,"Ġbiolog":7892,"Ġbourge":7893,"Ġhun":7894,"Ġflies":7895,"Ġpang":7896,"orph":7897,"anqu":7898,"leth":7899,"Ġiss":7900,"ombre":7901,"alse":7902,"Ġgap":7903,"Ġgirl":7904,"ĠIII":7905,"Ġforci":7906,"Ġlays":7907,"Ġhaught":7908,"urance":7909,"throp":7910,"odest":7911,"ĠAD":7912,"Ġdeified":7913,"ulating":7914,"rible":7915,"rious":7916,"aining":7917,"Ġmend":7918,"Ġvag":7919,"ille":7920,"Ġaltered":7921,"Ġkilled":7922,"ĠGu":7923,"ĠSou":7924,"ĠSOU":7925,"ĠSalvation":7926,"Ġshade":7927,"Ġshrink":7928,"Ġshudder":7929,"ĠHoly":7930,"ĠCome":7931,"ĠCÃ¦sar":7932,"Ġpernicious":7933,"Ġneut":7934,"Ġlooketh":7935,"russ":7936,"Ġspider":7937,"Ġabortions":7938,"Ġunpre":7939,"ĠEgy":7940,"ĠPur":7941,"ĠPunishment":7942,"ĠPruss":7943,"kened":7944,"Ġchron":7945,"Ġjo":7946,"Ġjour":7947,"Ġjoys":7948,"ĠMo":7949,"ĠMad":7950,"Ġagon":7951,"Ġaggress":7952,"Ġrush":7953,"ĠChinese":7954,"Ġtrod":7955,"Ġpeasant":7956,"Ġoutward":7957,"Ġworldhist":7958,"ĠDuring":7959,"ĠDesc":7960,"ĠDawn":7961,"Ġconspic":7962,"ĠWhither":7963,"Ġresolute":7964,"Ġformid":7965,"Ġidealist":7966,"Ġimpose":7967,"ĠRap":7968,"Ġgrant":7969,"igns":7970,"Ġsubord":7971,"Ġsubsequently":7972,"Ġclock":7973,"Ġremotest":7974,"ĠTHOU":7975,"Ġincurable":7976,"Ġdecision":7977,"Ġwellconstituted":7978,"Ġrecovery":7979,"Ġgene":7980,"actor":7981,"Ġpassive":7982,"Ġwherewith":7983,"Ġcommence":7984,"pressed":7985,"Ġstandeth":7986,"force":7987,"ipus":7988,"Ġempt":7989,"ĠTHEIR":7990,"Ġrefres":7991,"lication":7992,"ERN":7993,"ĠVen":7994,"Ġevils":7995,"tenance":7996,"Ġcomplic":7997,"OND":7998,"ibus":7999,"Ġinfinity":8000,"Ġtwenty":8001,"ALS":8002,"Ġbestowed":8003,"Ġabsent":8004,"Ġtransfer":8005,"Ġflo":8006,"Ġflut":8007,"Ġstatement":8008,"Ġcultures":8009,"Ġmeanwhile":8010,"IND":8011,"INESS":8012,"Ġrelax":8013,"Ġgodlike":8014,"Ġopposing":8015,"Ġdivor":8016,"REN":8017,"Ġelab":8018,"Ġcharacterised":8019,"Ġconceit":8020,"Ġconceivable":8021,"arken":8022,"Ġchildhood":8023,"Ġexamine":8024,"rowing":8025,"Ġfalling":8026,"Ġsacerd":8027,"Ġlacked":8028,"Ġharder":8029,"Ġutili":8030,"ITION":8031,"Ġdefined":8032,"Ġdefensive":8033,"Ġinnate":8034,"Ġhealthiness":8035,"lishing":8036,"mbles":8037,"LIE":8038,"ĠMankind":8039,"ĠAny":8040,"Ġsetting":8041,"ĠEverywhere":8042,"Ġrevengeful":8043,"ARY":8044,"Ġstrikes":8045,"Ġstriking":8046,"ĠReason":8047,"Ġharvest":8048,"Ġsword":8049,"Ġlearns":8050,"ĠAlso":8051,"ĠAlready":8052,"Ġacquiring":8053,"Ġacquainted":8054,"Ġconclude":8055,"ĠPlatonic":8056,"Ġadditional":8057,"Ġtempo":8058,"Ġhistorians":8059,"Ġinventions":8060,"ĠSept":8061,"Ġenvious":8062,"Ġfavourite":8063,"Ġmaintenance":8064,"TERN":8065,"Ġmystic":8066,"Ġdominating":8067,"Ġforgetting":8068,"Ġoperates":8069,"Ġboat":8070,"ĠArch":8071,"Ġboundaries":8072,"Ġheavenly":8073,"Ġfails":8074,"Ġeducated":8075,"Ġepit":8076,"III":8077,"onsciousness":8078,"Ġpreserved":8079,"Ġcombats":8080,"Ġdiseases":8081,"Ġcompels":8082,"Ġattacked":8083,"Ġcrying":8084,"Ġframe":8085,"Ġschools":8086,"ĠWHO":8087,"Ġcomfortable":8088,"Ġsteal":8089,"Ġprivileged":8090,"ĠXX":8091,"Ġtestim":8092,"Ġindependence":8093,"Ġutterance":8094,"Ġdetails":8095,"Ġdrinking":8096,"Ġruler":8097,"escrib":8098,"Ġfoolishness":8099,"Ġpenance":8100,"Ġvenom":8101,"Ġcriminals":8102,"Ġdirectly":8103,"Ġselfcontempt":8104,"hetical":8105,"Ġtenderness":8106,"Ġwarmth":8107,"Ġastonished":8108,"Ġfortune":8109,"Ġcondemns":8110,"Ġaffirmative":8111,"Ġurges":8112,"ĠUpon":8113,"Ġcleanliness":8114,"Ġperspectives":8115,"Ġdigest":8116,"Ġexaggeration":8117,"Ġreminded":8118,"Ġsensitiveness":8119,"ĠTransvaluation":8120,"Beyond":8121,"Ġvigorous":8122,"Ġenchant":8123,"Ġprofession":8124,"ĠHappy":8125,"Ġquantity":8126,"Ġconsidering":8127,"Ġprocreation":8128,"Ġsecrecy":8129,"Ġfulfil":8130,"Ġpoisoned":8131,"Ġrecommend":8132,"Ġdisinterested":8133,"Ġabandoned":8134,"Ġexpedient":8135,"Ġdiscerning":8136,"Ġdeliberately":8137,"Ġsurroundings":8138,"Ġawakening":8139,"Ġsynthesis":8140,"Ġimmoralists":8141,"Ġenraptured":8142,"Ġmaturity":8143,"Ġadminist":8144,"Ġprimeval":8145,"rupulous":8146,"Ġscheme":8147,"Ġintegrity":8148,"ĠCarlyle":8149,"Ġlifetask":8150,"Ġselfdenial":8151,"Ġcloak":8152,"Ġeverlasting":8153,"Ġintermedi":8154,"Ġinheritance":8155,"Ġbutterf":8156,"Ġrestricted":8157,"ĠEgypt":8158,"AU":8159,"ABLE":8160,"OOK":8161,"To":8162,"bers":8163,"back":8164,"dess":8165,"iate":8166,"logue":8167,"mar":8168,"oa":8169,"pict":8170,"rut":8171,"such":8172,"tition":8173,"ui":8174,"vy":8175,"vings":8176,"Ã¤":8177,"Ġ&":8178,"Ġtant":8179,"Ġtelling":8180,"lind":8181,"limit":8182,"Ġapt":8183,"Ġahead":8184,"inarily":8185,"Ġwaking":8186,"Ġsne":8187,"Ġsalt":8188,"Ġsister":8189,"isen":8190,"atus":8191,"Ġmat":8192,"Ġmas":8193,"Ġmute":8194,"Ġbon":8195,"Ġhus":8196,"Ġcaught":8197,"Ġpick":8198,"Ġpages":8199,"ancing":8200,"oty":8201,"oting":8202,"Ġdial":8203,"stri":8204,"stone":8205,"arck":8206,"quer":8207,"velled":8208,"Ġgay":8209,"entric":8210,"Ġasleep":8211,"Ġhed":8212,"Ġherit":8213,"Ġlosing":8214,"ĠanÃ¦":8215,"ractive":8216,"odes":8217,"Ġlikes":8218,"Ġdecept":8219,"pered":8220,"rospect":8221,"Ġseat":8222,"Ġmemb":8223,"Ġexh":8224,"Ġexpend":8225,"Ġexchange":8226,"allel":8227,"Ġvicious":8228,"ĠWOR":8229,"ĠWelt":8230,"Ġallied":8231,"Ġdoc":8232,"Ġsober":8233,"ateth":8234,"Ġkine":8235,"Ġkiss":8236,"ĠGl":8237,"ĠSH":8238,"ĠSon":8239,"ĠSaint":8240,"Ġshot":8241,"Ġintol":8242,"Ġprete":8243,"Ġpercept":8244,"Ġpose":8245,"Ġimperium":8246,"ĠOR":8247,"Ġfeast":8248,"Ġfears":8249,"Ġspont":8250,"Ġabroad":8251,"Ġunion":8252,"Ġunaw":8253,"iven":8254,"ivocal":8255,"Ġlevity":8256,"ĠPE":8257,"ĠPHIL":8258,"Ġdisor":8259,"ĠMost":8260,"ĠMaster":8261,"Ġfab":8262,"Ġrout":8263,"Ġmoralities":8264,"irect":8265,"Ġtranqu":8266,"Ġprick":8267,"Ġcontri":8268,"ĠLater":8269,"ĠLittle":8270,"ĠLatin":8271,"Ġamiable":8272,"Ġindescrib":8273,"Ġworldly":8274,"okes":8275,"Ġacted":8276,"Ġartifice":8277,"Ġplen":8278,"Ġadjust":8279,"Ġadequ":8280,"Ġadapted":8281,"Ġaccent":8282,"Ġraises":8283,"Ġattractive":8284,"Ġtraced":8285,"Ġhumour":8286,"Ġthrust":8287,"Ġincon":8288,"Ġhappiest":8289,"Ġthoughtful":8290,"Ġappet":8291,"Ġparties":8292,"Ġbrown":8293,"Ġcondu":8294,"Ġmoderate":8295,"Ġserves":8296,"Ġrefutation":8297,"Ġfarther":8298,"Ġrolling":8299,"Ġneedful":8300,"Ġdiscomfort":8301,"Ġglass":8302,"Ġinside":8303,"Ġcults":8304,"Ġworkers":8305,"avish":8306,"Ġcreators":8307,"Ġprofit":8308,"Ġassimil":8309,"Ġadvise":8310,"Ġwarning":8311,"philosop":8312,"Ġrepr":8313,"Ġfreed":8314,"Ġrespected":8315,"retion":8316,"Ġresting":8317,"Ġrestra":8318,"Ġphysicians":8319,"Ġdoubted":8320,"Ġmodernity":8321,"Ġdestructive":8322,"Ġdreaming":8323,"Ġdepra":8324,"Ġcontinues":8325,"Ġforests":8326,"going":8327,"Ġpreval":8328,"Ġsatiety":8329,"Ġnaturalness":8330,"Ġsimpli":8331,"Ġpractices":8332,"ailed":8333,"ĠStill":8334,"Ġcares":8335,"Ġvex":8336,"Ġveiled":8337,"ĠSocratism":8338,"Ġirres":8339,"Ġreverent":8340,"Ġbenefic":8341,"Ġhelping":8342,"Ġsway":8343,"Ġswine":8344,"Ġmotley":8345,"Ġcommunities":8346,"Ġstruggling":8347,"itsch":8348,"INGS":8349,"alises":8350,"Ġultra":8351,"Ġhabitual":8352,"aughter":8353,"Ġprovide":8354,"Ġcasts":8355,"ĠKantian":8356,"Ġsket":8357,"Ġunderest":8358,"Ġneighbourhood":8359,"Ġdogmat":8360,"Ġdogmas":8361,"ĠTRUTH":8362,"Ġlowly":8363,"Ġproofs":8364,"Ġsituations":8365,"Ġviolently":8366,"ĠIndia":8367,"Ġpreservative":8368,"Ġcombated":8369,"Ġoccasional":8370,"Ġdestroyer":8371,"Ġtreatment":8372,"Ġaristocracy":8373,"ĠÃ¦sthetics":8374,"Ġdeclares":8375,"Ġantithetical":8376,"Ġstudent":8377,"Ġcontradicts":8378,"Ġsolely":8379,"Ġdiver":8380,"ĠBELIE":8381,"ommon":8382,"Ġannihilate":8383,"ĠONES":8384,"ĠDeath":8385,"Ġgifted":8386,"Ġruled":8387,"ĠBuddhistic":8388,"Ġmeantime":8389,"Ġdesignate":8390,"Ġwalking":8391,"Ġascendancy":8392,"Ġecstasies":8393,"Ġencourage":8394,"Ġmortals":8395,"Ġfalsification":8396,"Ġgentleness":8397,"Ġ1888":8398,"Ġwander":8399,"Ġwandering":8400,"Ġposit":8401,"heads":8402,"Ġmockery":8403,"Ġblissful":8404,"Ġanarchist":8405,"Ġacquires":8406,"Ġexhibits":8407,"Ġremembered":8408,"Ġuncertainty":8409,"Ġinvestigation":8410,"Ġconcerns":8411,"Ġrepudiated":8412,"Ġtheatrical":8413,"ĠCONS":8414,"arianism":8415,"Ġcategory":8416,"Ġadopted":8417,"Ġtransfiguration":8418,"Ġoptimistic":8419,"Ġassertion":8420,"Ġvictories":8421,"arantul":8422,"Ġexercised":8423,"Ġhesitating":8424,"ixture":8425,"Ġluxur":8426,"Ġrebirth":8427,"Ġoverflow":8428,"Ġvictims":8429,"Ġperpetually":8430,"ĠTranslated":8431,"Ġselfdest":8432,"Ġoccupied":8433,"Ġinevitably":8434,"Ġunlearn":8435,"Ġunlearned":8436,"Ġunhappiness":8437,"Ġmisunderstandings":8438,"Ġbrutal":8439,"Ġpregnant":8440,"Ġpregnancy":8441,"Ġheirs":8442,"Ġpronounced":8443,"Ġeloquence":8444,"ĠAccording":8445,"Ġhierarchy":8446,"Ġembodied":8447,"ĠGOOD":8448,"Ġanalogous":8449,"Ġdiligence":8450,"mblance":8451,"Ġmurder":8452,"Ġequivalent":8453,"Ġalcoh":8454,"Ġmasculine":8455,"Ġincredible":8456,"RISTIAN":8457,"Ġsupremacy":8458,"Ġdowngoing":8459,"Ġinquisitive":8460,"Ġunpleasant":8461,"Ġformidable":8462,"Ġheritage":8463,"Ġmembers":8464,"CES":8465,"COM":8466,"IOUS":8467,"Thus":8468,"cont":8469,"ding":8470,"ek":8471,"found":8472,"holy":8473,"ien":8474,"iant":8475,"may":8476,"moral":8477,"master":8478,"nation":8479,"rid":8480,"vable":8481,"vals":8482,"wind":8483,"negation":8484,"reth":8485,"Ġwing":8486,"Ġwra":8487,"Ġsages":8488,"Ġmud":8489,"Ġburn":8490,"Ġblend":8491,"Ġhalt":8492,"Ġhuge":8493,"Ġcities":8494,"Ġfict":8495,"Ġinhuman":8496,"org":8497,"orial":8498,"oter":8499,"Ġdice":8500,"seth":8501,"omed":8502,"Ġrecip":8503,"Ġgir":8504,"Ġgerm":8505,"Ġlure":8506,"Ġlumin":8507,"idently":8508,"cht":8509,"Ġweakened":8510,"Ġlit":8511,"Ġliar":8512,"Ġdew":8513,"estab":8514,"Ġmoving":8515,"Ġmellow":8516,"Ġexem":8517,"ĠWar":8518,"ĠWoe":8519,"aker":8520,"iles":8521,"ilation":8522,"iless":8523,"Ġwholes":8524,"ferences":8525,"Ġsof":8526,"Ġsoar":8527,"Ġworn":8528,"ĠGive":8529,"ĠSl":8530,"ĠHor":8531,"ĠHither":8532,"ĠHIM":8533,"ĠHIGH":8534,"Ġintense":8535,"Ġintimate":8536,"ĠCAN":8537,"ĠBism":8538,"Ġprover":8539,"Ġprohib":8540,"Ġarous":8541,"Ġarisen":8542,"Ġeveryday":8543,"Ġunus":8544,"Ġunsc":8545,"Ġunav":8546,"ĠETERN":8547,"auld":8548,"ĠThink":8549,"ĠThird":8550,"Ġdisbe":8551,"Ġchrist":8552,"ĠFRI":8553,"ĠMr":8554,"ĠMark":8555,"ĠMEN":8556,"ĠMoz":8557,"orts":8558,"Ġagony":8559,"Ġray":8560,"Ġrises":8561,"Ġamuse":8562,"Ġmayest":8563,"Ġmaybe":8564,"Ġnowhere":8565,"ĠWhich":8566,"ieth":8567,"anging":8568,"Ġidealistic":8569,"Ġadore":8570,"Ġimplies":8571,"Ġsouthern":8572,"ensions":8573,"Ġgrass":8574,"Ġgranting":8575,"Ġselfrespect":8576,"Ġsubd":8577,"Ġendless":8578,"Ġendurable":8579,"endhal":8580,"Ġtraces":8581,"Ġincor":8582,"Ġsuffices":8583,"Ġrecent":8584,"Ġmodel":8585,"ĠYEA":8586,"ĠWagnerite":8587,"ternally":8588,"Ġemer":8589,"Ġembarrass":8590,"ĠTHEE":8591,"Ġrefuge":8592,"Ġruins":8593,"Ġroar":8594,"Ġcompr":8595,"ibn":8596,"Ġinsidious":8597,"Ġtwice":8598,"ALITY":8599,"Ġscru":8600,"Ġpurple":8601,"Ġletter":8602,"Ġpraises":8603,"ocrat":8604,"Ġpleasing":8605,"Ġquestioning":8606,"Ġflown":8607,"Ġflows":8608,"Ġflash":8609,"Ġindecent":8610,"Ġappearing":8611,"Ġillogical":8612,"Ġclevere":8613,"Ġgoddess":8614,"Ġsensible":8615,"ĠUt":8616,"Ġcorps":8617,"Ġfreesp":8618,"Ġresulting":8619,"Ġresulted":8620,"Ġelect":8621,"Ġsuperfici":8622,"Ġbreeding":8623,"Ġpoetical":8624,"Ġsupposition":8625,"Ġstrengthen":8626,"Ġuncon":8627,"Ġspecially":8628,"hael":8629,"Ġforefather":8630,"Ġdomination":8631,"Ġconvuls":8632,"Ġpromote":8633,"Ġrecognises":8634,"ĠStendhal":8635,"Ġdoctors":8636,"Ġveget":8637,"Ġirration":8638,"ARATH":8639,"ourses":8640,"Ġcreations":8641,"Ġrepresentative":8642,"Ġfatalism":8643,"Ġinjure":8644,"Ġrival":8645,"Ġprovision":8646,"Ġhistorian":8647,"Ġkeeps":8648,"Ġsublimity":8649,"Ġexpense":8650,"Ġformulated":8651,"Ġforgiveness":8652,"Ġforgiven":8653,"ĠantiSem":8654,"Ġshameless":8655,"Ġhypocrit":8656,"Ġunegoistic":8657,"Ġlyrist":8658,"Ġweaknesses":8659,"Ġviolation":8660,"Ġbox":8661,"Ġlaying":8662,"Ġfailures":8663,"Ġmirac":8664,"Ġephe":8665,"Ġbargain":8666,"Ġshadows":8667,"Ġseduce":8668,"Ġdelicacy":8669,"Ġcompel":8670,"Ġattacks":8671,"Ġdescent":8672,"Ġlegis":8673,"Ġholiest":8674,"Ġschooling":8675,"Ġfights":8676,"Ġunfav":8677,"Ġsweetness":8678,"Ġstandards":8679,"Ġdiscovering":8680,"Ġautob":8681,"Ġdialectic":8682,"Ġannihilated":8683,"Ġlandsc":8684,"Ġvita":8685,"Ġexplanations":8686,"Ġexperiments":8687,"gories":8688,"Ġtyrannical":8689,"Ġascribed":8690,"Ġencoura":8691,"Ġanguish":8692,"OSOPH":8693,"Ġfalsity":8694,"Ġintoxicating":8695,"Ġsurprised":8696,"Ġsurprising":8697,"Ġappreciation":8698,"Ġstorms":8699,"ĠRomanum":8700,"ĠImper":8701,"Ġreduce":8702,"atisfaction":8703,"Ġexhibited":8704,"Ġfruitful":8705,"Ġemancipated":8706,"Ġmartyrs":8707,"Ġoccurs":8708,"Ġaffirmation":8709,"Ġsanctified":8710,"Ġdeserves":8711,"Ġgladly":8712,"Ġfairly":8713,"Ġenlightened":8714,"Ġpredile":8715,"Ġphilologists":8716,"Ġopportunities":8717,"Ġsorrowful":8718,"Ġloneliness":8719,"USTRA":8720,"Ġdepartment":8721,"Ġunconditioned":8722,"Ġobstacles":8723,"Ġirrespons":8724,"Ġpresumptuous":8725,"Ġadvocates":8726,"Ġwitnesses":8727,"Ġclums":8728,"Ġsovereignty":8729,"Ġweapon":8730,"Ġsurvival":8731,"Ġbaseness":8732,"Ġstroke":8733,"Ġstretch":8734,"Ġpreaching":8735,"Ġunhappy":8736,"Ġquantum":8737,"Ġbids":8738,"Ġfollies":8739,"Ġovercoming":8740,"Ġselfdeception":8741,"Ġsplendour":8742,"Ġreturned":8743,"Ġdrunkenness":8744,"Ġexecut":8745,"Ġparadoxical":8746,"Ġfurnish":8747,"ĠGenoa":8748,"Ġthankful":8749,"Ġappreciate":8750,"Ġexclaim":8751,"GHT":8752,"Ġworshipped":8753,"ĠOriental":8754,"Ġindustry":8755,"Ġaccurately":8756,"Ġprophets":8757,"Ġcynicism":8758,"Ġnihilistic":8759,"Ġassistance":8760,"Ġtown":8761,"Ġlatest":8762,"Ġpupils":8763,"Ġoutbursts":8764,"Ġcommitted":8765,"Ġexcluded":8766,"Ġrigorous":8767,"Ġimpudent":8768,"Ġrepentance":8769,"Ġgleam":8770,"Ġinconsist":8771,"Ġwondered":8772,"Ġfiery":8773,"Ġesprit":8774,"Ġreconciliation":8775,"Ġdetrimental":8776,"Ġfrenzy":8777,"Ġvindict":8778,"ĠEVIL":8779,"Ġorganization":8780,"Ġbourgeois":8781,"Ġchronic":8782,"ĠRaphael":8783,"Ġelabor":8784,"Ġsacerdotal":8785,"ĠSeptember":8786,"Ġtestimony":8787,"Ġhusb":8788,"Ġpretext":8789,"ĠPEOP":8790,"ĠPHILOSOPH":8791,"Ġluminous":8792,"ĠBismarck":8793,"Ġfreespirit":8794,"ARATHUSTRA":8795,"ACE":8796,"He":8797,"IF":8798,"PER":8799,"cor":8800,"coming":8801,"cauld":8802,"gu":8803,"gone":8804,"house":8805,"joy":8806,"lam":8807,"lands":8808,"mic":8809,"na":8810,"oer":8811,"oves":8812,"ping":8813,"uum":8814,"uper":8815,"uable":8816,"uary":8817,"venth":8818,"Î±":8819,"ĠÎ":8820,"Ġtent":8821,"Ġtaming":8822,"Ġtarantul":8823,"hement":8824,"hetic":8825,"hefou":8826,"inal":8827,"inner":8828,"inisc":8829,"ref":8830,"Ġwal":8831,"Ġwave":8832,"nding":8833,"iture":8834,"itute":8835,"Ġmathe":8836,"Ġboy":8837,"Ġhouses":8838,"Ġcogn":8839,"Ġfiction":8840,"Ġfathom":8841,"esome":8842,"Ġthread":8843,"aning":8844,"anches":8845,"Ġdup":8846,"Ġdares":8847,"Ġduration":8848,"edies":8849,"arise":8850,"arians":8851,"Ġbeheld":8852,"aluable":8853,"Ġgather":8854,"Ġgrie":8855,"utch":8856,"ĠIND":8857,"Ġlent":8858,"Ġlake":8859,"idem":8860,"rab":8861,"Ġstake":8862,"Ġstiff":8863,"Ġconced":8864,"Ġling":8865,"Ġonward":8866,"ĠAB":8867,"ĠAPP":8868,"Ġdefe":8869,"riage":8870,"petr":8871,"ainst":8872,"Ġseizes":8873,"Ġexert":8874,"ady":8875,"ading":8876,"Ġvic":8877,"ills":8878,"ĠWand":8879,"aks":8880,"using":8881,"amorph":8882,"cian":8883,"Ġdoors":8884,"verything":8885,"ĠGEN":8886,"ĠSy":8887,"ĠSub":8888,"Ġshun":8889,"Ġevident":8890,"osal":8891,"osity":8892,"anda":8893,"ĠHu":8894,"Ġprecise":8895,"Ġprecip":8896,"ĠCould":8897,"Ġperpetr":8898,"ĠBes":8899,"ĠBOOK":8900,"Ġponder":8901,"ĠOB":8902,"ĠOW":8903,"ĠOwing":8904,"Ġcomprehensible":8905,"Ġspare":8906,"Ġspark":8907,"idelity":8908,"Ġupheld":8909,"ĠNI":8910,"Ġunve":8911,"Ġunra":8912,"Ġunlimit":8913,"ĠES":8914,"ĠEver":8915,"ĠEth":8916,"pers":8917,"agor":8918,"aud":8919,"aunt":8920,"ĠPO":8921,"ĠPl":8922,"ĠPART":8923,"Ġdisqu":8924,"Ġchain":8925,"ĠFr":8926,"ĠFour":8927,"Ġjub":8928,"Ġfare":8929,"Ġagreed":8930,"apes":8931,"Ġrum":8932,"Ġride":8933,"Ġruth":8934,"Ġrhet":8935,"ounds":8936,"artes":8937,"Ġcanst":8938,"Ġsomebody":8939,"Ġcontr":8940,"Ġoutc":8941,"Ġindirect":8942,"ĠDel":8943,"ĠDivine":8944,"Ġenh":8945,"Ġartful":8946,"ĠItalian":8947,"Ġspeed":8948,"ocation":8949,"ochefou":8950,"Ġplung":8951,"Ġobs":8952,"Ġobli":8953,"Ġoverpower":8954,"Ġbeliever":8955,"Ġattach":8956,"Ġattached":8957,"Ġhumb":8958,"Ġremn":8959,"Ġdistrib":8960,"Ġincident":8961,"Ġaftere":8962,"Ġafresh":8963,"Ġdecent":8964,"Ġrecreation":8965,"adequ":8966,"Ġearliest":8967,"Ġbranch":8968,"ryan":8969,"ĠJe":8970,"ĠYOUR":8971,"ĠWagnerites":8972,"awing":8973,"Ġentangled":8974,"teous":8975,"ieties":8976,"Ġblows":8977,"Ġhistrion":8978,"Ġbeforehand":8979,"Ġinvaluable":8980,"Ġroaring":8981,"Ġroyal":8982,"Ġprior":8983,"ĠVAL":8984,"Ġmisled":8985,"resses":8986,"Ġreadiness":8987,"Ġlightly":8988,"Ġscor":8989,"Ġgram":8990,"Ġsinfulness":8991,"edient":8992,"Ġfoundations":8993,"erers":8994,"eware":8995,"Ġantin":8996,"ĠUnd":8997,"Ġsignification":8998,"Ġexamples":8999,"Ġbeginnings":9000,"ANG":9001,"ĠIsles":9002,"Ġdenying":9003,"Ġfalseness":9004,"Ġdreamt":9005,"Ġspecialist":9006,"Ġcontinuation":9007,"Ġdevelops":9008,"Ġdeveloping":9009,"Ġcircular":9010,"Ġcompleted":9011,"Ġsuns":9012,"Ġprompted":9013,"Ġleaders":9014,"until":9015,"Ġchem":9016,"OUN":9017,"Ġbelonged":9018,"Ġcareer":9019,"Ġvehement":9020,"Ġasking":9021,"Ġsecondary":9022,"Ġcommunication":9023,"aneous":9024,"Ġwriters":9025,"Ġfurious":9026,"Ġconsiderations":9027,"Ġburnt":9028,"Ġrunning":9029,"ĠAlways":9030,"ĠAlmost":9031,"Ġphysiologists":9032,"Ġheroism":9033,"Ġgeneralis":9034,"Ġcounted":9035,"Ġegoistic":9036,"Ġdistinctly":9037,"Ġphilosophies":9038,"Ġtriumphs":9039,"Ġsweat":9040,"Ġhorrible":9041,"Ġhasty":9042,"Ġuniversally":9043,"Ġsituation":9044,"Ġyouthful":9045,"Ġproudly":9046,"Ġeffici":9047,"Ġcombination":9048,"umbling":9049,"Ġtalked":9050,"ĠPrim":9051,"ĠShall":9052,"Ġii":9053,"Ġelementary":9054,"Ġbeholds":9055,"IGN":9056,"ounces":9057,"ouncing":9058,"Ġdependence":9059,"Ġ190":9060,"IRIT":9061,"Ġrepeated":9062,"ĠNOTE":9063,"Ġdesiring":9064,"ĠLeibn":9065,"Ġaccomplished":9066,"Ġglorify":9067,"Ġdetest":9068,"Ġrulers":9069,"Ġembrace":9070,"Ġdrive":9071,"Ġdrives":9072,"IVE":9073,"Ġwalked":9074,"Ġinexhaust":9075,"Ġpretty":9076,"Ġfootst":9077,"Ġfrank":9078,"Ġconvincing":9079,"ĠMORE":9080,"Ġmarked":9081,"Ġpermits":9082,"Ġconsistency":9083,"Ġobeying":9084,"Ġbarbaric":9085,"true":9086,"Ġhungry":9087,"ĠHellenism":9088,"Ġeagerness":9089,"Ġintentionally":9090,"Ġpresuppose":9091,"Ġantagonistic":9092,"Ġmoods":9093,"Ġhangs":9094,"ĠCHRISTIAN":9095,"Ġloftiness":9096,"Ġtransfigured":9097,"Ġadmirable":9098,"Ġpresumption":9099,"Ġincapacity":9100,"Ġmaxims":9101,"Ġmaximum":9102,"rosity":9103,"Ġinspires":9104,"Ġrejoiced":9105,"Ġrejoicing":9106,"Ġstrokes":9107,"ĠMaybe":9108,"Ġselfdis":9109,"Ġalteration":9110,"Ġrecollection":9111,"Ġpenetrating":9112,"Ġcoolness":9113,"Ġinquire":9114,"ĠGranted":9115,"ĠSPIRIT":9116,"Ġnovelty":9117,"VIII":9118,"Ġepochs":9119,"Ġunnaturalness":9120,"Ġincarnate":9121,"Ġdragon":9122,"Ġcorrectly":9123,"Ġfountain":9124,"ĠInto":9125,"Ġprescribed":9126,"Ġrigid":9127,"Ġabsorbed":9128,"Ġarrangement":9129,"Ġunheard":9130,"Ġarbitrarily":9131,"Ġarbitrariness":9132,"ĠProtestantism":9133,"Ġlucky":9134,"ĠHAPP":9135,"ĠRussian":9136,"Ġexclusively":9137,"Ġseventeenth":9138,"Ġselfconf":9139,"LATOR":9140,"ufficient":9141,"Ġdesiderata":9142,"Ġborrowed":9143,"Ġlarger":9144,"Ġpremature":9145,"Ġdisappear":9146,"Ġdesperate":9147,"Ġindignant":9148,"Ġselfsacrifice":9149,"Ġbeggar":9150,"Ġvalidity":9151,"Ġlunatic":9152,"Ġintuition":9153,"Ġcontemporaries":9154,"Ġepilept":9155,"WARDS":9156,"ĠTEMPO":9157,"ĠGenealogy":9158,"ĠEcce":9159,"ĠTRANSLATOR":9160,"inspiring":9161,"Ġmouths":9162,"ĠDescartes":9163,"Ġconspicuous":9164,"Ġmasquer":9165,"Ġgirls":9166,"ĠHitherto":9167,"Ġunscrupulous":9168,"ĠMozart":9169,"Ġunlimited":9170,"ochefoucauld":9171,"Ġaftereffect":9172,"'d":9173,"'m":9174,"How":9175,"IX":9176,"ME":9177,"UES":9178,"Will":9179,"aus":9180,"ben":9181,"chest":9182,"dest":9183,"dides":9184,"dipus":9185,"eks":9186,"fast":9187,"ik":9188,"ige":9189,"my":9190,"must":9191,"pse":9192,"poll":9193,"rt":9194,"tation":9195,"twixt":9196,"uer":9197,"uance":9198,"ucy":9199,"virtue":9200,"yc":9201,"zes":9202,"zed":9203,"Ã¨":9204,"Ġá":9205,"Ġil":9206,"Ġtread":9207,"Ġaug":9208,"Ġaye":9209,"heart":9210,"Ġora":9211,"inci":9212,"reate":9213,"Ġwake":9214,"Ġsal":9215,"Ġsings":9216,"Ġsang":9217,"Ġsons":9218,"Ġseduc":9219,"erce":9220,"ernel":9221,"Ġmit":9222,"Ġmale":9223,"Ġmumm":9224,"Ġbull":9225,"Ġborne":9226,"Ġcore":9227,"Ġful":9228,"Ġfired":9229,"Ġfier":9230,"Ġfoul":9231,"Ġpantom":9232,"Ġthw":9233,"Ġinord":9234,"Ġinadequ":9235,"ouder":9236,"othes":9237,"otics":9238,"Ġdrow":9239,"still":9240,"sthis":9241,"icus":9242,"icks":9243,"arity":9244,"alf":9245,"alas":9246,"Ġnice":9247,"asion":9248,"ashing":9249,"Ġgall":9250,"Ġgross":9251,"Ġglim":9252,"entiment":9253,"ĠTrist":9254,"Ġhearer":9255,"Ġforgets":9256,"Ġlud":9257,"ural":9258,"Ġange":9259,"rable":9260,"Ġstuff":9261,"Ġstaff":9262,"chn":9263,"chus":9264,"Ġsuck":9265,"ĠAss":9266,"ulch":9267,"rial":9268,"rily":9269,"riend":9270,"pection":9271,"Ġseason":9272,"Ġseize":9273,"adow":9274,"Ġvest":9275,"Ġvoid":9276,"usc":9277,"cile":9278,"Ġorde":9279,"Ġdoer":9280,"opo":9281,"opha":9282,"Ġkernel":9283,"ĠSO":9284,"ĠSum":9285,"Ġshy":9286,"Ġshook":9287,"alise":9288,"etween":9289,"Ġnook":9290,"arded":9291,"Ġpreem":9292,"Ġpreacher":9293,"ĠCONT":9294,"Ġthereupon":9295,"Ġperil":9296,"Ġperme":9297,"acities":9298,"Ġpoly":9299,"Ġloc":9300,"Ġimpet":9301,"athy":9302,"ĠOver":9303,"Ġarouse":9304,"Ġspur":9305,"Ġspared":9306,"Ġspasm":9307,"Ġuphold":9308,"Ġabo":9309,"Ġabys":9310,"Ġabundant":9311,"Ġunlike":9312,"ĠEle":9313,"ĠEVER":9314,"Ġlend":9315,"ĠPri":9316,"ĠPsych":9317,"ĠPOW":9318,"ĠPRA":9319,"ĠPassion":9320,"ĠThoughts":9321,"ĠThucy":9322,"Ġdisrep":9323,"Ġchasm":9324,"nders":9325,"ĠFO":9326,"ĠFounder":9327,"ĠMine":9328,"orting":9329,"Ġaged":9330,"ccess":9331,"Ġcontest":9332,"Ġphant":9333,"Ġouter":9334,"Ġactuated":9335,"ĠInn":9336,"ulties":9337,"isms":9338,"iteth":9339,"Ġpled":9340,"Ġplus":9341,"Ġplun":9342,"Ġplenty":9343,"Ġadherent":9344,"ĠRochefoucauld":9345,"cessors":9346,"Ġsayest":9347,"Ġselves":9348,"Ġsaves":9349,"Ġjustifies":9350,"Ġstranger":9351,"Ġrapt":9352,"Ġsubs":9353,"Ġclosing":9354,"Ġcloser":9355,"Ġattract":9356,"Ġgoest":9357,"Ġtraits":9358,"Ġthrong":9359,"Ġdistaste":9360,"Ġaffection":9361,"Ġhappily":9362,"Ġsuffoc":9363,"Ġwellknown":9364,"Ġsyll":9365,"Ġrecently":9366,"Ġgenes":9367,"adeth":9368,"Ġbranches":9369,"Ġhumanit":9370,"Ġentity":9371,"Ġrefusal":9372,"Ġblush":9373,"Ġextends":9374,"Ġtele":9375,"Ġtechn":9376,"Ġrog":9377,"Ġroof":9378,"Ġcompatible":9379,"Ġsimpl":9380,"fication":9381,"Ġscul":9382,"Ġoriginates":9383,"Ġpurch":9384,"Ġgrain":9385,"Ġlets":9386,"ORY":9387,"autiful":9388,"Ġguile":9389,"Ġindef":9390,"Ġcouch":9391,"Ġviewed":9392,"Ġbackworld":9393,"Ġreplied":9394,"Ġsocialistic":9395,"Ġantid":9396,"Ġsensual":9397,"bec":9398,"Ġopposites":9399,"Ġearthqu":9400,"RED":9401,"Ġlively":9402,"Ġpossessing":9403,"Ġsuperhuman":9404,"Ġbreaketh":9405,"Ġrestored":9406,"Ġcontract":9407,"Ġdenatur":9408,"Ġdestined":9409,"ĠAtt":9410,"Ġfalsely":9411,"mann":9412,"Ġdomestic":9413,"Ġdespising":9414,"Ġshortsight":9415,"Ġmarried":9416,"Ġexplos":9417,"Ġexplains":9418,"ĠStra":9419,"LIG":9420,"Ġcheck":9421,"Ġcurtain":9422,"Ġpurest":9423,"Ġsinging":9424,"Ġmetamorph":9425,"ĠAngel":9426,"Ġsettled":9427,"Ġexcites":9428,"Ġexcitation":9429,"Ġexciting":9430,"Ġcausa":9431,"Ġstrife":9432,"Ġcritics":9433,"Ġburied":9434,"Ġrunneth":9435,"Ġgeniuses":9436,"Ġwax":9437,"Ġrepresenting":9438,"Ġnumerous":9439,"Ġveritable":9440,"Ġtends":9441,"ICAL":9442,"ICISM":9443,"Ġhonestly":9444,"Ġcrafty":9445,"Ġservants":9446,"azz":9447,"Ġblessings":9448,"Ġadmired":9449,"Ġcolder":9450,"Ġinventors":9451,"Ġunde":9452,"Ġrarer":9453,"ourably":9454,"Ġhaste":9455,"Ġyounger":9456,"Ġpublication":9457,"Ġwithered":9458,"ĠNihilist":9459,"Ġheavens":9460,"Ġdevils":9461,"Ġdominate":9462,"Ġfancies":9463,"ĠINT":9464,"Ġevolving":9465,"xtap":9466,"Ġeducational":9467,"Ġmiracles":9468,"Ġrevolve":9469,"Ġcharms":9470,"CEPT":9471,"Ġlistening":9472,"Ġlistened":9473,"Ġcombined":9474,"Ġliberal":9475,"knowledge":9476,"Ġhoarse":9477,"ĠWHERE":9478,"Ġhiding":9479,"Ġstrain":9480,"Ġgrounds":9481,"Ġdeclar":9482,"Ġsummit":9483,"ALLY":9484,"Ġfaculties":9485,"Ġautom":9486,"Ġstudied":9487,"ohuman":9488,"Ġdialectician":9489,"Ġdetail":9490,"Ġventured":9491,"ĠPharise":9492,"Ġmonths":9493,"Ġfaster":9494,"Ġrenounced":9495,"Ġprotected":9496,"Ġpitiable":9497,"Ġarrives":9498,"Ġpretend":9499,"Ġpretensions":9500,"Ġorders":9501,"Ġescaped":9502,"Ġabstraction":9503,"Ġtouching":9504,"ĠHerbert":9505,"yrr":9506,"Ġingenuity":9507,"Ġrobust":9508,"Ġanarchists":9509,"Ġbuilding":9510,"Ġindulgent":9511,"Ġtoleration":9512,"Ġadmitted":9513,"Ġdespairing":9514,"Ġpreferred":9515,"Ġradically":9516,"Ġattributed":9517,"Ġattributes":9518,"Ġcelebrate":9519,"Ġsanctity":9520,"Ġrepudiation":9521,"Ġrepudiate":9522,"ĠPrecisely":9523,"Ġcategories":9524,"Ġdigestion":9525,"Ġuncondition":9526,"Ġobstacle":9527,"Ġconfession":9528,"ATIONS":9529,"Ġexercising":9530,"Ġpursue":9531,"ĠAristopha":9532,"Ġaccompanying":9533,"Ġaudacity":9534,"Ġaudacious":9535,"ĠITS":9536,"Ġdebt":9537,"Ġsuppression":9538,"ivering":9539,"Ġinduce":9540,"Ġaccessible":9541,"Ġcompassionate":9542,"Ġmaidens":9543,"Ġfolk":9544,"Ġflourishes":9545,"Ġrepugnance":9546,"ACK":9547,"Ġinquir":9548,"Ġtroubles":9549,"Ġreturning":9550,"Ġdeduction":9551,"Ġbeware":9552,"Ġgarb":9553,"Ġincarnation":9554,"Ġparasite":9555,"Ġdeliberate":9556,"Ġtouches":9557,"Ġarrogance":9558,"ĠEduc":9559,"ĠAccordingly":9560,"aineth":9561,"Ġmilk":9562,"ĠOrient":9563,"ĠReligion":9564,"Ġconsecrated":9565,"Ġnarcotic":9566,"Ġstrangest":9567,"Ġmuscles":9568,"Ġwaters":9569,"Ġselfmastery":9570,"instinct":9571,"Ġmischief":9572,"Ġwasted":9573,"Ġqualified":9574,"Ġconsummation":9575,"Ġfetters":9576,"ilochus":9577,"ĠJoyful":9578,"Ġblasphemy":9579,"Ġmingled":9580,"Ġunintellig":9581,"Ġinexplicable":9582,"Ġnausea":9583,"ĠAlexandrine":9584,"Ġdisdain":9585,"Ġsimultaneously":9586,"Ġissue":9587,"Ġvague":9588,"ĠPrussian":9589,"Ġjourney":9590,"Ġtransferred":9591,"ĠArchilochus":9592,"Ġenchantment":9593,"Ġbutterfly":9594,"Ġunawares":9595,"Ġplenitude":9596,"Ġirresist":9597,"Ġbeneficent":9598,"Ġunderestimate":9599,"Ġselfdestruction":9600,"Ġfictitious":9601,"Ġincorpor":9602,"Ġforefathers":9603,"Ġirrationality":9604,"Ġmiraculous":9605,"Ġunfavourable":9606,"Ġhusband":9607,"Ġdisquiet":9608,"Ġremnant":9609,"Ġfootsteps":9610,"Ġfulness":9611,"ĠTristan":9612,"Ġludic":9613,"ĠPOWER":9614,"ĠThucydides":9615,"Ġgenesis":9616,"'re":9617,"AGE":9618,"For":9619,"LA":9620,"Let":9621,"NOT":9622,"TA":9623,"There":9624,"That":9625,"aver":9626,"bing":9627,"bted":9628,"creat":9629,"eur":9630,"even":9631,"fried":9632,"hard":9633,"have":9634,"iates":9635,"no":9636,"pen":9637,"pot":9638,"rin":9639,"said":9640,"uner":9641,"ugg":9642,"ualism":9643,"vious":9644,"would":9645,"zing":9646,"ÅĴ":9647,"Î¹":9648,"ĠÅĴ":9649,"neath":9650,"lived":9651,"Ġakin":9652,"ini":9653,"inism":9654,"regard":9655,"Ġwid":9656,"Ġwil":9657,"Ġshed":9658,"Ġsombre":9659,"isis":9660,"isions":9661,"iter":9662,"itus":9663,"itates":9664,"Ġmurd":9665,"Ġmasks":9666,"onour":9667,"Ġbent":9668,"Ġbul":9669,"Ġbiography":9670,"Ġhit":9671,"Ġhoc":9672,"Ġcard":9673,"Ġcell":9674,"Ġfrog":9675,"Ġpa":9676,"Ġpier":9677,"Ġpardon":9678,"Ġthief":9679,"Ġthirty":9680,"Ġink":9681,"Ġincess":9682,"oring":9683,"anct":9684,"anour":9685,"anthrop":9686,"Ġdamp":9687,"stru":9688,"inger":9689,"iche":9690,"arious":9691,"Ġeg":9692,"Ġebb":9693,"quality":9694,"Ġbef":9695,"Ġbelit":9696,"Ġwhirl":9697,"Ġitand":9698,"Ġrelie":9699,"Ġrewards":9700,"Ġrevers":9701,"Ġreins":9702,"Ġreestab":9703,"Ġgid":9704,"ĠTen":9705,"ĠTur":9706,"ĠTol":9707,"Ġasse":9708,"Ġashes":9709,"Ġasks":9710,"ĠIV":9711,"Ġhem":9712,"irp":9713,"irce":9714,"Ġlam":9715,"urg":9716,"urous":9717,"urther":9718,"urches":9719,"rade":9720,"Ġnoticed":9721,"Ġstay":9722,"Ġstable":9723,"Ġstick":9724,"Ġstalk":9725,"Ġconso":9726,"ĠAut":9727,"ĠApp":9728,"ĠAmer":9729,"Ġdeme":9730,"Ġdelus":9731,"ulations":9732,"riety":9733,"rosc":9734,"Ġmeane":9735,"allen":9736,"Ġoneness":9737,"Ġalt":9738,"amlet":9739,"Ġorchest":9740,"ĠSir":9741,"ĠSELF":9742,"Ġshaken":9743,"Ġevangelical":9744,"uming":9745,"umber":9746,"ĠHist":9747,"ĠHamlet":9748,"Ġintest":9749,"Ġpreocc":9750,"ĠChe":9751,"ĠCate":9752,"ĠCulture":9753,"ĠCirce":9754,"Ġmyths":9755,"ante":9756,"Ġperversion":9757,"Ġneur":9758,"Ġneck":9759,"ĠBÃ¢":9760,"rupted":9761,"Ġimitated":9762,"ĠOTH":9763,"ĠOUT":9764,"Ġwilleth":9765,"Ġcomment":9766,"Ġspit":9767,"Ġupro":9768,"Ġupward":9769,"ĠNAT":9770,"ĠNaz":9771,"Ġabused":9772,"Ġabrupt":9773,"Ġunp":9774,"Ġunit":9775,"Ġunse":9776,"aging":9777,"against":9778,"ĠPER":9779,"ĠPOS":9780,"Ġdismiss":9781,"Ġfaire":9782,"Ġratt":9783,"ounding":9784,"uded":9785,"Ġcontain":9786,"ĠLight":9787,"Ġindic":9788,"Ġindisc":9789,"Ġindicated":9790,"Ġlongs":9791,"ĠDist":9792,"ĠDanger":9793,"Ġconsol":9794,"Ġlikeness":9795,"Ġenge":9796,"Ġenables":9797,"Ġenfee":9798,"Ġresurrection":9799,"Ġplut":9800,"Ġforming":9801,"Ġimplicit":9802,"Ġspiritually":9803,"places":9804,"ologists":9805,"Ġapes":9806,"Ġcler":9807,"Ġgover":9808,"aching":9809,"Ġnewly":9810,"theism":9811,"Ġremedies":9812,"Ġdistances":9813,"Ġincur":9814,"Ġdecree":9815,"Ġdecrep":9816,"Ġrecourse":9817,"Ġbrass":9818,"olding":9819,"Ġcommerce":9820,"Ġhumanly":9821,"ĠJan":9822,"aws":9823,"Ġlasting":9824,"Ġenters":9825,"Ġserving":9826,"Ġrefresh":9827,"Ġtear":9828,"Ġprivation":9829,"Ġappar":9830,"Ġapplication":9831,"Ġcomposer":9832,"Ġsmoke":9833,"Ġmisc":9834,"Ġinsin":9835,"Ġinsult":9836,"Ġworkman":9837,"Ġgenerous":9838,"Ġscent":9839,"Ġscare":9840,"Ġbestowing":9841,"ocrats":9842,"Ġtransition":9843,"Ġstreet":9844,"Ġadvances":9845,"Ġindebted":9846,"Ġfrivol":9847,"Ġillusions":9848,"Ġconstruction":9849,"Ġrelate":9850,"bearing":9851,"Ġdivining":9852,"ĠUS":9853,"ggle":9854,"Ġdemons":9855,"ĠAsia":9856,"mitted":9857,"Ġeleg":9858,"Ġconceals":9859,"Ġbehaviour":9860,"Ġfoes":9861,"spring":9862,"Ġgiveth":9863,"present":9864,"Ġdownward":9865,"Ġdownfall":9866,"Ġdevote":9867,"Ġdevoid":9868,"orns":9869,"tingly":9870,"Ġwishing":9871,"Ġwrought":9872,"Ġlesser":9873,"Ġdespisers":9874,"Ġconvention":9875,"Ġsunny":9876,"Ġmarks":9877,"Ġoffers":9878,"unted":9879,"Ġsentences":9880,"Ġcoop":9881,"pendous":9882,"Ġcursed":9883,"Ġ183":9884,"Ġdivinely":9885,"Ġcapacities":9886,"Ġveins":9887,"Ġpunished":9888,"Ġinfluenced":9889,"Ġmomentary":9890,"Ġsilently":9891,"Ġproducing":9892,"ĠRegard":9893,"Ġcommunicate":9894,"Ġwaited":9895,"Ġ60":9896,"Ġsounded":9897,"Ġvisit":9898,"Ġterrifying":9899,"Ġverb":9900,"Ġdisposal":9901,"Ġbrand":9902,"Ġattempted":9903,"Ġservices":9904,"Ġriver":9905,"Ġsystemat":9906,"Ġascetics":9907,"Ġnights":9908,"max":9909,"Ġvolume":9910,"Ġsuspense":9911,"Ġdetermination":9912,"Ġdetermining":9913,"Ġslee":9914,"Ġopenly":9915,"Ġbrook":9916,"Ġmetaphysic":9917,"Ġforthwith":9918,"Ġhastily":9919,"Ġdestroys":9920,"ricate":9921,"Ġrespond":9922,"Ġoperation":9923,"Ġboundary":9924,"Ġbittere":9925,"Ġtyrants":9926,"ĠEnglishman":9927,"Ġlistener":9928,"ĠFrenchman":9929,"Ġthirsty":9930,"Ġnarr":9931,"ĠConf":9932,"time":9933,"ĠUnity":9934,"ĠXLI":9935,"Ġacceptance":9936,"Ġtesting":9937,"Ġsolved":9938,"Ġcarrying":9939,"uffering":9940,"Ġpoisoning":9941,"ĠBECOM":9942,"Ġmonth":9943,"Ġflying":9944,"Ġdecaying":9945,"Ġexpert":9946,"Ġroads":9947,"Ġseverely":9948,"Ġcalmly":9949,"Ġecstatic":9950,"Ġsuggests":9951,"Ġsuggestion":9952,"OSE":9953,"Ġmaintains":9954,"Ġrhyme":9955,"Ġapprehend":9956,"Ġvulgarity":9957,"Ġgazed":9958,"Ġbarbarian":9959,"Ġbarbarism":9960,"Ġbigots":9961,"Ġlustre":9962,"Ġfellowmen":9963,"class":9964,"Ġoptics":9965,"Ġethic":9966,"Ġselfcontrad":9967,"Ġintroduce":9968,"Ġintroduction":9969,"Ġresembles":9970,"Ġimpatiently":9971,"Ġloathsome":9972,"Ġtalents":9973,"Ġselected":9974,"Ġindulgence":9975,"Ġreflects":9976,"Ġreflected":9977,"Ġoccurred":9978,"Ġoccurrence":9979,"Ġbenefits":9980,"Ġenterpr":9981,"Ġtorrent":9982,"ĠSUB":9983,"Ġnonsens":9984,"Ġbetrayed":9985,"Ġfanatics":9986,"Ġloftier":9987,"Ġclimax":9988,"Ġhesitation":9989,"Ġhesitate":9990,"Ġrisen":9991,"Ġpursuit":9992,"Ġdrunk":9993,"Ġrebel":9994,"Ġcriticise":9995,"Ġrancour":9996,"Ġfifty":9997,"Ġwidely":9998,"Ġdamnation":9999,"Ġfaults":10000,"Ġconquerors":10001,"Ġsurvive":10002,"Ġexuberance":10003,"Ġeccentric":10004,"Ġanchorites":10005,"Ġimpels":10006,"ĠPRO":10007,"Ġpenetrate":10008,"Ġmaiden":10009,"ĠalltooHuman":10010,"Ġknee":10011,"Ġpreparatory":10012,"Ġpoisons":10013,"Ġflourish":10014,"Ġfascinating":10015,"ĠSPE":10016,"Ġpersistent":10017,"Ġexpedients":10018,"Ġferv":10019,"Ġdisclose":10020,"Ġprotracted":10021,"Ġphantoms":10022,"Ġundertake":10023,"ĠIdea":10024,"Ġarrogant":10025,"Ġfragments":10026,"Ġeloquent":10027,"Ġdrops":10028,"Ġunhealthy":10029,"Ġoverlooked":10030,"Ġimprovement":10031,"Ġspiritualisation":10032,"Ġsafety":10033,"Ġatheism":10034,"Ġjuxtap":10035,"Ġmalignant":10036,"Ġvirgin":10037,"ĠAthenian":10038,"ĠAthenians":10039,"Ġmultiplicity":10040,"Ġfostered":10041,"Ġstupe":10042,"Ġstupendous":10043,"Ġprojected":10044,"Ġennui":10045,"Ġconvalescent":10046,"ĠInstead":10047,"Ġinflicted":10048,"Ġdegradation":10049,"Ġbuffoon":10050,"ĠUnto":10051,"ĠIMP":10052,"Ġpredecessors":10053,"Ġlegends":10054,"ĠProvidence":10055,"Ġculmin":10056,"Ġsequence":10057,"Ġprolonged":10058,"Ġdisillusion":10059,"Ġneutra":10060,"Ġaggressive":10061,"Ġtrodden":10062,"Ġcomplicated":10063,"Ġtantamount":10064,"Ġdeceptive":10065,"Ġdisorder":10066,"Ġtranquil":10067,"Ġindescribable":10068,"Ġinconce":10069,"oteric":10070,"Ġaroused":10071,"Ġunavoid":10072,"Ġcleverest":10073,"Ġcorpses":10074,"Ġautobiography":10075,"Ġpredilection":10076,"ĠPEOPLE":10077,"Ġmathematic":10078,"Ġperpetrated":10079,"ĠOWN":10080,"Ġhistrionic":10081,"Ġmasquerade":10082,"Ġorac":10083,"Ġfiredog":10084,"Ġsculpt":10085,"Ġantidote":10086,"yrrho":10087,"Ġunconditionally":10088,"Ġludicrous":10089,"uneral":10090,"ĠÅĴdipus":10091,"Ġgidd":10092,"ĠAmeric":10093,"Ġdemeanour":10094,"Ġpreoccup":10095,"ĠBÃ¢le":10096,"Ġbitterest":10097,"'ve":10098,"CESS":10099,"EEL":10100,"GO":10101,"IDE":10102,"IFFER":10103,"Kingdom":10104,"LED":10105,"Man":10106,"PH":10107,"RON":10108,"TR":10109,"VEN":10110,"Well":10111,"ault":10112,"bow":10113,"bility":10114,"cheth":10115,"coloured":10116,"foot":10117,"give":10118,"gment":10119,"has":10120,"hical":10121,"ipe":10122,"ials":10123,"iber":10124,"iastic":10125,"lation":10126,"lock":10127,"might":10128,"minate":10129,"oge":10130,"ooth":10131,"pli":10132,"pes":10133,"pass":10134,"ras":10135,"sa":10136,"sis":10137,"tling":10138,"tles":10139,"unes":10140,"uits":10141,"willed":10142,"wisdom":10143,"xity":10144,"ximate":10145,"yse":10146,"za":10147,"Ãª":10148,"Î½":10149,"ĠâĢĵâĢĵ":10150,"Ġtig":10151,"liable":10152,"Ġwol":10153,"Ġwield":10154,"Ġsighed":10155,"Ġofficial":10156,"Ġmic":10157,"Ġmess":10158,"Ġmart":10159,"ench":10160,"enza":10161,"Ġbark":10162,"Ġbowed":10163,"Ġbait":10164,"Ġcit":10165,"Ġcling":10166,"Ġfis":10167,"Ġfought":10168,"Ġfuneral":10169,"Ġpp":10170,"Ġpant":10171,"Ġposes":10172,"Ġthresh":10173,"Ġthreate":10174,"Ġinhab":10175,"ana":10176,"anation":10177,"Ġtool":10178,"Ġdies":10179,"Ġdys":10180,"Ġdile":10181,"Ġdub":10182,"Ġdyn":10183,"ingers":10184,"leg":10185,"Ġisland":10186,"alter":10187,"asingly":10188,"Ġreven":10189,"Ġregener":10190,"Ġreprehensible":10191,"imes":10192,"imuli":10193,"Ġgild":10194,"Ġgains":10195,"Ġgames":10196,"Ġgrud":10197,"entive":10198,"cting":10199,"ĠTow":10200,"ĠTitan":10201,"Ġasketh":10202,"Ġaspiration":10203,"ĠIll":10204,"ĠIDE":10205,"Ġul":10206,"Ġhearers":10207,"Ġhearken":10208,"Ġlately":10209,"those":10210,"Ġante":10211,"Ġstam":10212,"Ġstimuli":10213,"Ġconven":10214,"Ġsuited":10215,"Ġallusion":10216,"ĠAW":10217,"Ġdeus":10218,"Ġdepl":10219,"rier":10220,"Ġsemblance":10221,"Ġseventh":10222,"Ġvap":10223,"Ġyonder":10224,"Ġaloud":10225,"Ġmanliness":10226,"tery":10227,"akest":10228,"amer":10229,"ammed":10230,"Ġorn":10231,"Ġdoeth":10232,"Ġkin":10233,"ĠGERM":10234,"ĠSpe":10235,"ĠScept":10236,"ĠSwe":10237,"ĠSimil":10238,"ĠSieg":10239,"Ġshif":10240,"Ġshattered":10241,"Ġevidently":10242,"ĠHa":10243,"ĠCent":10244,"ĠCreat":10245,"ĠCru":10246,"ĠCOULD":10247,"Ġperverted":10248,"Ġnether":10249,"ĠBl":10250,"ĠBrut":10251,"ĠBeware":10252,"ĠBetween":10253,"Ġpolic":10254,"Ġload":10255,"Ġloyal":10256,"Ġproving":10257,"empl":10258,"Ġsport":10259,"Ġupb":10260,"ivation":10261,"agli":10262,"ager":10263,"ĠPet":10264,"ĠPres":10265,"ĠProgress":10266,"ĠPyrrho":10267,"Ġusage":10268,"Ġchose":10269,"Ġchapter":10270,"Ġchallen":10271,"mentioned":10272,"ĠFl":10273,"ĠFEAR":10274,"ĠFEEL":10275,"Ġjun":10276,"ĠMat":10277,"ĠModern":10278,"Ġrust":10279,"Ġrotten":10280,"arts":10281,"Ġmorali":10282,"Ġsomeone":10283,"oreal":10284,"Ġtricks":10285,"Ġcontag":10286,"ĠLEAR":10287,"Ġphases":10288,"Ġamp":10289,"Ġoutrage":10290,"Ġindicate":10291,"ĠDost":10292,"ĠDav":10293,"ĠDIST":10294,"ĠDÃ¼":10295,"oking":10296,"ĠInter":10297,"ĠHeine":10298,"ĠWhom":10299,"eless":10300,"Ġcavern":10301,"Ġplans":10302,"Ġformation":10303,"Ġadul":10304,"ĠRitsch":10305,"abble":10306,"Ġselff":10307,"plac":10308,"Ġselfab":10309,"Ġselfknowledge":10310,"into":10311,"Ġclown":10312,"Ġtraged":10313,"Ġtrade":10314,"their":10315,"Ġreminisc":10316,"Ġthrows":10317,"oths":10318,"Ġsufficed":10319,"others":10320,"Ġbetwixt":10321,"Ġnecessities":10322,"Ġwherefore":10323,"Ġseeming":10324,"ĠJohn":10325,"ipot":10326,"iped":10327,"Ġawait":10328,"Ġuntruth":10329,"ĠTHEM":10330,"ĠTHEY":10331,"ifications":10332,"Ġentrance":10333,"teen":10334,"Ġrefuses":10335,"Ġextirp":10336,"Ġteacheth":10337,"Ġdiscoura":10338,"Ġappoint":10339,"Ġcomposition":10340,"Ġindividu":10341,"Ġreasonably":10342,"Ġinfl":10343,"Ġinfirm":10344,"Ġmisinterpre":10345,"Ġinsip":10346,"Ġbadness":10347,"Ġscript":10348,"Ġoriginality":10349,"Ġpaint":10350,"Ġgraves":10351,"Ġletting":10352,"Ġsinners":10353,"Ġbeliefs":10354,"Ġpleases":10355,"Ġpleasurable":10356,"ereth":10357,"Ġflower":10358,"Ġasses":10359,"Ġassurance":10360,"Ġguise":10361,"Ġadvisable":10362,"atics":10363,"INAL":10364,"Ġsurvey":10365,"Ġbackb":10366,"Ġbacks":10367,"Ġrepute":10368,"Ġrelating":10369,"ĠUP":10370,"Ġpsychical":10371,"Ġcorn":10372,"ĠBehold":10373,"Ġlawg":10374,"Ġlawbook":10375,"erring":10376,"Ġeffected":10377,"ĠSchle":10378,"asement":10379,"iah":10380,"Ġdownwards":10381,"litan":10382,"Ġdraught":10383,"Ġrested":10384,"Ġnorth":10385,"Ġ58":10386,"Ġ59":10387,"Ġuncommon":10388,"Ġimaginable":10389,"Ġdreamer":10390,"Ġspecie":10391,"Ġdefiance":10392,"Ġworthless":10393,"Ġfuller":10394,"Ġleader":10395,"Ġcrush":10396,"Ġcrisis":10397,"Ġdoubtless":10398,"Ġinterprets":10399,"Ġretrogress":10400,"lishes":10401,"Ġpropens":10402,"Ġpropositions":10403,"Ġaffords":10404,"Ġimportun":10405,"Ġrequirement":10406,"Ġcheap":10407,"OUT":10408,"Ġbelonging":10409,"issim":10410,"Ġexcuse":10411,"Ġcalam":10412,"Ġhyg":10413,"Ġidyl":10414,"aleth":10415,"Ġswim":10416,"Ġswift":10417,"Ġfavoured":10418,"Ġpathological":10419,"Ġmotto":10420,"cipline":10421,"ĠAlthough":10422,"ĠNobody":10423,"Ġnobles":10424,"Ġ62":10425,"Ġfamili":10426,"Ġacquaint":10427,"Ġdispute":10428,"Ġbrains":10429,"Ġbravest":10430,"Ġservile":10431,"Ġprovides":10432,"Ġprovince":10433,"Ġprovokes":10434,"ĠSuff":10435,"Ġmetaphor":10436,"Ġtempor":10437,"Ġdeceit":10438,"Ġexposition":10439,"Ġexposed":10440,"Ġslept":10441,"Ġdistinctness":10442,"Ġdistinctions":10443,"Ġrarest":10444,"Ġinvolve":10445,"Ġsuccessfully":10446,"hension":10447,"Ġassuming":10448,"Ġswept":10449,"Ġhorrors":10450,"ILD":10451,"ILITY":10452,"Ġdegenerating":10453,"Ġturneth":10454,"Ġmadhouse":10455,"Ġshameful":10456,"Ġsimiles":10457,"Ġdestroying":10458,"Ġpolice":10459,"Ġdissatisfaction":10460,"Ġheavily":10461,"Ġheaviest":10462,"Ã¦sthetic":10463,"Ġdominated":10464,"Ġhateful":10465,"Ġannoy":10466,"Ġgrandeur":10467,"Ġseparating":10468,"Ġrevolutions":10469,"ĠEnglishmen":10470,"Ġvaried":10471,"Ġvariations":10472,"Ġvarieties":10473,"Ġshades":10474,"Ġtransforming":10475,"Ġtreats":10476,"Ġtreatise":10477,"Ġgradual":10478,"ELL":10479,"Ġamounts":10480,"Ġcrossed":10481,"Ġsentimentality":10482,"Ġtortures":10483,"ĠPeter":10484,"Ġluc":10485,"Ġunfathom":10486,"ĠXL":10487,"Ġantitheses":10488,"Ġsucceeds":10489,"Ġelevating":10490,"Ġtested":10491,"Ġsolar":10492,"mped":10493,"Ġdiam":10494,"Ġglorification":10495,"Ġventures":10496,"Ġpresses":10497,"Ġpressed":10498,"Ġmultif":10499,"Ġperforming":10500,"Ġposthum":10501,"Ġembra":10502,"Ġembel":10503,"Ġexpectation":10504,"Ġimpressions":10505,"Ġdriving":10506,"Ġsceptic":10507,"Ġsceptical":10508,"Ġsceptics":10509,"Ġcivilised":10510,"Ġnaive":10511,"atching":10512,"Ġascribe":10513,"Ġperishing":10514,"Ġimprob":10515,"Ġimprov":10516,"Ġassociation":10517,"Ġforbids":10518,"Ġgentlemen":10519,"OLOG":10520,"Ġconsisted":10521,"Ġobeys":10522,"Ġbigot":10523,"Ġ1881":10524,"Ġ1886":10525,"Ġprincipally":10526,"Ġpositions":10527,"ĠÃł":10528,"Ġcourts":10529,"Ġhenceforward":10530,"Ġreduction":10531,"Ġflew":10532,"Ġastonishing":10533,"ĠQU":10534,"Ġtheretofore":10535,"Ġbenefactor":10536,"Ġlonesom":10537,"Ġdemonstration":10538,"Ġdemonstrate":10539,"Ġboldly":10540,"Ġpersuaded":10541,"Ġinvestigator":10542,"Ġurge":10543,"Ġurged":10544,"Ġsubmissive":10545,"ĠPreface":10546,"OPE":10547,"Ġpredest":10548,"Ġpredisp":10549,"ĠCONC":10550,"Ġendeavouring":10551,"UTY":10552,"glor":10553,"Ġyielding":10554,"tereth":10555,"Ġmildness":10556,"Ġreminds":10557,"Ġstopped":10558,"Ġprerequisites":10559,"Ġportent":10560,"Ġranks":10561,"Ġwelcome":10562,"Ġafflicted":10563,"Ġfantasy":10564,"ĠSche":10565,"uitous":10566,"Ġfilthy":10567,"Ġdefects":10568,"Ġspecim":10569,"Ġstretched":10570,"ĠdÃ©cadent":10571,"Ġthrone":10572,"Ġthroat":10573,"Ġsurmise":10574,"ĠSocialists":10575,"Ġdemoniac":10576,"Ġrevolutionary":10577,"Christianity":10578,"Ġhunting":10579,"Ġfascination":10580,"Ġguessed":10581,"ĠParisian":10582,"Ġcorresponds":10583,"ĠZARATHUSTRA":10584,"Ġenigmatical":10585,"Ġwantonness":10586,"Ġcosmic":10587,"Ġrejected":10588,"ĠÃĨschyle":10589,"Ġprodigious":10590,"Ġtouched":10591,"Ġunbelief":10592,"Ġselfex":10593,"Ġwarriors":10594,"Ġdwelleth":10595,"Ġpinions":10596,"Ġinscription":10597,"ĠART":10598,"Ġsoldiers":10599,"ĠBrahms":10600,"Ġoffended":10601,"ĠComedy":10602,"Ġpropaganda":10603,"Ġbinds":10604,"Ġstatue":10605,"Ġwithdrawn":10606,"ocritus":10607,"Ġimpoverishment":10608,"Ġrationality":10609,"Ġoverthrow":10610,"Ġoppression":10611,"ĠError":10612,"Ġoverwhelming":10613,"Ġnewspapers":10614,"Ġgruesome":10615,"Ġresolved":10616,"Ġhysterical":10617,"greg":10618,"Ġdeterioration":10619,"Ġinfliction":10620,"ĠBlessed":10621,"Ġdiscontent":10622,"Ġpenalty":10623,"Ġsquandered":10624,"Ġdischarged":10625,"Ġforsaken":10626,"Ġconversation":10627,"ĠCAUS":10628,"Ġadversary":10629,"Ġadornment":10630,"Ġswallow":10631,"SIBLE":10632,"Ġpermissible":10633,"Ġpoorer":10634,"Ġplanet":10635,"Ġimpris":10636,"Ġdiscoverer":10637,"ĠVictor":10638,"Ġflashes":10639,"Ġtedious":10640,"ĠGrecian":10641,"ĠSemitic":10642,"Ġgroups":10643,"Ġassuredly":10644,"Ġsatyric":10645,"Ġforcibly":10646,"Ġmendacious":10647,"Ġjoin":10648,"ĠVenice":10649,"Ġfluttering":10650,"Ġdivorced":10651,"Ġdialogue":10652,"ĠanÃ¦mic":10653,"rospective":10654,"Ġexpenditure":10655,"Ġintolerable":10656,"Ġdepravity":10657,"Ġrecipro":10658,"Ġexempli":10659,"ĠHorace":10660,"Ġproverb":10661,"ĠFRIEND":10662,"Ġamusement":10663,"ĠImperative":10664,"ĠBesides":10665,"Ġinexhaustible":10666,"Ġselfdiscipline":10667,"ĠHAPPINESS":10668,"Ġpantomime":10669,"Ġangels":10670,"opolitan":10671,"Ġabysmal":10672,"Ġplunge":10673,"Ġadherents":10674,"Ġdeclaration":10675,"ĠAutumn":10676,"Ġintestines":10677,"ĠCategorical":10678,"Ġplutocracy":10679,"Ġfrivolous":10680,"Ġthreshold":10681,"Ġthreatened":10682,"ĠSiegfried":10683,"ĠBrutus":10684,"Ġpolicy":10685,"Ġjuncture":10686,"ĠLEARN":10687,"ĠDavid":10688,"Ġidyllic":10689,"Ġtemporarily":10690,"AP":10691,"BOUR":10692,"COND":10693,"Dionys":10694,"IES":10695,"OST":10696,"RIT":10697,"SENT":10698,"bell":10699,"blind":10700,"co":10701,"eh":10702,"een":10703,"eys":10704,"ext":10705,"god":10706,"great":10707,"hind":10708,"ias":10709,"ione":10710,"ker":10711,"lain":10712,"lause":10713,"nor":10714,"nay":10715,"overs":10716,"ovation":10717,"pirit":10718,"post":10719,"rice":10720,"rating":10721,"ront":10722,"roud":10723,"ratum":10724,"sky":10725,"tur":10726,"tort":10727,"uf":10728,"worm":10729,"warf":10730,"yth":10731,"Î»":10732,"Ïģ":10733,"Ġtight":10734,"Ġtail":10735,"Ġtune":10736,"Ġtainted":10737,"liam":10738,"Ġaudi":10739,"Ġost":10740,"inage":10741,"inately":10742,"inrich":10743,"rem":10744,"rels":10745,"Ġwither":10746,"Ġwrecked":10747,"Ġsir":10748,"atical":10749,"atile":10750,"itous":10751,"itism":10752,"itants":10753,"Ġmix":10754,"enith":10755,"Ġcel":10756,"Ġcamp":10757,"Ġcattle":10758,"Ġfold":10759,"Ġfidelity":10760,"Ġpaying":10761,"Ġpushed":10762,"Ġinse":10763,"Ġinference":10764,"orge":10765,"organ":10766,"orget":10767,"anic":10768,"Ġtoil":10769,"oureth":10770,"Ġdar":10771,"Ġdivid":10772,"inging":10773,"icles":10774,"Ġegg":10775,"quished":10776,"lee":10777,"Ġnim":10778,"Ġwhip":10779,"lyss":10780,"Ġress":10781,"Ġrealism":10782,"Ġrelieve":10783,"Ġreliable":10784,"Ġgang":10785,"Ġglit":10786,"entious":10787,"uture":10788,"ĠTell":10789,"ĠIso":10790,"ĠImp":10791,"Ġheal":10792,"Ġforwards":10793,"Ġlain":10794,"Ġlured":10795,"Ġlands":10796,"Ġlavish":10797,"lde":10798,"things":10799,"Ġangel":10800,"Ġstore":10801,"Ġstren":10802,"child":10803,"Ġweigh":10804,"Ġconcili":10805,"Ġliars":10806,"Ġlift":10807,"istry":10808,"Ġsust":10809,"Ġsung":10810,"Ġdeities":10811,"Ġdealt":10812,"Ġdefici":10813,"ulously":10814,"estro":10815,"rolled":10816,"roken":10817,"Ġmeat":10818,"Ġvill":10819,"Ġvac":10820,"illy":10821,"ĠWil":10822,"ĠWomen":10823,"ĠWords":10824,"Ġyoke":10825,"Ġatav":10826,"genera":10827,"Ġmanaged":10828,"essing":10829,"Ġsoothing":10830,"ops":10831,"ĠGalian":10832,"ĠSur":10833,"ĠSils":10834,"Ġshock":10835,"ette":10836,"etaph":10837,"umann":10838,"ĠHind":10839,"ĠHerr":10840,"ĠHIST":10841,"ĠHush":10842,"Ġnoblem":10843,"Ġnoisy":10844,"Ġnostri":10845,"ĠCor":10846,"ĠCar":10847,"ĠCase":10848,"ĠCREAT":10849,"Ġperforce":10850,"access":10851,"reath":10852,"igne":10853,"ĠBer":10854,"ĠBiz":10855,"Ġloqu":10856,"ructed":10857,"ĠOVER":10858,"Ġarche":10859,"ĠNeed":10860,"Ġunst":10861,"Ġunass":10862,"ĠED":10863,"ĠEp":10864,"Ġleaps":10865,"Ġleadeth":10866,"ĠPain":10867,"ĠPort":10868,"ĠPASS":10869,"ĠThough":10870,"Ġdisaster":10871,"Ġchains":10872,"Ġchances":10873,"Ġchair":10874,"ĠFA":10875,"ĠFate":10876,"ĠFIR":10877,"ĠFancy":10878,"ĠFalse":10879,"ĠFurther":10880,"Ġjoke":10881,"Ġjourn":10882,"ĠMens":10883,"Ġfarew":10884,"Ġagitated":10885,"Ġrang":10886,"Ġrider":10887,"artistic":10888,"Ġcann":10889,"Ġinstructive":10890,"ĠLE":10891,"ĠLong":10892,"ĠLIV":10893,"Ġphase":10894,"Ġpeac":10895,"Ġindolence":10896,"Ġlonged":10897,"Ġquivering":10898,"ĠDon":10899,"ĠDoth":10900,"Ġactiv":10901,"Ġenfor":10902,"Ġspecul":10903,"ĠHel":10904,"ĠHeinrich":10905,"lievers":10906,"elve":10907,"Ġresour":10908,"Ġresolution":10909,"Ġcaves":10910,"Ġplough":10911,"Ġformal":10912,"Ġimpure":10913,"ĠRed":10914,"ĠRES":10915,"cesses":10916,"Ġaccomm":10917,"Ġsouth":10918,"Ġsails":10919,"Ġjustif":10920,"icted":10921,"Ġselfren":10922,"Ġselfglor":10923,"Ġracial":10924,"Ġregret":10925,"Ġendow":10926,"Ġtravell":10927,"thened":10928,"Ġremaineth":10929,"ĠTHINGS":10930,"ovement":10931,"were":10932,"weth":10933,"Ġhappier":10934,"Ġwells":10935,"Ġthoughtlessness":10936,"Ġappealed":10937,"Ġpartial":10938,"Ġrecovered":10939,"jection":10940,"Ġdiff":10941,"Ġseemingly":10942,"oyant":10943,"Ġempir":10944,"Ġblown":10945,"Ġbloss":10946,"Ġcharge":10947,"Ġcharity":10948,"Ġextend":10949,"Ġextended":10950,"Ġextensive":10951,"Ġtene":10952,"Ġinvents":10953,"ERY":10954,"ĠVi":10955,"ĠVOL":10956,"Ġwiser":10957,"tening":10958,"orses":10959,"Ġimmem":10960,"Ġimmodest":10961,"Ġdaylight":10962,"Ġsmiling":10963,"Ġsmiled":10964,"Ġsmooth":10965,"Ġinsolence":10966,"ĠThereupon":10967,"Ġlighter":10968,"Ġscope":10969,"Ġpainfully":10970,"ORS":10971,"sequent":10972,"Ġtransval":10973,"Ġtransmitted":10974,"Ġflu":10975,"Ġflames":10976,"Ġconfine":10977,"Ġconfined":10978,"Ġopens":10979,"Ġparce":10980,"INK":10981,"Ġreplies":10982,"Ġtaketh":10983,"Ġdivest":10984,"ĠUlyss":10985,"Ġacid":10986,"Ġfreer":10987,"Ġsignifies":10988,"Ġequity":10989,"Ġchildishness":10990,"Ġtriv":10991,"Ġdramat":10992,"Ġbelongeth":10993,"ĠDionysos":10994,"Ġrestore":10995,"Ġproblematic":10996,"Ġfearless":10997,"Ġutters":10998,"Ġimagines":10999,"Ġdreamed":11000,"ubb":11001,"Ġesoteric":11002,"Ġforeig":11003,"goism":11004,"ribly":11005,"Ġshell":11006,"Ġoffspring":11007,"Ġprominence":11008,"Ġdangerously":11009,"ĠNotes":11010,"Ġcoinc":11011,"ĠStates":11012,"Ġchecked":11013,"sthese":11014,"Ġpurer":11015,"ĠAns":11016,"Ġ184":11017,"Ġdivines":11018,"Ġvehem":11019,"Ġpunct":11020,"Ġexcited":11021,"Ġrevengefulness":11022,"Ġhymn":11023,"Ġcarri":11024,"Ġproducts":11025,"Ġcruell":11026,"Ġhelpful":11027,"Ġlanguages":11028,"Ġwaiteth":11029,"Ġrepresentatives":11030,"Ġ61":11031,"Ġ63":11032,"Ġ67":11033,"Ġvisions":11034,"Ġhopeless":11035,"Ġacquis":11036,"Ġdispensed":11037,"ICI":11038,"Ġnightw":11039,"Ġsurest":11040,"Ġcastration":11041,"Ġstrangely":11042,"EDY":11043,"Ġenjoyments":11044,"Ġvolcan":11045,"ertained":11046,"Ġhistoric":11047,"Ġhistorically":11048,"Ġ73":11049,"Ġskill":11050,"Ġskil":11051,"Ġundone":11052,"Ġherds":11053,"Ġherdsman":11054,"Ġselfcom":11055,"Ġairs":11056,"Ġsweep":11057,"Ġforgot":11058,"Ġvanish":11059,"Ġvanished":11060,"Ġwindow":11061,"Ġmystical":11062,"Ġdrawing":11063,"Ġboard":11064,"Ġastute":11065,"Ġboundless":11066,"Ġlaborious":11067,"ĠIndians":11068,"Ġepos":11069,"Ġepidem":11070,"Ġbarren":11071,"Ġestablishing":11072,"Ġextremes":11073,"Ġpreserves":11074,"ĠFrenchmen":11075,"Ġdistinguishing":11076,"Ġseduced":11077,"Ġperceives":11078,"Ġgloominess":11079,"Ġattacking":11080,"ĠConversely":11081,"Ġsacrificing":11082,"Ġfatherland":11083,"Ġtermin":11084,"ĠWHY":11085,"ĠProp":11086,"Ġmeeting":11087,"Ġcomforting":11088,"Ġmerc":11089,"Ġwrongly":11090,"athered":11091,"Ġhoping":11092,"Ġsteep":11093,"Ġunfair":11094,"Ġbrothers":11095,"Ġgrasping":11096,"Ġsweetest":11097,"IRD":11098,"Ġrepetition":11099,"Ġstudies":11100,"Ġguarded":11101,"Ġcontradicted":11102,"Ġthirdly":11103,"Ġdialectical":11104,"Ġindependently":11105,"Ġdivers":11106,"Ġdetect":11107,"Ġmonk":11108,"Ġauthorities":11109,"Ġcredulous":11110,"Ġmember":11111,"Ġpostulate":11112,"Ġfalsehoods":11113,"Ġdanceth":11114,"Ġsuperstitions":11115,"Ġdanced":11116,"Ġresentful":11117,"Ġsubstratum":11118,"Ġfemales":11119,"Ġcalmness":11120,"Ġera":11121,"Ġearnestly":11122,"Ġmaintaining":11123,"Ġsurprises":11124,"Ġsavi":11125,"Ġemploys":11126,"ĠLikewise":11127,"Ġcompanion":11128,"OLD":11129,"Ġstarts":11130,"Ġstarting":11131,"Ġobscurity":11132,"Ġbarbarous":11133,"Ġbarbarians":11134,"Ġconstrained":11135,"Ġprincipium":11136,"Ġresearch":11137,"Ġstimulated":11138,"ĠJudÃ¦":11139,"Ġcourteous":11140,"Ġwretchedness":11141,"ĠNEED":11142,"ĠNEIGH":11143,"Ġrobber":11144,"ĠĠĠĠĠĠĠĠĠĠĠĠĠĠĠĠĠĠĠĠĠĠ":11145,"Ġnarrowness":11146,"Ġunrest":11147,"Ġversus":11148,"Ġindulged":11149,"This":11150,"ucid":11151,"Ġtolerance":11152,"Ġdepressing":11153,"Ġbridges":11154,"Ġcontentment":11155,"Ġrepudiates":11156,"Ġmasked":11157,"Ġsnake":11158,"Ġrichest":11159,"Ġphilological":11160,"Ġtransfiguring":11161,"Ġyields":11162,"Ġassertions":11163,"Ġcleverness":11164,"Ġtongues":11165,"Ġsquare":11166,"Ġobtains":11167,"Ġirritation":11168,"Ġirritability":11169,"Ġsharply":11170,"Ġquarters":11171,"Ġportions":11172,"Ġdeprive":11173,"Ġprecision":11174,"Ġconjure":11175,"Ġaccompanied":11176,"yea":11177,"Ġedition":11178,"Ġtimidity":11179,"Ġreconcile":11180,"Ġsuspend":11181,"ĠSuppose":11182,"Ġrejoices":11183,"Ġvigour":11184,"Ġladen":11185,"ĠANT":11186,"Ġcomplain":11187,"Ġdefective":11188,"Ġemphatically":11189,"Ġacknowledging":11190,"Ġsenile":11191,"Ġcomprehensive":11192,"Ġinduced":11193,"Ġaccumulation":11194,"Ġtreasures":11195,"Ġprocreat":11196,"Ġfulfilled":11197,"Ġartifices":11198,"Ġrecommended":11199,"Ġsuperabundant":11200,"Ġidiotic":11201,"Ġfascinated":11202,"Ġabandon":11203,"Ġdishon":11204,"Ġromanticists":11205,"Ġreacting":11206,"ĠZe":11207,"Ġbewild":11208,"ĠGospel":11209,"Ġenigma":11210,"Ġtravelling":11211,"Ġdisclosed":11212,"Ġparasites":11213,"Ġexploit":11214,"Ġanticipate":11215,"Ġzenith":11216,"Ġgateway":11217,"Ġprecedes":11218,"Ġflattering":11219,"Ġpoems":11220,"ĠEdition":11221,"Ġselfev":11222,"Ġinvalids":11223,"Ġuncleanliness":11224,"Ġprompts":11225,"Ġinscribed":11226,"Ġdrove":11227,"ĠCOMP":11228,"Ġentertainment":11229,"Ġimmoralist":11230,"Ġtribun":11231,"Ġsubtlest":11232,"Ġaspires":11233,"ĠHAVE":11234,"Ġexclusive":11235,"Ġslip":11236,"Ġlatent":11237,"Ġpersecution":11238,"ĠTHEREFORE":11239,"Ġinsatiable":11240,"Ġeffemin":11241,"Ġnarcotics":11242,"Ġachievement":11243,"Ġbonds":11244,"Ġsteady":11245,"ĠATT":11246,"ĠImmor":11247,"Ġtormented":11248,"Ġemphasise":11249,"Ġmisleading":11250,"Ġhysteria":11251,"Ġinfected":11252,"Ġhalluc":11253,"Ġstamped":11254,"Ġcorporeal":11255,"Ġunwillingly":11256,"Ġlazy":11257,"ĠDemocritus":11258,"Ġobservations":11259,"Ġpoliteness":11260,"Ġboredom":11261,"ĠVIRTUE":11262,"Ġpulled":11263,"Ġweeping":11264,"Ġunreasonable":11265,"Ġhospit":11266,"Ġcasual":11267,"ĠSpeaks":11268,"Ġagitators":11269,"RESS":11270,"Ġcrawl":11271,"Ġfortunate":11272,"Ġfortunately":11273,"Ġpredominance":11274,"Ġballast":11275,"Ġpamph":11276,"Ġvivise":11277,"Ġsorely":11278,"Ġarticle":11279,"Ġrighteousness":11280,"Ġdisintegration":11281,"Ġvalley":11282,"Ġgovernment":11283,"Ġcrucify":11284,"Ġunspeakably":11285,"Ġprecaution":11286,"Ġarchitecture":11287,"Ġprosperity":11288,"Ġpangs":11289,"Ġhaughty":11290,"ĠSOUL":11291,"ĠMadame":11292,"Ġprofessional":11293,"Ġadministration":11294,"Ġadequate":11295,"Ġreprodu":11296,"ĠETERNITY":11297,"Ġdisbelief":11298,"Ġchristened":11299,"Ġscruples":11300,"Ġephemer":11301,"Ġvindictive":11302,"Ġunravel":11303,"Ġhumbug":11304,"Ġpriori":11305,"Ġchemical":11306,"ĠPrimordial":11307,"Ġinadequate":11308,"Ġglimpse":11309,"ĠSummer":11310,"Ġperilous":11311,"Ġpermeated":11312,"ĠEVERY":11313,"Ġdisreputable":11314,"Ġsubsist":11315,"Ġdistasteful":11316,"Ġearthquake":11317,"Ġshortsighted":11318,"ĠStrauss":11319,"ĠAristophanes":11320,"Ġinquiry":11321,"ĠTurin":11322,"Ġlambs":11323,"Ġdelusions":11324,"Ġenfeeble":11325,"Ġfervour":11326,"Ġjuxtaposition":11327,"Ġdisillusionment":11328,"Ġmicrosc":11329,"ĠRitschl":11330,"Ġselfforget":11331,"Ġinsipid":11332,"Ġbackbone":11333,"Ġunfathomable":11334,"Ġlonesomest":11335,"ĠÃĨschylean":11336,"Ġimprisoned":11337,"Dionysian":11338,"torture":11339,"ĠIsolde":11340,"ĠGaliani":11341,"etaphys":11342,"Ġnostrils":11343,"accessible":11344,"ĠBizet":11345,"ĠFIRST":11346,"Ġfarewell":11347,"Ġaccommod":11348,"ĠUlysses":11349,"Ġvehemence":11350,"ĠNEIGHBOUR":11351,"AB":11352,"APP":11353,"Do":11354,"Eur":11355,"Hell":11356,"St":11357,"VES":11358,"XIA":11359,"YS":11360,"aner":11361,"chen":11362,"ded":11363,"ders":11364,"eches":11365,"fy":11366,"fess":11367,"four":11368,"fies":11369,"fted":11370,"freedom":11371,"hring":11372,"iency":11373,"law":11374,"named":11375,"pow":11376,"pain":11377,"pity":11378,"pulch":11379,"salvation":11380,"tt":11381,"tw":11382,"ule":11383,"uzz":11384,"uccess":11385,"writ":11386,"warm":11387,"zt":11388,"liant":11389,"Ġaverse":11390,"heit":11391,"inces":11392,"inning":11393,"requ":11394,"reng":11395,"Ġwiz":11396,"Ġwiped":11397,"Ġsap":11398,"Ġserm":11399,"erating":11400,"attain":11401,"itor":11402,"itations":11403,"Ġmim":11404,"Ġmudd":11405,"only":11406,"onance":11407,"encing":11408,"Ġben":11409,"Ġband":11410,"Ġbree":11411,"Ġbade":11412,"Ġbash":11413,"Ġbapt":11414,"Ġcured":11415,"Ġcovered":11416,"Ġcode":11417,"Ġcourses":11418,"Ġfert":11419,"Ġfetter":11420,"Ġfumes":11421,"escend":11422,"Ġpays":11423,"Ġpace":11424,"Ġpane":11425,"Ġpaces":11426,"Ġinfection":11427,"Ġinsec":11428,"Ġinaccessible":11429,"ora":11430,"any":11431,"Ġtooth":11432,"Ġtower":11433,"Ġdas":11434,"Ġdain":11435,"Ġdate":11436,"Ġdrum":11437,"ste":11438,"sth":11439,"stones":11440,"lle":11441,"icists":11442,"arg":11443,"arance":11444,"arable":11445,"arism":11446,"Ġegreg":11447,"quest":11448,"aly":11449,"Ġnamed":11450,"cetic":11451,"Ġrend":11452,"Ġrect":11453,"Ġreaw":11454,"Ġreform":11455,"Ġrealises":11456,"imm":11457,"Ġgates":11458,"Ġgently":11459,"Ġgrop":11460,"Ġgiver":11461,"Ġgathered":11462,"uting":11463,"ĠTart":11464,"ĠTrue":11465,"Ġaspired":11466,"Ġasyl":11467,"Ġheels":11468,"Ġforfe":11469,"Ġlac":11470,"Ġlords":11471,"Ġlouder":11472,"urring":11473,"thiness":11474,"rained":11475,"Ġnoted":11476,"Ġster":11477,"Ġstif":11478,"Ġstult":11479,"Ġstub":11480,"Ġstability":11481,"Ġstored":11482,"Ġweb":11483,"odies":11484,"Ġwithstand":11485,"Ġliked":11486,"istem":11487,"istical":11488,"Ġsuit":11489,"ĠAmen":11490,"ĠArian":11491,"ĠArab":11492,"Ġsend":11493,"Ġseed":11494,"Ġseal":11495,"Ġsettle":11496,"ads":11497,"Ġves":11498,"Ġvulture":11499,"ĠWilling":11500,"Ġyaw":11501,"Ġals":11502,"Ġalliance":11503,"Ġmantle":11504,"akable":11505,"ifull":11506,"urely":11507,"amps":11508,"Ġsoaring":11509,"ophe":11510,"Ġknot":11511,"ĠGe":11512,"ĠSong":11513,"ĠSaw":11514,"ĠSabb":11515,"Ġshop":11516,"Ġshore":11517,"Ġshrie":11518,"Ġevild":11519,"eting":11520,"osom":11521,"ĠHonest":11522,"astrop":11523,"Ġnoon":11524,"Ġnoct":11525,"Ġprerog":11526,"Ġpreface":11527,"ĠCe":11528,"ĠCl":11529,"ĠComm":11530,"Ġperf":11531,"Ġperished":11532,"reated":11533,"Ġnest":11534,"igantic":11535,"ĠBac":11536,"ĠBack":11537,"Ġlovest":11538,"Ġlovable":11539,"Ġproli":11540,"ruption":11541,"Ġimb":11542,"ĠOcc":11543,"ĠOXIA":11544,"Ġarrest":11545,"Ġfeign":11546,"Ġspurious":11547,"ĠNU":11548,"ĠNa":11549,"ĠNone":11550,"ĠNice":11551,"Ġabom":11552,"Ġabortion":11553,"ĠunGerman":11554,"Ġunacc":11555,"ĠEach":11556,"ĠEUR":11557,"peror":11558,"ĠPfort":11559,"ĠPole":11560,"ĠPyth":11561,"ĠThings":11562,"Ġdisli":11563,"Ġdisregard":11564,"Ġchival":11565,"Ġchurches":11566,"ĠFar":11567,"ĠFundament":11568,"ĠFried":11569,"ĠFREE":11570,"ĠFriend":11571,"ĠFuture":11572,"Ġjest":11573,"ĠMist":11574,"ĠMess":11575,"ĠMag":11576,"ĠMel":11577,"ĠMep":11578,"ĠMoh":11579,"ĠMUS":11580,"ĠMasters":11581,"ĠMAKE":11582,"Ġagre":11583,"Ġrays":11584,"orem":11585,"oreans":11586,"ires":11587,"Ġcontext":11588,"ĠLI":11589,"ĠLiving":11590,"ĠLVII":11591,"ĠLAST":11592,"Ġphr":11593,"Ġamorous":11594,"ogues":11595,"Ġpeer":11596,"Ġoutset":11597,"Ġindolent":11598,"ĠDu":11599,"ĠDing":11600,"ĠDoric":11601,"ĠDANG":11602,"ĠDIFFER":11603,"asses":11604,"ĠHear":11605,"Ġower":11606,"Ġpowerless":11607,"Ġcaress":11608,"ocy":11609,"angible":11610,"Ġovers":11611,"Ġimposing":11612,"Ġphilanthrop":11613,"ĠRem":11614,"abilities":11615,"Ġsayings":11616,"unc":11617,"plete":11618,"Ġjustifying":11619,"vedig":11620,"Ġstray":11621,"Ġstrangers":11622,"hence":11623,"Ġgrotes":11624,"Ġselfish":11625,"Ġramp":11626,"Ġregions":11627,"Ġsubsequent":11628,"apses":11629,"Ġcouldst":11630,"Ġtrack":11631,"olly":11632,"ordered":11633,"ileth":11634,"thew":11635,"Ġremove":11636,"ĠTHY":11637,"Ġincitement":11638,"reading":11639,"Ġrecomp":11640,"Ġbetimes":11641,"perience":11642,"Ġheretic":11643,"Ġhereafter":11644,"ĠForgive":11645,"scribed":11646,"ĠJu":11647,"away":11648,"Ġawa":11649,"Ġembit":11650,"berg":11651,"Ġrefused":11652,"Ġrub":11653,"Ġrude":11654,"Ġconcent":11655,"Ġextingu":11656,"Ġfindeth":11657,"Ġdiscrim":11658,"Ġdiscovers":11659,"Ġprized":11660,"Ġintellectually":11661,"Ġsmug":11662,"Ġinflex":11663,"Ġtwist":11664,"Ġtwain":11665,"Ġhermit":11666,"Ġreligiously":11667,"Ġpersonalities":11668,"Ġworkmen":11669,"Ġinterp":11670,"Ġinterval":11671,"Ġgenerated":11672,"avour":11673,"Ġoriginator":11674,"Ġpainter":11675,"Ġpainted":11676,"Ġpainters":11677,"atively":11678,"Ġgravedig":11679,"Ġletters":11680,"ORT":11681,"Ġexpressing":11682,"Ġexpressly":11683,"Ġmightiest":11684,"Ġfollower":11685,"Ġflock":11686,"Ġstreets":11687,"Ġprofounder":11688,"Ġadvice":11689,"Ġwarmer":11690,"Ġwarrant":11691,"Ġslumber":11692,"Ġconfront":11693,"phic":11694,"Ġillt":11695,"Ġillwill":11696,"Ġclearer":11697,"Ġparody":11698,"Ġparallel":11699,"Ġviewing":11700,"Ġrepast":11701,"Ġrelent":11702,"Ġreluct":11703,"Ġgodly":11704,"beit":11705,"ĠUlt":11706,"Ġelucid":11707,"ĠBelief":11708,"Ġpsychologically":11709,"Ġsuperb":11710,"Ġbreasts":11711,"Ġbehaves":11712,"Ġbehalf":11713,"Ġobjectively":11714,"Ġrequis":11715,"Ġmastering":11716,"Ġstrengthened":11717,"ANK":11718,"ANITY":11719,"ANCES":11720,"Ġdoubly":11721,"Ġmoderns":11722,"ĠIslam":11723,"veloped":11724,"Ġdefine":11725,"Ġcontinuously":11726,"Ġcontinuance":11727,"Ġforerun":11728,"Ġpassionately":11729,"Ġfullness":11730,"dened":11731,"Ġsunset":11732,"Ġshel":11733,"Ġsheer":11734,"Ġexplore":11735,"Ġprominent":11736,"Ġcob":11737,"Ġcoff":11738,"ĠStu":11739,"ĠStrong":11740,"OUND":11741,"Ġcapric":11742,"Ġcapital":11743,"Ġpunishing":11744,"Ġrevell":11745,"Ġhybrid":11746,"Ġdelights":11747,"Ġterribly":11748,"Ġhelps":11749,"Ġpastime":11750,"Ġcommunal":11751,"Ġwriter":11752,"Ġconsiderate":11753,"Ġprima":11754,"Ġbursts":11755,"Ġprocession":11756,"ĠNowadays":11757,"Ġenjo":11758,"Ġphysiologist":11759,"Ġcamel":11760,"Ġapproaches":11761,"Ġapproxim":11762,"Ġapproximate":11763,"Ġ65":11764,"Ġsoundeth":11765,"Ġterrified":11766,"Ġgroweth":11767,"Ġhearty":11768,"Ġhabituated":11769,"Ġobserver":11770,"Ġdispose":11771,"Ġdispens":11772,"ICT":11773,"Ġcrave":11774,"Ġcrack":11775,"Ġcravings":11776,"Ġcounterm":11777,"Ġpopp":11778,"Ġfalleth":11779,"Ġcasting":11780,"worthiness":11781,"Ġtemples":11782,"ĠPericles":11783,"Ġslender":11784,"Ġsuccession":11785,"Ġselfconsciousness":11786,"Ġexceptionally":11787,"Ġmetaphysicians":11788,"Ġavow":11789,"ĠSeason":11790,"Ġhalcy":11791,"ĠantiChristian":11792,"Ġattainment":11793,"Ġpublicly":11794,"Ġprobability":11795,"Ġsitteth":11796,"Ġheaviness":11797,"Ġdevilry":11798,"ĠRomantic":11799,"Ġgrandm":11800,"OTH":11801,"Ġbooty":11802,"Ġ89":11803,"Ġastrol":11804,"ĠINTER":11805,"Ġevolve":11806,"Ġcoloured":11807,"Ġlabours":11808,"Ġ96":11809,"Ġcontemplativ":11810,"Ġepistem":11811,"link":11812,"Ġpreserving":11813,"Ġtransformations":11814,"ENTLY":11815,"Ġlibert":11816,"apping":11817,"Ġtreating":11818,"Ġgradations":11819,"cerity":11820,"Ġcompet":11821,"Ġblindly":11822,"Ġwonderfully":11823,"Ġlegal":11824,"Ġsacrificial":11825,"Ġdarker":11826,"Ġsleeping":11827,"Ġfragr":11828,"ĠWHICH":11829,"ĠPrologue":11830,"Ġcomforted":11831,"THAT":11832,"Ġmerch":11833,"Ġpoliticians":11834,"Ġ191":11835,"Ġobligations":11836,"Ġrooted":11837,"Ġelevates":11838,"Ġmedical":11839,"Ġmeditation":11840,"ĠHellene":11841,"Ġenthusiasts":11842,"Ġstrictest":11843,"ĠBEA":11844,"Ġpreparing":11845,"ĠPhil":11846,"Ġimpressed":11847,"Ġcontrasts":11848,"obedience":11849,"Ġresisted":11850,"ĠParad":11851,"Ġwearied":11852,"Ġseverest":11853,"Ġmajest":11854,"Ġencoun":11855,"Ġerotic":11856,"Ġangrily":11857,"Ġtranslate":11858,"Ġtrusting":11859,"Ġconsisting":11860,"Ġobscur":11861,"ĠREC":11862,"ĠRELIG":11863,"Ġfellowfeeling":11864,"cloud":11865,"Ġstimulating":11866,"Ġmothers":11867,"ĠĠĠĠĠĠĠĠĠĠĠĠĠĠĠĠĠĠĠĠĠĠĠĠ":11868,"Ġbuilds":11869,"Ġlaugheth":11870,"Ġhurry":11871,"fortunately":11872,"Ġspreading":11873,"Ġchooses":11874,"Ġpresupposition":11875,"Ġboldness":11876,"Ġfitting":11877,"Ġadmits":11878,"Ġslightly":11879,"Ġscornful":11880,"CHE":11881,"Ġblackest":11882,"Ġinferi":11883,"Ġcollected":11884,"Ġcollection":11885,"Ġstraightforward":11886,"Ġcalculation":11887,"Ġcalculate":11888,"Ġcivilizations":11889,"ĠSUCH":11890,"Ġestimation":11891,"Ġparadise":11892,"ĠMORALS":11893,"Ġpaternal":11894,"omania":11895,"ĠCHILD":11896,"ĠCHAP":11897,"Ġdescending":11898,"Ġdescended":11899,"animous":11900,"animity":11901,"Ġbrighter":11902,"ĠEmperor":11903,"Ġlevelling":11904,"Ġweights":11905,"Ġconjuring":11906,"Ġconjunction":11907,"Ġaccompany":11908,"Ġwealthy":11909,"ĠWouldst":11910,"Ġappropriation":11911,"Behold":11912,"whether":11913,"Ġvigor":11914,"Ġorgiastic":11915,"Ġdawns":11916,"Ġspoils":11917,"Ġcautiously":11918,"Ġregularly":11919,"Ġoccupation":11920,"Ġsuspected":11921,"histophe":11922,"ĠSTR":11923,"Ġovercame":11924,"Ġidiot":11925,"Ġidiocy":11926,"produ":11927,"Ġhints":11928,"Ġdepreciation":11929,"Ġpersistently":11930,"Ġsmells":11931,"Ġsuccumbed":11932,"inthians":11933,"impro":11934,"Ġcomprehended":11935,"Ġdeduced":11936,"Ġdisplayed":11937,"ĠDarwinism":11938,"Ġimpersonality":11939,"Ġzu":11940,"restrial":11941,"Ġsinking":11942,"Ġsighing":11943,"Ġfills":11944,"Ġfurnishes":11945,"Ġimparts":11946,"Ġimpartial":11947,"Ġcalumniated":11948,"Ġappreciated":11949,"Ġsusceptible":11950,"Ġunbearable":11951,"Ġafforded":11952,"CIENCE":11953,"Ġpronounce":11954,"ĠBrahm":11955,"Ġpompous":11956,"Ġdeemed":11957,"ĠSEE":11958,"Ġsynthetic":11959,"Ġcounterfeiting":11960,"exist":11961,"Ġmilli":11962,"Ġinitiated":11963,"Ġdictum":11964,"Ġimpoverished":11965,"Ġaccurate":11966,"ĠProtestant":11967,"Ġthinketh":11968,"Ġelimination":11969,"ĠRussia":11970,"Ġcultivation":11971,"Ġembodiment":11972,"Ġdwarfs":11973,"Ġdiminish":11974,"Ġdisappointment":11975,"Ġbreadth":11976,"alized":11977,"Ġeffeminate":11978,"Ġspecifically":11979,"Ġlurking":11980,"Ġvirile":11981,"Ġantipodes":11982,"chery":11983,"Ġpaganism":11984,"ĠOthers":11985,"Ġoutburst":11986,"Ġhallowed":11987,"Ġalarming":11988,"Ġdesideratum":11989,"Ġcorpse":11990,"Ġsorrows":11991,"Ġloudly":11992,"Ġlaziness":11993,"Ġundermine":11994,"Ġhumiliation":11995,"Ġindividuationis":11996,"Ġtempest":11997,"ĠSecondly":11998,"Ġconjecture":11999,"Ġapostle":12000,"Ġdiscernment":12001,"Ġfreethinkers":12002,"ĠUntil":12003,"Ġpunishments":12004,"Ġceremonies":12005,"Ġcovetous":12006,"Ġcovetousness":12007,"Ġfields":12008,"Ġdawned":12009,"ĠCRIT":12010,"Ġpolluted":12011,"Ġswallowed":12012,"Ġingenuousness":12013,"Ġexultation":12014,"Ġobtrusive":12015,"Ġrighteous":12016,"Ġutilitarian":12017,"Ġburdensome":12018,"Yea":12019,"Ġomnipot":12020,"Ġmalady":12021,"Ġintensity":12022,"Ġextinction":12023,"Ġtrifling":12024,"Ġinnovations":12025,"Ġmagnanimous":12026,"Ġmagnanimity":12027,"Ġalleviation":12028,"Ġdishonesty":12029,"ĠTeutons":12030,"xiom":12031,"ĠSouthern":12032,"ĠPuritan":12033,"Ġworldhistoric":12034,"Ġcommencement":12035,"Ġfulfilment":12036,"Ġcontrived":12037,"Ġprevalence":12038,"Ġvexation":12039,"Ġsketch":12040,"Ġpositiv":12041,"Ġalcohol":12042,"Ġwholesome":12043,"ĠHIGHER":12044,"Ġunusual":12045,"Ġsuperficiality":12046,"Ġunconqu":12047,"Ġconvulsions":12048,"Ġprovisional":12049,"Ġelaborate":12050,"ĠHugo":12051,"agoras":12052,"ĠFranc":12053,"ĠFourth":12054,"Ġobsess":12055,"ĠLeibnitz":12056,"Ġá¼":12057,"Ġfierce":12058,"Ġdrowned":12059,"because":12060,"Ġunintelligible":12061,"Ġcardinal":12062,"struggle":12063,"Ġrelieved":12064,"ĠCheer":12065,"Ġindications":12066,"Ġconsolations":12067,"ĠJanuary":12068,"Ġselfcontradiction":12069,"Ġnonsensical":12070,"mighty":12071,"Ġcitiz":12072,"ĠTowards":12073,"Ġulterior":12074,"Ġanteced":12075,"Ġornament":12076,"emplation":12077,"Ġupbraid":12078,"ĠMatthew":12079,"Ġretrogression":12080,"Ġfamilies":12081,"Ġportentous":12082,"Ġaudience":12083,"Ġcelest":12084,"Ġressentiment":12085,"Ġimmemorial":12086,"Ġtrivial":12087,"ĠAnswer":12088,"Ġcarrieth":12089,"Ġselfcomplac":12090,"Ġselfevident":12091,"Ġephemeral":12092,"Ġenfeeblement":12093,"Ġselfforgetfulness":12094,"Ġwizard":12095,"attainable":12096,"Ġasylum":12097,"Ġstubborn":12098,"ifully":12099,"ĠEUROPE":12100,"ĠPforta":12101,"ĠFriedrich":12102,"ĠMephistophe":12103,"ĠMohammed":12104,"ĠMUSIC":12105,"ĠDANGER":12106,"Ġgrotesque":12107,"Ġcontemplativa":12108,"ĠCHAPTER":12109,"Ah":12110,"Apoll":12111,"FACE":12112,"Gree":12113,"Here":12114,"KE":12115,"Life":12116,"Nietzsche":12117,"OV":12118,"PECT":12119,"SCHE":12120,"TO":12121,"TY":12122,"TLE":12123,"UB":12124,"UCH":12125,"UDE":12126,"Wh":12127,"ZSCHE":12128,"aur":12129,"bo":12130,"bless":12131,"cat":12132,"cence":12133,"cers":12134,"cons":12135,"dict":12136,"ez":12137,"ees":12138,"eep":12139,"fest":12140,"flu":12141,"faction":12142,"faced":12143,"gest":12144,"gust":12145,"gred":12146,"iating":12147,"iative":12148,"iatic":12149,"iÃ¦":12150,"mot":12151,"mest":12152,"mali":12153,"mell":12154,"masters":12155,"ober":12156,"oiew":12157,"oof":12158,"oners":12159,"pter":12160,"riction":12161,"sl":12162,"sal":12163,"specially":12164,"test":12165,"uating":12166,"va":12167,"voc":12168,"vah":12169,"vangelical":12170,"wit":12171,"word":12172,"wrecked":12173,"you":12174,"Ã¹":12175,"ÏĢ":12176,"ÏĦ":12177,"ÏĮ":12178,"liament":12179,"Ġay":12180,"Ġaxiom":12181,"Ġomit":12182,"inx":12183,"inities":12184,"inketh":12185,"rene":12186,"reak":12187,"Ġwider":12188,"Ġsie":12189,"atig":12190,"athed":12191,"atry":12192,"ita":12193,"itans":12194,"Ġmaste":12195,"Ġmourn":12196,"Ġmixture":12197,"oning":12198,"enic":12199,"enjoy":12200,"Ġbred":12201,"Ġbath":12202,"Ġhills":12203,"Ġhorses":12204,"Ġcher":12205,"Ġcess":12206,"Ġcand":12207,"Ġcock":12208,"ĠcÅĵ":12209,"Ġcyc":12210,"Ġfictions":12211,"esy":12212,"Ġplight":12213,"Ġpair":12214,"Ġthawing":12215,"Ġinoc":12216,"Ġinformation":12217,"Ġingred":12218,"orish":12219,"Ġtoils":12220,"Ġdirt":12221,"Ġdress":12222,"Ġdirty":12223,"stal":12224,"stell":12225,"lleth":12226,"edly":12227,"icial":12228,"ariousness":12229,"Ġein":12230,"Ġbea":12231,"Ġbeer":12232,"Ġbeam":12233,"Ġbefall":12234,"seud":12235,"sets":12236,"Ġnur":12237,"Ġnich":12238,"Ġwhim":12239,"Ġitthe":12240,"Ġitthat":12241,"cene":12242,"ceasingly":12243,"Ġrear":12244,"Ġrept":12245,"Ġrenow":12246,"Ġrealist":12247,"Ġrealistic":12248,"Ġrecesses":12249,"imum":12250,"Ġgri":12251,"Ġgigantic":12252,"utest":12253,"utsch":12254,"ĠTill":12255,"ĠTann":12256,"ĠTables":12257,"ĠTime":12258,"ĠTAU":12259,"Ġasunder":12260,"Ġlen":12261,"Ġles":12262,"Ġlures":12263,"Ġlapse":12264,"Ġlongeth":12265,"Ġhaven":12266,"Ġhaunt":12267,"thought":12268,"through":12269,"Ġanon":12270,"Ġsty":12271,"Ġstation":12272,"Ġstock":12273,"Ġstairs":12274,"chback":12275,"chpot":12276,"Ġwept":12277,"Ġweird":12278,"Ġconvey":12279,"Ġwithal":12280,"Ġlink":12281,"isters":12282,"Ġallured":12283,"ĠAct":12284,"ĠAge":12285,"ĠACT":12286,"ĠAbs":12287,"ĠAryan":12288,"ĠAtheism":12289,"Ġdei":12290,"Ġdegenera":12291,"people":12292,"peneth":12293,"Ġmole":12294,"rops":12295,"Ġsects":12296,"Ġsepulch":12297,"Ġserene":12298,"Ġexquis":12299,"adem":12300,"Ġvine":12301,"Ġvib":12302,"illes":12303,"Ġatone":12304,"Ġaloof":12305,"gelian":12306,"Ġmanand":12307,"Ġmania":12308,"ifix":12309,"user":12310,"usheth":12311,"usiveness":12312,"Ġwhosoever":12313,"amfort":12314,"civ":12315,"Ġorthod":12316,"Ġsoj":12317,"opard":12318,"Ġworry":12319,"Ġhimand":12320,"Ġbye":12321,"ĠGra":12322,"ĠGRA":12323,"ĠGener":12324,"ĠSin":12325,"ĠSud":12326,"ĠSoul":12327,"ĠSONG":12328,"ĠSIGN":12329,"ĠSurely":12330,"Ġshri":12331,"Ġshudd":12332,"Ġshield":12333,"Ġshoot":12334,"Ġshroud":12335,"alia":12336,"Ġwash":12337,"eties":12338,"umped":12339,"ĠHard":12340,"ĠHER":12341,"ĠHON":12342,"Ġnond":12343,"Ġprelude":12344,"ĠCa":12345,"ĠCf":12346,"ĠCle":12347,"ĠCal":12348,"ĠConsciousness":12349,"ptions":12350,"anta":12351,"anthe":12352,"Ġpervers":12353,"Ġperverse":12354,"aculate":12355,"igs":12356,"ppers":12357,"ineth":12358,"ĠBY":12359,"ĠBach":12360,"ĠBorg":12361,"athat":12362,"ĠOeh":12363,"Ġcomic":12364,"Ġcompressed":12365,"Ġfeed":12366,"ideal":12367,"Ġupside":12368,"Ġabort":12369,"Ġunut":12370,"Ġunch":12371,"Ġunhes":12372,"Ġunpo":12373,"Ġunattainable":12374,"Ġunceasingly":12375,"ĠEither":12376,"Ġleech":12377,"Ġleaving":12378,"agering":12379,"Ġbeck":12380,"augh":12381,"ĠPle":12382,"ĠPal":12383,"ĠPope":12384,"ĠPagan":12385,"ĠThanks":12386,"Ġdisown":12387,"Ġdisfig":12388,"Ġdismal":12389,"Ġchan":12390,"Ġchaste":12391,"Ġchristian":12392,"ĠFra":12393,"ĠFie":12394,"ĠFortun":12395,"ĠFlau":12396,"ĠFINAL":12397,"Ġhowl":12398,"Ġhowling":12399,"ĠMa":12400,"ĠMir":12401,"ĠMith":12402,"ĠMil":12403,"ĠMont":12404,"ĠMOD":12405,"ĠMUCH":12406,"Ġfaci":12407,"ameth":12408,"Ġagent":12409,"Ġagency":12410,"Ġagitation":12411,"Ġrings":12412,"Ġrhaps":12413,"arting":12414,"Ġmostly":12415,"sof":12416,"ĠChar":12417,"ĠChamfort":12418,"Ġprinted":12419,"Ġcontents":12420,"Ġcontention":12421,"ĠLA":12422,"ĠLou":12423,"ĠLack":12424,"ĠLift":12425,"ĠLaugh":12426,"Ġample":12427,"Ġoutlet":12428,"Ġqui":12429,"ondri":12430,"ilist":12431,"ĠDes":12432,"ĠDie":12433,"ĠDisc":12434,"ĠDesp":12435,"ĠDithyramb":12436,"ĠDutch":12437,"ĠDante":12438,"Ġactuality":12439,"Ġconspir":12440,"assed":12441,"ĠInc":12442,"ĠItaly":12443,"Ġspend":12444,"Ġunderlying":12445,"iene":12446,"Ġresigned":12447,"Ġcapture":12448,"ocus":12449,"angling":12450,"Ġplag":12451,"Ġplaus":12452,"ermorality":12453,"Ġobedient":12454,"Ġimpass":12455,"Ġimprud":12456,"Ġstillest":12457,"ĠRight":12458,"ĠRep":12459,"ĠRIGHT":12460,"about":12461,"Ġfirstlings":12462,"arsight":12463,"plom":12464,"ensitive":12465,"Ġstrata":12466,"Ġgran":12467,"Ġgras":12468,"Ġselfaff":12469,"Ġselflove":12470,"Ġrailing":12471,"Ġraging":12472,"Ġclair":12473,"Ġclothes":12474,"ountered":12475,"Ġatten":12476,"righte":12477,"Ġtraff":12478,"Ġtracks":12479,"Ġremarks":12480,"Ġthinkest":12481,"Ġthrowing":12482,"ĠTHOSE":12483,"ĠTHINK":12484,"Ġincomp":12485,"Ġdecides":12486,"Ġsyn":12487,"Ġbrute":12488,"Ġbrayed":12489,"Ġcondescend":12490,"Ġcommences":12491,"ĠJune":12492,"Ġemaci":12493,"cedented":12494,"Ġuntrue":12495,"Ġfarce":12496,"Ġblust":12497,"Ġblond":12498,"Ġcharitable":12499,"Ġrope":12500,"Ġprize":12501,"ĠVor":12502,"ĠVirt":12503,"ĠVanity":12504,"Ġcompose":12505,"Ġcompuls":12506,"nothing":12507,"Ġglaring":12508,"Ġinfat":12509,"Ġinflated":12510,"Ġinsolent":12511,"Ġtwelve":12512,"Ġworked":12513,"Ġscre":12514,"Ġscra":12515,"Ġscoff":12516,"Ġscattered":12517,"Ġorigins":12518,"Ġpurification":12519,"Ġpurify":12520,"Ġsincerity":12521,"Ġexpressive":12522,"Ġflux":12523,"Ġassign":12524,"Ġassigned":12525,"Ġguid":12526,"Ġguides":12527,"Ġwarn":12528,"Ġslain":12529,"Ġconfer":12530,"phony":12531,"Ġillconstituted":12532,"Ġcleave":12533,"Ġparables":12534,"Ġsocialism":12535,"Ġsensibility":12536,"beautiful":12537,"Ġcharacterises":12538,"Ġequivocal":12539,"mities":12540,"Ġpossessions":12541,"Ġconceives":12542,"Ġconcealing":12543,"ĠSchumann":12544,"Ġrequiring":12545,"Ġexamined":12546,"Ġfinished":12547,"Ġlaud":12548,"litude":12549,"Ġdrew":12550,"Ġdregs":12551,"Ġrestrain":12552,"Ġusefulness":12553,"ENESS":12554,"ĠAttic":12555,"Ġconsciously":12556,"Ġimagining":12557,"Ġjoyfully":12558,"Ġforet":12559,"Ġforesight":12560,"Ġworthlessness":12561,"Ġclassification":12562,"Ġfullest":12563,"Ġdespicable":12564,"luck":12565,"nemy":12566,"Ġoffice":12567,"Ġcrushed":12568,"henomenon":12569,"Ġretali":12570,"Ġretained":12571,"Ġretrog":12572,"Ġcoord":12573,"Ġrecognising":12574,"Ġrecognize":12575,"ĠStrange":12576,"Ġphenomenal":12577,"OURA":12578,"atio":12579,"ĠAnim":12580,"Ġ185":12581,"Ġ189":12582,"Ġcaprice":12583,"Ġveils":12584,"Ġcausation":12585,"Ġbeneficial":12586,"ARRI":12587,"Ġswind":12588,"Ġswarm":12589,"Ġswamps":12590,"Ġplaything":12591,"Ġplayful":12592,"Ġgreed":12593,"Ġbuy":12594,"Ġcreed":12595,"Ġcrept":12596,"Ġmasterpiece":12597,"Ġbloody":12598,"Ġrepresentations":12599,"ETZSCHE":12600,"Ġ64":12601,"Ġ66":12602,"Ġ68":12603,"Ġ69":12604,"Ġmidday":12605,"ĠApost":12606,"Ġtresp":12607,"Ġobserves":12608,"Ġnumbers":12609,"Ġvert":12610,"Ġtended":12611,"Ġcircumscribed":12612,"Ġinjures":12613,"Ġinjuring":12614,"Ġinjuries":12615,"Ġattempting":12616,"Ġsystematic":12617,"Ġcounts":12618,"Ġimperious":12619,"Ġadding":12620,"grat":12621,"Ġstrangeness":12622,"Ġorganising":12623,"Ġ70":12624,"Ġ71":12625,"Ġ72":12626,"Ġ74":12627,"Ġ75":12628,"Ġ77":12629,"Ġ78":12630,"Ġexpand":12631,"Ġexpensive":12632,"gyrist":12633,"Ġspectacles":12634,"Ġdogmatic":12635,"Ġherding":12636,"Ġmelodies":12637,"Ġcommander":12638,"Ġwisely":12639,"Ġattainable":12640,"ulin":12641,"Ġstatesmen":12642,"Ġwitch":12643,"Ġwitches":12644,"ĠNihilists":12645,"Ġvanishes":12646,"Ġvanquished":12647,"Ġdissu":12648,"Ġdissonance":12649,"Ġwindows":12650,"Ġcounterarg":12651,"Ġfateful":12652,"Ġdeadening":12653,"Ġgrandchild":12654,"Ġoperated":12655,"Ġoperatic":12656,"ĠAround":12657,"Ġfanatical":12658,"ĠTOWARDS":12659,"Ġcolor":12660,"Ġlabor":12661,"Ġseparation":12662,"Ġ99":12663,"anny":12664,"Ġeducating":12665,"Ġadvantageous":12666,"ĠÃ¦sthetes":12667,"Ġbreathing":12668,"Ġexerted":12669,"Ġ103":12670,"Ġ107":12671,"Ġignom":12672,"Ġexacted":12673,"Ġextremest":12674,"Ġvarieg":12675,"Ġneglig":12676,"Ġtrades":12677,"Ġtraditions":12678,"Ġliberation":12679,"Ġliberality":12680,"Ġgratified":12681,"They":12682,"appre":12683,"Ġhundreds":12684,"Ġaristocrats":12685,"Ġdescribes":12686,"Ġlegit":12687,"Ġallowable":12688,"piring":12689,"Ġexcesses":12690,"Ġtermed":12691,"OWN":12692,"Ġfigur":12693,"ĠProblem":12694,"ĠProfound":12695,"Ġabsurdly":12696,"Ġclaimed":12697,"IGIN":12698,"Ġdepended":12699,"Ġtests":12700,"Ġsolve":12701,"Ġdesirous":12702,"Ġdesirability":12703,"Ġdiverse":12704,"Ġglorified":12705,"Ġutterances":12706,"Ġdetached":12707,"Ġsuffereth":12708,"Ġsaintly":12709,"ĠArtists":12710,"ISTIC":12711,"Ġmarriagering":12712,"Ġpitiless":12713,"Ġdisguises":12714,"Ġdisciplin":12715,"Ġextraordinarily":12716,"Ġascent":12717,"Ġpretentious":12718,"Ġencro":12719,"Ġencountered":12720,"Ġminority":12721,"Ġunsatisfied":12722,"Ġabstinence":12723,"ĠJesuit":12724,"Ġgazes":12725,"Ġstarted":12726,"Ġconsistent":12727,"Ġselfsame":12728,"Ġwandered":12729,"Ġmisfortunes":12730,"Ġrendering":12731,"Ġemancipator":12732,"Ġintentional":12733,"Ġslavemorality":12734,"Ġspreads":12735,"Ġchoosing":12736,"Ġadventures":12737,"Ġmateri":12738,"Ġfitness":12739,"Ġtolerant":12740,"Ġinvestigations":12741,"Ġbridged":12742,"Ġadvancement":12743,"Ġsanctify":12744,"Ġindisputable":12745,"Ġdeserts":12746,"Ġgladness":12747,"Ġinferred":12748,"Ġdelay":12749,"Ġestimated":12750,"ĠVoluptuous":12751,"Ġdeparture":12752,"Ġpatron":12753,"Ġdefends":12754,"Ġdefending":12755,"Ġtransfigure":12756,"hovah":12757,"Ġbanish":12758,"Ġcliff":12759,"animal":12760,"Ġsquint":12761,"Ġmilder":12762,"Ġobtaining":12763,"Ġirritable":12764,"Ġdisturbed":12765,"Ġfamiliarity":12766,"Ġships":12767,"Ġshipwrecked":12768,"Ġchiefly":12769,"Ġesteemed":12770,"Ġsolemnly":12771,"Ġexplaining":12772,"Ġvenerated":12773,"ĠAbout":12774,"pochondri":12775,"Ġappropriated":12776,"Ġrhythmical":12777,"Ġrefinements":12778,"Ġfellowsuffering":12779,"Ġpicturesque":12780,"ĠITSELF":12781,"Ġdebau":12782,"Ġhomes":12783,"Ġhomage":12784,"Ġthreaten":12785,"Ġenchanted":12786,"Ġenchanting":12787,"AME":12788,"ambers":12789,"Ġconscientiousness":12790,"Ġprofessors":12791,"Ġsymbolical":12792,"ĠSociety":12793,"pieces":12794,"something":12795,"Ġwhispered":12796,"Ġimpelled":12797,"ĠPREFACE":12798,"Ġbrutality":12799,"Ġsixth":12800,"Ġalltoohuman":12801,"Ġshutting":12802,"Ġgardens":12803,"Ġdeprec":12804,"ĠPhilosophers":12805,"Ġromanticist":12806,"Ġhotchpot":12807,"ĠSophists":12808,"Ġorganisms":12809,"Ġcorresponding":12810,"Ġdisturbance":12811,"Ġheredity":12812,"Ġenigmas":12813,"Ġexploited":12814,"Ġaweinspiring":12815,"Ġcosmos":12816,"Ġcosmopolitan":12817,"Ġthrills":12818,"Ġpreceded":12819,"Ġundertaking":12820,"Ġundertaken":12821,"Ġcalumny":12822,"ĠAdm":12823,"Ġleaping":12824,"Ġfragment":12825,"Ġfragile":12826,"Ġdwells":12827,"Ġredeeming":12828,"ĠSECOND":12829,"ĠComte":12830,"Ġinitiative":12831,"Ġdictated":12832,"Ġstatues":12833,"Ġindustrious":12834,"Ġimpotent":12835,"Ġsubtler":12836,"ĠReligious":12837,"Ġeliminate":12838,"ĠWhenever":12839,"ĠConscience":12840,"ĠConsider":12841,"Ġoppressive":12842,"Ġcultivated":12843,"Ġdiminution":12844,"Ġdisappointed":12845,"Ġdisappointments":12846,"SEQU":12847,"seeking":12848,"Ġmuscular":12849,"Ġpatriotic":12850,"Ġwager":12851,"Ġcatastrop":12852,"Ġfrost":12853,"Ġgrunt":12854,"ĠOtherwise":12855,"ĠKNOWLED":12856,"Ġidleness":12857,"zza":12858,"ĠInstinct":12859,"Ġdegraded":12860,"Ġwhispering":12861,"eyed":12862,"Ġsorce":12863,"Ġdesperation":12864,"Ġtransparent":12865,"Ġsupplement":12866,"Ġsincerely":12867,"Ġsurmounted":12868,"ĠVIRTUES":12869,"Ġfounders":12870,"Ġdiscontented":12871,"Ġfreethinker":12872,"Ġcraftiness":12873,"ativo":12874,"Ġgaiety":12875,"Ġungrate":12876,"Ġsolidarity":12877,"ĠCompared":12878,"Ġindigestion":12879,"Ġadversaries":12880,"Ġrecoil":12881,"Ġasserts":12882,"Ġpredominant":12883,"Ġpermission":12884,"Ġpoorest":12885,"Ġdisparage":12886,"Ġarticles":12887,"Ġdiscoverers":12888,"Ġcripples":12889,"rangement":12890,"Ġsectarian":12891,"Ġvalleys":12892,"Ġunquestion":12893,"Ġengaged":12894,"Ġsubjugated":12895,"Ġcomparatively":12896,"Ġunspeakable":12897,"Ġprecautions":12898,"Ġdepreciate":12899,"Ġparalysed":12900,"Ġicy":12901,"Ġtiresome":12902,"Ġbiology":12903,"Ġbiological":12904,"Ġhunchback":12905,"Ġunprecedented":12906,"Ġresolutely":12907,"Ġrelaxation":12908,"Ġvenomous":12909,"Ġintermediate":12910,"ĠEgyptian":12911,"picture":12912,"Ġexhort":12913,"Ġdocument":12914,"ĠORIGIN":12915,"Ġappetite":12916,"Ġassimilation":12917,"Ġrestraint":12918,"Ġencouragement":12919,"Ġprohibited":12920,"Ġstrengthening":12921,"Ġhypocrites":12922,"Ġlegislat":12923,"Ġlandscape":12924,"Ġirresponsibility":12925,"Ġexclaimed":12926,"guard":12927,"Ġtarantula":12928,"Ġwalks":12929,"Ġconceded":12930,"ĠNIHIL":12931,"Ġjubilation":12932,"Ġruthlessly":12933,"Ġenhance":12934,"Ġobliter":12935,"ĠJehovah":12936,"Ġantinatural":12937,"Ġvehemently":12938,"Ġunheardof":12939,"Ġepileptic":12940,"Ġaugment":12941,"Ġseducer":12942,"Ġmitig":12943,"Ġordered":12944,"Ġpreeminence":12945,"Ġabolished":12946,"Ġphantasm":12947,"Ġsuffocated":12948,"Ġsimplest":12949,"Ġindefatig":12950,"ĠAttempt":12951,"ĠPharisees":12952,"Ġmurderer":12953,"Ġbulw":12954,"Ġincessantly":12955,"ĠPOSSIBLE":12956,"ĠRegarded":12957,"Ġneutrality":12958,"Ġinconceivable":12959,"Ġmathematics":12960,"Ġinhabitants":12961,"Ġdyspe":12962,"Ġdilett":12963,"Ġgilded":12964,"Ġgrudge":12965,"ĠSweet":12966,"Ġadultery":12967,"Ġpropensity":12968,"Ġhygiene":12969,"Ġimprobable":12970,"Ġpredestined":12971,"ioneers":12972,"Ġnimble":12973,"Ġstrenuous":12974,"Ġatavism":12975,"Ġselfrenunciation":12976,"Ġselfglorification":12977,"ĠProposition":12978,"Ġsuspended":12979,"ĠImmoralist":12980,"Europe":12981,"Ġsapient":12982,"Ġsermon":12983,"Ġpanegyrist":12984,"Ġegregious":12985,"Ġvessel":12986,"Ġrelentless":12987,"Ġcobwe":12988,"ĠStuart":12989,"Ġcapricious":12990,"Ġcountermovement":12991,"Ġgrandmother":12992,"ĠBEAUTY":12993,"ĠParadise":12994,"ĠBrahmins":12995,"ĠCRITICISM":12996,"ĠFrancis":12997,"Ġcitizen":12998,"Apollonian":12999,"oiewsky":13000,"stellung":13001,"ĠAbsolute":13002,"Ġdegeneracy":13003,"Ġsepulchres":13004,"Ġexquisite":13005,"Ġorthodox":13006,"ĠGeneral":13007,"Ġshudders":13008,"Ġperversity":13009,"ĠBorgia":13010,"ĠOehler":13011,"Ġabortive":13012,"Ġunhesitating":13013,"ĠFortunately":13014,"Ġrhapsod":13015,"Ġconspiracy":13016,"Ġselfaffirm":13017,"Ġemaciated":13018,"Ġretrograde":13019,"Ġvariegated":13020,"ĠVoluptuousness":13021,"Ġhotchpotch":13022,"ĠKNOWLEDGE":13023,"Al":13024,"DITION":13025,"Everything":13026,"Go":13027,"IE":13028,"IP":13029,"Jew":13030,"KIND":13031,"MA":13032,"NER":13033,"Of":13034,"Re":13035,"Sch":13036,"SES":13037,"SEL":13038,"TED":13039,"UND":13040,"ae":13041,"aired":13042,"aseless":13043,"aille":13044,"aigne":13045,"bu":13046,"bread":13047,"bably":13048,"brew":13049,"boreans":13050,"cast":13051,"conscious":13052,"des":13053,"ego":13054,"fred":13055,"first":13056,"false":13057,"gal":13058,"gers":13059,"gently":13060,"hued":13061,"iose":13062,"kish":13063,"lag":13064,"mid":13065,"mony":13066,"norm":13067,"oise":13068,"oism":13069,"ocious":13070,"pure":13071,"paths":13072,"sing":13073,"tra":13074,"vin":13075,"words":13076,"xter":13077,"yes":13078,"Îµ":13079,"Ġx":13080,"Ġich":13081,"ĠÃ¦":13082,"Ġrib":13083,"nere":13084,"Ġtar":13085,"Ġtall":13086,"Ġtie":13087,"Ġtab":13088,"Ġtack":13089,"Ġtale":13090,"Ġtrop":13091,"live":13092,"little":13093,"lines":13094,"Ġaust":13095,"Ġafore":13096,"Ġavenge":13097,"Ġaught":13098,"Ġaesthe":13099,"hey":13100,"heus":13101,"heng":13102,"Ġom":13103,"Ġori":13104,"Ġoption":13105,"Ġovere":13106,"Ġtheft":13107,"inav":13108,"rete":13109,"reck":13110,"reaching":13111,"Ġwreath":13112,"Ġsatur":13113,"Ġsits":13114,"Ġsank":13115,"Ġslink":13116,"isiac":13117,"Ġmand":13118,"Ġmire":13119,"Ġmien":13120,"onne":13121,"onge":13122,"enot":13123,"Ġbust":13124,"Ġbru":13125,"Ġbars":13126,"Ġbare":13127,"Ġbosom":13128,"Ġcad":13129,"Ġcord":13130,"Ġcats":13131,"Ġfury":13132,"Ġfaint":13133,"Ġpan":13134,"Ġpas":13135,"Ġpine":13136,"Ġpau":13137,"Ġpush":13138,"Ġpuzz":13139,"Ġpseud":13140,"Ġpioneers":13141,"Ġinau":13142,"Ġinversion":13143,"Ġinverted":13144,"Ġinternally":13145,"ancer":13146,"Ġtout":13147,"Ġtomb":13148,"Ġtools":13149,"ouched":13150,"Ġdans":13151,"Ġdances":13152,"Ġdazz":13153,"stro":13154,"stretched":13155,"icer":13156,"icle":13157,"icum":13158,"arning":13159,"arbar":13160,"quet":13161,"Ġbend":13162,"Ġisle":13163,"also":13164,"Ġnom":13165,"Ġnod":13166,"Ġwhir":13167,"asiness":13168,"ascul":13169,"imon":13170,"ctures":13171,"ctober":13172,"ĠTW":13173,"verily":13174,"ĠIF":13175,"Ġlane":13176,"urb":13177,"Ġstol":13178,"Ġstink":13179,"Ġweeds":13180,"Ġweighed":13181,"Ġconn":13182,"Ġconversion":13183,"odge":13184,"Ġliable":13185,"Ġsull":13186,"Ġsuitable":13187,"ĠAg":13188,"Ġdexter":13189,"ulent":13190,"ulog":13191,"ulses":13192,"rift":13193,"rob":13194,"Ġmeal":13195,"Ġmeas":13196,"Ġmeadow":13197,"Ġexig":13198,"Ġexterm":13199,"adine":13200,"Ġvivid":13201,"ĠWah":13202,"ĠWAY":13203,"ĠWANT":13204,"Ġalmighty":13205,"gere":13206,"Ġmanys":13207,"Ġmanhood":13208,"Ġmanusc":13209,"Ġmanuf":13210,"ilogue":13211,"usical":13212,"type":13213,"cienza":13214,"Ġorbit":13215,"Ġdoest":13216,"Ġdoses":13217,"Ġdoomed":13218,"Ġsoph":13219,"oles":13220,"olate":13221,"ĠGent":13222,"ĠGOD":13223,"ĠSer":13224,"ĠSac":13225,"ĠSph":13226,"ĠSax":13227,"Ġshred":13228,"Ġshines":13229,"Ġshattering":13230,"alians":13231,"alified":13232,"etus":13233,"etry":13234,"osit":13235,"andinav":13236,"ĠHand":13237,"ĠHOM":13238,"ĠHume":13239,"ĠHonour":13240,"astically":13241,"Ġintimately":13242,"Ġnoises":13243,"ĠCol":13244,"ĠCause":13245,"ĠCourage":13246,"ĠCOUN":13247,"ĠCagli":13248,"Ġperple":13249,"igod":13250,"ĠBale":13251,"Ġpole":13252,"Ġpolis":13253,"Ġlocal":13254,"Ġprologue":13255,"ements":13256,"ruit":13257,"Ġimitating":13258,"ĠOM":13259,"ĠOff":13260,"ĠOPP":13261,"ĠOpen":13262,"ĠOctober":13263,"Ġwillless":13264,"Ġcomrad":13265,"Ġcommentary":13266,"Ġfeat":13267,"Ġfeud":13268,"Ġsparing":13269,"Ġsparks":13270,"idean":13271,"Ġupset":13272,"ĠNight":13273,"ĠNatur":13274,"Ġabolish":13275,"Ġabnegation":13276,"Ġabasement":13277,"Ġabnorm":13278,"Ġunsh":13279,"Ġunfor":13280,"Ġunpar":13281,"Ġunthink":13282,"Ġunbrid":13283,"Ġunphilosop":13284,"Ġunalter":13285,"ĠEND":13286,"ĠExt":13287,"ĠEvolution":13288,"ĠEGO":13289,"ĠEgoism":13290,"ĠEspecially":13291,"perboreans":13292,"agre":13293,"ĠPure":13294,"ĠPop":13295,"ĠPied":13296,"ĠPia":13297,"ĠPITY":13298,"ĠPolish":13299,"ĠPERS":13300,"ĠPRI":13301,"ĠThan":13302,"keit":13303,"keneth":13304,"Ġusing":13305,"Ġchoke":13306,"Ġchairs":13307,"ĠFre":13308,"ĠFlee":13309,"ĠMIS":13310,"ĠMiss":13311,"ĠMAY":13312,"Ġfaut":13313,"ortment":13314,"Ġagric":13315,"Ġrattle":13316,"Ġcanaille":13317,"ĠChin":13318,"ĠChance":13319,"ĠChamber":13320,"ĠChina":13321,"Ġlifetime":13322,"Ġtrum":13323,"pread":13324,"Ġhadst":13325,"Ġprow":13326,"ĠLive":13327,"ĠLone":13328,"Ġamends":13329,"Ġperen":13330,"Ġoutstretched":13331,"Ġque":13332,"Ġquint":13333,"ĠDown":13334,"ĠDEM":13335,"ĠDream":13336,"ĠDOWN":13337,"Ġconsult":13338,"Ġconsens":13339,"fface":13340,"ĠInasmuch":13341,"ĠItalians":13342,"ĠHebrew":13343,"Ġundergo":13344,"Ġundergone":13345,"ishable":13346,"Ġresists":13347,"Ġpowerfully":13348,"Ġcage":13349,"uthor":13350,"ermost":13351,"Ġado":13352,"Ġadhere":13353,"Ġadverse":13354,"Ġoverfull":13355,"ĠRH":13356,"cessary":13357,"Ġshoulder":13358,"Ġshouldst":13359,"inkling":13360,"ostro":13361,"Ġstrayed":13362,"Ġseeth":13363,"Ġgrind":13364,"ologist":13365,"Ġselftorture":13366,"Ġdoesn":13367,"Ġfactors":13368,"apsed":13369,"Ġendures":13370,"Ġclamber":13371,"Ġattend":13372,"ollen":13373,"ordained":13374,"thearted":13375,"Ġdistrict":13376,"ĠTHIRD":13377,"Ġincisive":13378,"Ġafar":13379,"weary":13380,"Ġdecor":13381,"Ġthoughtless":13382,"Ġthoughtfully":13383,"Ġpartiality":13384,"otherwise":13385,"Ġreclu":13386,"Ġrecitative":13387,"Ġrecuper":13388,"Ġhanded":13389,"Ġhandful":13390,"Ġdifferences":13391,"Ġwhereof":13392,"ethat":13393,"Ġmodify":13394,"Ġmodicum":13395,"pressible":13396,"Ġpresentiment":13397,"ĠWagnerism":13398,"ritory":13399,"ickness":13400,"Ġemig":13401,"Ġembody":13402,"Ġemascul":13403,"Ġheartily":13404,"Ġentails":13405,"Ġreflex":13406,"Ġrung":13407,"Ġrubb":13408,"Ġblunt":13409,"Ġspeakest":13410,"Ġchari":13411,"Ġrove":13412,"Ġroam":13413,"Ġroving":13414,"Ġroses":13415,"Ġdiscred":13416,"Ġdiscourage":13417,"Ġdiscretion":13418,"ĠVERY":13419,"Ġapplause":13420,"Ġimminent":13421,"Ġgloves":13422,"Ġindividually":13423,"Ġindividuality":13424,"Ġinfam":13425,"Ġreligios":13426,"Ġwomb":13427,"Ġintervals":13428,"Ġinterrupted":13429,"Ġscourge":13430,"Ġpaints":13431,"Ġpurged":13432,"Ġpurified":13433,"Ġpurifying":13434,"edium":13435,"Ġdesireth":13436,"Ġflowers":13437,"Ġflavour":13438,"Ġassent":13439,"Ġwarned":13440,"Ġconfident":13441,"Ġconfiding":13442,"Ġconflag":13443,"Ġcouple":13444,"Ġille":13445,"Ġtwofold":13446,"INCT":13447,"Ġrepay":13448,"Ġsocieties":13449,"Ġsensu":13450,"Ġsensuous":13451,"Ġweakest":13452,"Ġdivision":13453,"ĠUg":13454,"Ġacadem":13455,"urnal":13456,"Ġdemocrat":13457,"Ġdemigod":13458,"Ġsignify":13459,"ĠAscetic":13460,"ATED":13461,"Ġonesided":13462,"Ġconceited":13463,"Ġbreed":13464,"ĠKing":13465,"ĠKAPP":13466,"Ġnaturalists":13467,"Ġchildlike":13468,"Ġexamination":13469,"Ġmastermorality":13470,"ĠOnes":13471,"Ġwomanly":13472,"Ġdevour":13473,"Ġbelated":13474,"Ġrespecting":13475,"Ġrespectability":13476,"Ġcauseth":13477,"Ġrestriction":13478,"Ġnorm":13479,"Ġbeginneth":13480,"Ġhardy":13481,"Ġdestitute":13482,"Ġfutures":13483,"velopment":13484,"Ġdefy":13485,"Ġdefines":13486,"Ġdepicted":13487,"Ġkee":13488,"Ġdevelopments":13489,"Ġprevents":13490,"Ġsatiated":13491,"Ġconvulsion":13492,"ribing":13493,"Ġinnovation":13494,"Ġhealthier":13495,"Ġcrass":13496,"Ġhonouring":13497,"Ġinterpreter":13498,"Ġretire":13499,"Ġcoined":13500,"Ġproportions":13501,"Ġpropriety":13502,"LIGHT":13503,"Ġcheated":13504,"OUGH":13505,"Ġsinger":13506,"Ġsingly":13507,"Ġperiodical":13508,"Ġcareless":13509,"Ġ180":13510,"Ġ181":13511,"imentary":13512,"Ġpunishes":13513,"Ġrevered":13514,"ĠEverybody":13515,"Ġinfluential":13516,"Ġhypochondri":13517,"Ġterritory":13518,"ĠWille":13519,"Ġswell":13520,"Ġswords":13521,"Ġcritique":13522,"Ġfavourably":13523,"Ġcommunicated":13524,"Ġconsiderably":13525,"Ġlanguish":13526,"Ġburrowing":13527,"Ġsuperiors":13528,"Ġwaits":13529,"Ġwailing":13530,"ETY":13531,"Ġapprove":13532,"Ġapproved":13533,"Ġapproached":13534,"Ġapproval":13535,"Ġsounding":13536,"ĠApart":13537,"Ġfatally":13538,"Ġtrembled":13539,"Ġhabituation":13540,"Ġobserving":13541,"Ġdispositions":13542,"aughters":13543,"Ġsymbolis":13544,"Ġconcludes":13545,"Ġgenerali":13546,"Ġrivals":13547,"Ġmanifestly":13548,"Ġaimed":13549,"Ġmagical":13550,"Ġimpercept":13551,"Ġimperfection":13552,"Ġinnocently":13553,"Ġprovoke":13554,"Ġprovoked":13555,"Ġadds":13556,"PSIL":13557,"EDI":13558,"works":13559,"Ġadmixture":13560,"Ġthoroughness":13561,"Ġinerad":13562,"Ġinequality":13563,"ĠWhereas":13564,"Ġhomeless":13565,"Ġ76":13566,"Ġ79":13567,"Ġdeceives":13568,"Ġdeceiving":13569,"values":13570,"Ġsleeper":13571,"Ġphilosophising":13572,"Ġsuccesses":13573,"Ġselfcrit":13574,"Ġselfconscious":13575,"Ġcircumstance":13576,"Ġsuspicions":13577,"ĠSea":13578,"Ġoccasioned":13579,"Ġlowered":13580,"Ġdegenerated":13581,"Ġbreaker":13582,"Ġplacing":13583,"Ġcheerfully":13584,"Ġpublicans":13585,"Ġmadman":13586,"Ġwitty":13587,"Ġunend":13588,"Ġunearth":13589,"Ġuneasiness":13590,"Ġdissol":13591,"Ġannounce":13592,"Ġgrandiose":13593,"Ġoperating":13594,"Ġboast":13595,"Ġ80":13596,"Ġ81":13597,"Ġ82":13598,"Ġ84":13599,"Ġ86":13600,"Ġ88":13601,"Ġastron":13602,"Ġastounding":13603,"Ġmythology":13604,"Ġcolon":13605,"Ġseparately":13606,"tersburg":13607,"Ġ90":13608,"Ġ92":13609,"Ġcrimes":13610,"Ġmirrors":13611,"Ġrevolts":13612,"Ġrevolting":13613,"Ġchangeable":13614,"Ġenerv":13615,"flo":13616,"Ġexacts":13617,"LECT":13618,"Ġvariance":13619,"Ġ118":13620,"Ġ119":13621,"ENTS":13622,"Ġthirsted":13623,"Ġcondemning":13624,"Ġhalfm":13625,"Ġhalfway":13626,"Ġdelicately":13627,"Ġgratify":13628,"Ġaristocrat":13629,
[...]
