#version: 0.2
n e
Ġ t
l i
Ġ <
ne w
li ne
new line
Ġ a
h e
Ġ o
Ġt he
Ġ ,
i n
r e
Ġ w
Ġ s
i s
n d
e r
a t
Ġo f
i t
Ġ m
o n
Ġ .
e n
Ġ b
Ġ h
Ġ c
Ġ f
e s
Ġ p
Ġt h
Ġa nd
Ġ in
o r
a n
Ġt o
o u
o t
Ġ d
s t
l l
in g
e d
i c
a r
Ġ e
q u
Ġb e
l e
i on
Ġ is
s e
o m
Ġ Ġ
a l
Ġ n
Ġw h
Ġ it
ot e
qu ote
v e
a s
l y
c e
Ġ re
o w
i m
Ġ g
Ġth at
en t
u t
c t
Ġ T
v er
Ġa s
Ġ I
Ġ u
Ġ he
Ġf or
i r
Ġ l
Ġh a
Ġ :
l d
u r
t h
a y
i d
g h
Ġa n
it h
s s
ic h
r a
Ġn ot
Ġwh ich
Ġs t
c h
Ġw e
Ġc on
o d
he r
Ġw ith
Ġ !
Ġ li
is t
Ġ ;
Ġs u
Ġo n
Ġa ll
Ġ A
Ġth is
Ġd e
at ion
u l
r i
se l
p e
es t
Ġm o
r o
a in
ĠT he
Ġs e
Ġm e
Ġe x
Ġh is
u st
gh t
a ll
a d
b le
Ġ v
i ll
Ġo ne
Ġ W
Ġ y
Ġa t
Ġa l
g e
ĠĠ ĠĠ
Ġm an
t er
a k
i f
u re
i l
Ġa re
Ġha ve
ou s
u s
Ġwh o
a m
t y
Ġ '
Ġ ?
c i
ne ss
es s
om e
ou ld
r om
Ġo r
it y
f e
sel f
Ġd o
ver y
Ġs o
on g
o p
Ġw or
at e
en ce
Ġh im
o l
Ġb y
Ġ k
Ġ G
Ġ S
ou r
Ġthe y
Ġs h
a li
Ġe v
Ġw as
Ġf rom
e t
Ġh as
Ġthe ir
u m
o s
a nd
Ġ H
a st
Ġin t
Ġn o
ar d
n t
Ġp re
Ġthe m
Ġ C
Ġthe re
Ġm y
p t
an t
Ġp er
a c
re at
Ġmo re
Ġ ne
i g
p p
i ne
Ġ B
Ġw he
Ġit s
in d
i ve
v es
n g
t her
Ġp o
Ġl o
Ġp ro
i an
Ġb ut
Ġo ur
e m
r u
Ġ im
re d
at h
Ġ O
o od
Ġ )
Ġ (
Ġa r
all y
Ġw ill
Ġc om
Ġf e
Ġon ly
Ġs p
id e
ne r
Ġe very
Ġu p
Ġev en
Ġ N
Ġa b
Ġu n
Ġ E
p er
i v
Ġ le
' s
a g
an ce
Ġbe c
a u
Ġ P
ĠT h
k e
Ġu s
Ġd is
n ow
Ġc h
m ent
nd er
Ġ F
ing s
Ġh ow
Ġ j
Ġwh at
th ing
Ġ M
Ġf a
o se
or t
ali ty
am e
an s
Ġg reat
Ġth ou
Ġa g
a p
Ġ r
ou nd
ar t
ion s
Ġmo st
u d
is e
a ble
Ġm or
ic al
ak e
Ġk now
s o
Ġc an
Ġbe en
Ġo ther
Ġs ome
Ġw ould
ĠC h
o re
Ġm ust
Ġli fe
c c
f ul
i re
li ng
Ġsu ch
Ġwhe n
Ġint o
Ġt r
p re
ou t
ay s
Ġin st
Ġha d
Ġp r
Ġcon t
Ġy ou
Ġth an
Ġan y
ow er
ar y
Ġ L
Ġt im
ĠA nd
Ġp h
i es
r ist
Ġa m
sel ves
i ous
ou gh
o g
Ġp e
Ġo ut
Ġin d
Ġl ong
Ġal so
Ġ qu
Ġit self
re e
o nd
Ġwor ld
Ġg ood
Ġhim self
Ġag ain
i li
Ġ D
o k
i ght
Ġa ct
Ġcon s
Ġm en
o ne
f f
u e
Ġ 1
Ġli ke
at ed
e ct
Ġ en
Ġar t
as s
ĠI n
ĠI t
ul t
t ain
Ġm ay
Ġth ings
ĠCh rist
Ġn ow
Ġs pe
Ġ if
er s
Ġd es
is m
ĠH e
Ġy e
Ġo w
Ġwe re
ic e
li e
Ġu nder
ĠW h
u al
is h
Ġthe se
ĠB ut
e l
it e
ĠChrist ian
i e
Ġre s
Ġp ower
Ġc a
o c
an g
Ġp l
ir st
u ch
Ġfor m
Ġup on
in ct
ut h
er m
ce pt
at ure
Ġv al
Ġtim e
Ġo b
Ġ ide
e ver
i ble
c es
Ġa d
Ġo ver
Ġim p
Ġst ill
Ġbe lie
f ore
ir it
Ġth ose
op le
Ġph il
Ġ R
au se
c ess
Ġa cc
Ġs ou
ĠG od
Ġow n
Ġsh ould
a b
y s
Ġpre s
os op
Ġ very
Ġs ay
Ġf irst
l ed
u n
in k
Ġpe ople
he d
Ġsp irit
Ġse l
Ġthe n
e ll
p le
it ion
ar s
Ġphil osop
p l
Ġs a
er tain
ac k
o st
Ġj ust
en s
Ġpo ss
ĠG erm
ation s
ic t
Ġinst inct
v ed
w ard
Ġy our
Ġst r
Ġlo ve
Ġh ig
he n
Ġse e
Ġg r
ol og
Ġ 2
Ġsel f
e p
Ġ ra
ir t
Ġhow ever
w ays
l ess
a ge
Ġre g
ig n
Ġdo es
or y
Ġto o
Ġsu b
Ġfa ct
ar ath
Z arath
Zarath ust
Zarathust ra
in t
Ġme ans
ct ion
Ġthem selves
ap s
h ing
Ġa p
i ly
Ġsou l
ne d
d er
Ġal ways
Ġe nd
it her
Ġc l
ou nt
Ġ Zarathustra
Ġm uch
Ġd id
Ġagain st
e nd
Ġc ould
Ġc all
Ġat t
ine d
n ing
h aps
g in
Ġbec ome
Ġv irt
Ġg o
ri ght
a ce
Ġc ertain
Ġt ra
a ch
o ll
Ġ new
Ġh um
Ġex ist
ĠWh at
a re
or d
Ġwho le
Ġwor d
Ġtr uth
Ġreg ard
t le
li g
ci ence
i ness
re n
Ġw ay
i le
t he
Ġsome thing
v en
Ġn ature
Ġre m
Ġth ink
ĠTh is
Ġth r
Ġd ist
ĠT H
at ter
on s
he s
Ġin c
Ġor der
o ve
Ġa f
t o
re ad
Ġk ind
al s
Ġmor ality
w e
ot h
Ġs ame
Ġde c
u es
at es
Ġm us
Ġha pp
fe ct
Ġsu ff
Ġfe e
Ġwe ll
Ġper s
Ġthou ght
Ġap pe
Ġbe ing
ĠGerm an
Ġe ver
Ġab out
Ġp art
k s
Ġs y
Ġo ld
ot her
Ġre c
Ġbe t
v ing
Ġevery thing
per i
Ġg e
Ġha nd
Ġfee ling
ĠW e
Ġhe re
ad e
Ġne cess
Ġunder st
ili ty
Ġe ar
Ġth y
Ġper haps
j ect
Ġb r
a ct
pe ct
Ġnot hing
ĠW ag
ĠF or
o pe
Ġp ass
Ġd if
Ġon ce
o ld
en se
Ġc ond
r y
Ġ 3
Ġmus ic
l es
s h
ow n
Ġwhe re
e th
Ġm ake
Ġcom m
Ġre as
Ġm od
ĠT o
s c
Ġse em
i ld
Ġwith out
Ġbec ause
Ġthr ough
pre ss
Ġpres ent
Ġst and
f or
Ġhum an
Ġ J
Ġ Y
ĠWag ner
Ġmor al
Ġe y
ter n
r it
o y
ic k
a w
i p
Ġo pp
Ġth us
Ġa w
he re
Ġe m
Ġne ver
led ge
c ed
Ġu nt
Ġ right
i ed
Ġhe art
ĠTH E
ĠĠĠĠ Ġ
ut e
Ġl ast
if ic
Ġth ing
Ġ ent
t e
b er
Ġt y
Ġstr ong
Ġs er
Ġre f
Ġ ru
Ġf ar
ent s
i et
o ok
i gh
ĠChristian ity
Ġaf ter
Ġb l
Ġh ist
Ġspe ak
t ic
Ġch ar
Ġbe fore
Ġcon c
Ġex t
ci ous
Ġlong er
m ost
li c
Ġf ind
Ġt e
Ġin v
Ġ ro
Ġy et
Ġam ong
E R
Ġne ed
Ġdis c
u ll
iv id
Ġp ri
Ġ V
Ġw is
em pt
Ġev il
u ally
ward s
Ġa pp
t en
or s
at her
Ġcom p
Ġqu est
n ot
ell ect
Ġm ade
Ġman y
fe re
Ġlo ok
Ġknow ledge
t tle
ve l
i al
Ġse c
Ġme re
Ġim m
Ġg l
ver s
Ġind ivid
O N
Ġs im
ak es
Ġint ellect
ang er
h y
ent ly
Ġc ome
Ġreas on
t ed
Ġli ttle
Ġsh all
Ġd ay
i b
Ġs m
Ġvirt ue
Ġin f
Ġm is
Ġin s
read y
Ġt w
Ġw ant
re ss
ĠE ur
er n
Ġc ult
Ġhe r
ud e
ri gin
he st
Ġhig her
Ġre lig
ow s
Ġpers on
f ic
Ġd anger
Ġphilosop her
Ġw om
at ur
Ġca se
ĠThe re
u nd
is ed
Ġwor k
A L
er ing
Ġb ad
Ġin ter
c k
Ġal ready
Ġ ]
Ġsa id
Ġre ad
g ed
Ġan other
as ure
Ġli ght
Ġge ner
Ġ [
Ġsy m
od y
Ġthe e
at ing
Ġs c
a v
Ġo rigin
Ġindivid ual
Ġp ain
at ive
Ġposs ible
Ġp ur
Ġour selves
Ġg ra
d om
Ġexist ence
Ġle t
Ġle ar
s y
ist s
Ġpo int
Ġb est
Ġcon cept
O R
Ġ 4
Ġs in
Ġm atter
Ġab s
Ġunderst and
ed i
Ġex peri
Ġfe el
se qu
Ġex press
c y
Ġt ru
Ġs ense
Ġf ound
Ġc reat
Ġp ra
an ge
m e
li ght
oc r
a ut
Ġide al
I S
Ġdes ire
Ġm ight
Ġbelie f
Ġhig hest
iet z
fere nt
Ġhapp iness
ast e
Ġh ath
Ġp le
sc he
Ġquest ion
Ġf oll
e re
Ġtr ans
ĠEur ope
Ġab ove
ietz sche
Ġf l
Ġst ate
ul ar
Ġcan not
c ise
Ġst re
Ġpro f
Ġen ough
ĠN ietzsche
ĠTh at
Ġunt o
Ġas s
ĠG ree
our se
Ġg u
Ġad v
Ġw ar
Ġnecess ary
Ġal most
Ġind e
at ic
ĠĠĠĠ ĠĠ
d en
Ġwh om
Ġf ri
ie w
Ġval ue
a ined
a ve
Ġs l
Ġf ree
ist ic
e w
Ġcon f
Ġval ues
d ay
Ġcall ed
t s
p h
Ġappe ar
ĠI f
Ġc ou
Ġan im
Ġhist ory
Ġcult ure
Ġ ill
Ġcon st
Ġme an
Ġc le
Ġtw o
Ġo p
Ġp ar
l t
Ġe tern
Ġv iew
ĠH ow
Ġchar act
ci ent
Ġbec om
ou b
Ġfri end
I N
Ġs ur
Ġb ack
Ġre p
ut ion
Ġso ci
sy ch
Ġtru e
Ġb ook
Ġre l
Ġg od
Ġan t
Ġj ud
Ġbe aut
ĠW hen
Ġs ens
Ġwe ak
Ġword s
Ġdif ferent
Ġmere ly
Ġt ake
b e
Ġe f
Ġopp os
Ġd iv
Ġcon sequ
Ġinstinct s
o f
Ġ U
v ation
en ces
Ġear th
R E
Ġother s
Ġa c
k ind
Ġpr in
Ġaw ay
Ġe l
ĠA ll
g g
Ġp sych
ur n
i ves
Ġm ind
Ġc or
Ġf re
ate ly
Ġthere fore
Ġcons cience
Ġli ve
Ġde m
Ġqu ite
Ġcharact er
ĠB e
ĠO n
s m
Ġs ign
Ġe qu
Ġl aw
ĠA s
Ġs cience
er r
Ġey es
m it
Ġa ble
al th
Ġgener al
ĠThe y
Ġal one
Ġpl ace
Ġh on
Ġ ess
am ent
Ġposs ess
A T
Ġres ult
b y
Ġe le
cise ly
Ġpsych olog
Ġsu per
Ġpri est
Ġone s
Ġto wards
Ġcon ce
Ġef fect
Ġb re
Ġbe h
ĠS ch
Ġob ject
Ġf o
Ġp ut
Ġ K
Ġh ither
ar k
Ġman kind
Ġn atur
s p
a se
a red
ble m
Ġacc ord
u ous
it ude
Ġre qu
th at
ĠTh us
Ġch ild
Ġex am
Ġg ive
i red
Ġbelie ve
Ġsm all
Ġt aste
Ġf in
Ġpre cisely
i a
Ġl au
ain s
Ġpo et
pre s
Ġm ast
Ġphilosop hy
r ow
an ces
Ġd own
ion ys
li t
Ġt ri
Ġre ally
ĠO ne
Ġwom an
Ġd ra
Ġde v
for m
Ġhither to
Ġf al
Ġbe l
Ġsu pp
Ġgreat est
Ġres pect
Ġprin ci
b it
u p
re t
Ġde ath
we en
E S
Ġinst ance
Ġval u
Ġd re
ure s
ĠD ionys
Ġs ac
Ġc ause
Ġn ame
Ġre st
Ġl ack
Ġn or
ren ce
Ġg en
Ġpro blem
Ġbe gin
Ġu se
Ġph ys
i z
Ġmy self
Ġwhe ther
Ġsuff ering
Ġstre ng
A N
Ġd oub
Ġprof ound
Ġ =
Ġ est
Ġof ten
od u
Ġmod ern
li sh
or n
as es
ĠI s
Ġty pe
E N
Ġh ard
Ġcont ra
t ing
ali st
it ions
Ġbet ween
Ġm akes
Ġd en
Ġd est
ĠA t
ak ing
ol ute
ment s
Ġf ut
ĠL et
Ġto day
Ġcons cious
Ġ 5
Ġre ality
Ġtim es
Ġre al
Ġfe ar
Ġun c
ab ly
Ġconc er
w ise
Ġ ut
Ġpur p
Ġfal se
Ġw ish
vel op
ak en
is es
ed u
Ġim ag
I T
y ond
id er
Ġh igh
us ion
Ġa ge
Ġc ourse
ver se
Ġfa ith
Ġdre am
Ġb oth
ir c
Ġno ble
m an
u b
on t
Ġc ent
Ġspe ci
Ġel se
Ġm om
h a
Ã ¦
Ġw r
ou d
op en
Ġide a
f t
h at
t ies
Ġj oy
Ġde ep
Ġle ast
Ġseem s
er y
au er
Ġbecom es
Ġstreng th
Ġfut ure
Ġde f
Ġde p
Ġ es
Ġany thing
ere st
o ver
y ing
ic ism
Ġcont in
open h
Ġs ort
Ġf ore
Ġd om
Ġk e
ĠO F
Ġacc ount
g ic
Ġde velop
Ġexam ple
Ġwh ile
Ġl ess
Ġr ather
og n
openh auer
f ort
ĠW ith
r ary
Ġc irc
Ġwor th
ian s
Ġbet ter
ĠJ ew
Ġst ru
Ġcl ass
Ġinde ed
g o
om en
ĠSch openhauer
i h
Ġabs olute
Ġ err
ar ing
ow ed
os ition
Ġthere by
Ġcom ple
e ty
Ġpre v
Ġpass ion
Ġf ull
Ġwh y
ĠY e
Ġsac ri
g an
Ġex cept
Ġdes p
d e
i x
Ġs at
Ġsh ort
Ġphilosopher s
Ġnatur al
Ġpurp ose
Ġcon v
ri b
Ġsu n
Ġaccord ing
Ġs he
ur y
ge ther
Ġdo ne
ful ness
l u
ic s
Ġey e
n ce
Ġs ick
Ġm ar
Ġex pl
ne m
Ġof f
Ġp rom
Ġin n
Ġhe alth
at er
Ġg et
Ġo cc
Ġe ach
le ct
Ġle ad
Ġdanger ous
Ġetern al
u nder
Ġc r
Ġhon our
Ġg iv
Ġdoub t
u nt
ĠN ot
hen omen
Ġinter pre
v ol
Ġs ent
Ġas ce
ra ge
Ġman ner
Ġjud g
o ly
Ġre t
Ġwis dom
Ġsim p
Ġexpress ion
i us
li s
Ġpra ct
a il
p o
Ġc o
ish ment
Ġregard ed
ged y
Ġre pres
pe nd
Ġpro p
Ġact ion
Ġsoci ety
if ul
Ġrec ogn
i od
m b
Ġp ity
ĠS t
ar ily
ow ing
ĠĠĠĠ ĠĠĠĠ
Ġp henomen
Ġhe l
Ġli e
Ġknow s
Ġform er
Ġple asure
ne s
Ġa ff
Ġimp ort
L I
il t
Ġwho se
Ġrequ ire
Ġc he
Ġpart ic
p ar
Ġc ur
ĠM an
Ġexperi ence
O U
at i
st he
ven ge
Ġintellect ual
ou ght
ent ion
Ġp ure
ed om
ĠM y
Ġunderst ood
Ġbel ong
ĠDionys ian
Ġs ing
Ġd oth
Ġme t
ĠS o
Ġper iod
Ġca re
Ġ }
ĠA n
Ġye ars
und ament
is s
Ġb ody
Ġse t
Ġthou gh
ĠGerm ans
Ġ1 8
Ġent ire
Ġe nem
im ent
Ġfeeling s
Ġdiv ine
Ġc ap
Ġdo ct
ĠHe re
Ġ ve
on st
ust om
Ġ {
Ġ ~
Ġp un
Ġex c
ĠS ocr
Ġconcer ning
Ġ ir
Ġc al
Ġre ve
ĠE very
or ity
Ġe ither
ce ed
ur ing
Ġcont rary
Ġinf lu
Ġmom ent
ne ra
Ġs il
ir d
os ed
e red
Ġs ch
it ies
Ġre venge
Ġl atter
Ġca us
it ive
Ġh y
Ġf undament
ll y
Ġbe ne
Ġun i
ict ion
Ġcle ar
Ġhe ad
Ġrelig ion
al k
Ġde light
i olog
en cy
Ġc ar
Ġpr odu
w here
Ġint erest
one d
A R
Ġt er
Ġc ru
ur ch
Ġst ri
one st
Ġimp ul
ĠR e
ic i
ĠGree k
Ġcont empt
Ġhel p
o ice
Ġ id
Ġh ar
Ġp ast
ic ally
Ġbe yond
Ġas k
ib ility
Ġop in
is f
ĠW ill
if e
iv ed
Ġart ist
Ġhuman ity
Ġpartic ular
a le
s er
Ġs w
Ġc rit
if ied
ure d
Ġvirt ues
Ġcond itions
c hed
id es
ess im
ang u
in ation
Ġv ict
ate ver
pt ion
Ġpl ay
Ġdec ad
ĠO r
Ġbec ame
Ġfa v
ious ly
Ġsec ond
Ġp ath
our s
Ġcond ition
Ġm ot
Ġdis g
Ġcomm un
Ġstru gg
a ne
a ir
Ġw rit
Ġf ur
Ġper fect
Ġsub ject
Ġanim al
Ġcomple te
is ing
Ġd ire
Ġg re
Ġcons ider
Ġsimp ly
Ġb u
Ġc re
Ġl angu
Ġst ep
Ġpr im
Ġlear n
Ġb ur
ci p
ĠTh ou
Ġtra gedy
Ġmast er
i er
Ġde g
Ġman if
Ġsee k
Ġdif fic
Ġru n
Ġext ent
Ġfin ally
Ġgen ius
it s
Ġm ine
ĠA l
Ġpro cess
Ġfre edom
Ġe as
Ġmo ve
Ġcou rage
ĠN ow
Ġen j
Ġphys iolog
Ġgiv en
l at
Ġs ays
Ġsu peri
Ġact ually
Ġbl ood
o ss
Ġw a
Ġra ce
Ġappear ance
IN G
Ġess ent
u ght
Ġc ame
an k
as k
ali ties
it ed
Ġc ases
or m
Ġsu cc
ĠN o
Ġgreat er
Ġbeaut iful
Ġrepres ent
is on
Ġc e
ag es
Ġr id
Ġcontra d
E T
li ke
Ġno b
Ġapp ro
Ġdoct ri
Ġ 6
as ed
Ġan s
Ġwith in
is hed
Ġb li
Ġb ot
ali s
Ġsoul s
Ġs ound
Ġm id
al t
im ate
Ġu lt
ĠA p
pe ci
Ġv is
ter m
Ġter ri
Ġm a
Ġh ope
Ġf at
Ġgr ow
Ġfriend s
Ġbeh ind
Ġt re
Ġhe ar
Ġha bit
Ġsp ake
Ġpr ide
igh b
Ġmean ing
f ull
it ut
Ġob ser
Ġsec ret
Ġsym p
Ġconscious ness
in s
Ġh at
ap h
Ġt urn
Ġf am
Ġne ighb
Ġide as
Ġac qu
in ary
Ġm ount
ed ness
Ġn um
Ġte ach
Ġerr or
Ġ ver
Ġt end
pl es
ON T
ĠGree ks
Ġcirc um
Ã ©
in ite
Ġhe ro
ge t
Ġdis p
Ġcont em
ific ation
Ġt aken
ic es
Ġli es
Ġsu d
au ght
I C
r s
Ġh onest
Ġin j
st em
ro ss
Ġhand s
Ġsym b
Ġprinci ple
peci ally
Ġsud den
Ġa uth
om p
and s
Ġcomm on
Ġconc l
Ġb ra
Ġc ra
Ġp ub
Ġto gether
ain t
Ġge nera
Ġcou n
Ġtri um
r ust
Ġm ist
Ġcom es
Ġatt empt
Ġthought s
Ġser v
c ing
l s
Ġ ri
Ġp op
ct ed
Ġsy stem
Ġasce tic
Ġlangu age
Ġmanif est
full y
S T
a z
Ġa im
Ġm ag
Ġc ount
ar ch
ĠH is
Ġim per
Ġfe lt
Ġrelig ious
Ġconsequ ently
Ġinn oc
Ġinflu ence
f ice
al ed
Ġn ight
Ġwh atever
ir m
th s
Ġpro v
Ġar ound
Ġlear ned
Ġb less
Ġf all
Ġsu re
fe rence
ĠP lat
Ġbeaut y
line ss
Ġc ast
Ġd ut
al vation
Ġad d
Ġhat red
N D
g r
ĠE ven
Ġstr ange
Ġtra gic
cient ific
ih ili
P S
m a
Ġw o
Ġli ving
ĠS u
Ġpro per
Ġlau gh
E D
Ġs ide
or ality
Ġan cient
Ġme asure
Ġfe w
Ġpower ful
Ġes pecially
Ġha ving
id ed
Ġor gan
Ġspeci es
Ġenj oy
w or
Ġth or
st and
Ġe go
Ġv ol
Ġad m
Ġatt itude
Ġmet aph
Ġterri ble
b id
Ġt em
as h
Ġsu sp
Ġcertain ly
Ġsuff ici
Ġcor ru
Ġcent ury
Ġfundament al
Ġh old
OR I
Ġthor ough
m er
u g
Ġ ine
er t
at or
Ġre d
ĠW here
ĠP er
Ġsub tle
Ġhist or
ĠK ant
Ġinterpre t
ĠSocr ates
ĠAp oll
Ġh ome
Ġhe nce
ac hed
Ġimp oss
Ġke ep
Ġdoctri ne
Ġ 7
Ġde term
ĠE ng
ĠWh o
Ġbelie ved
Ġsub li
Ġrem ain
Ġbr ought
Ġimm edi
Ġanim als
L LI
or al
Ġe ars
ĠS p
ali sm
Ġwom en
Ġadv ant
Ġfur ther
c ome
Ġc old
ve re
Ġde ce
Ġex p
ge ner
ol s
ac ity
Ġinv ent
Ġstrugg le
Ġsymp ath
PS IS
H ORI
Z ONT
g y
v al
Ġs k
Ġs le
Ġin ner
Ġu nd
ĠG o
ĠE LLI
Ġform s
Ġty p
Ġop en
ha ust
Ġpun ishment
Ġneighb our
HORI ZONT
ĠELLI PSIS
HORIZONT AL
Ġs ight
Ġs cientific
Ġb ro
Ġf ine
Ġg ives
Ġlong ing
Ġspe ct
Ġdist inct
Ġperson al
Ġdiffic ult
Ġdo g
et he
Ġfe ll
Ġra re
Ġthy self
w h
Ġh ost
Ġc iv
ĠT r
Ġknow n
Ġphilosop h
Ġinv ol
Ġher d
Ġhar m
Ġsucc ess
Ġnum ber
a ven
o om
Ġo ught
Ġse en
Ġme l
Ġv i
Ġform ul
Ġjust ice
hen s
the less
Ġem ot
Ġtrium ph
u ng
Ġp ie
Ġth ous
ar ly
il ling
os ing
Ġne ither
Ġself c
Ġthink ing
Ġinc re
Ġsacri fice
Ġexcept ion
Ġdeg ree
Ġcircum st
Ġmetaph ys
Ġsusp ic
I ON
Ġa v
Ġfor ce
Ġfor th
ĠS e
os es
Ġgo al
Ġass um
Ġsat isf
Ġa ir
ou ra
Ġhe ard
id ence
Ġse a
ac her
Ġsp r
ĠL ife
ĠD o
Ġmis under
Ġconcept ion
Ġoppos ite
Ġcru el
a im
p s
Ġs we
Ġh or
Ġth ree
ive ly
Ġen v
ĠWh y
ove red
Ġstand s
Ġocc as
Ġgenera lly
g es
Ġp essim
Ġfor g
Ġha st
ro g
ĠThe n
Ġact ions
Ġspirit s
Ġappe ars
l er
p ire
ou th
as m
Ġsu f
Ġsuff er
Ġru le
Ġuni vers
Ġfav our
ĠPlat o
I L
u ality
Ġh al
Ġother wise
Ġpass ions
Ġcomm and
edu c
y le
ĠT R
Ġl ow
Ġst age
Ġde ed
Ġde gener
Ġpro of
Ġyou ng
lis hed
g ar
h ood
Ġt ur
Ġm ain
Ġc ustom
Ġsh ow
Ġpe ace
Ġbr ing
Ġant i
Ġbre ak
Ġcircumst ances
in ing
Ġw ise
Ġat tain
ĠO ur
el lig
Ġpl ac
ĠY ou
Ġabsolute ly
Ġche er
Ġpub lic
T ER
u li
Ġm ad
on y
Ġst ates
Ġsh ame
Ġpro b
Ġfa ce
are nt
Ġnecess ity
Ġsim il
Ġchild ren
Ġdest ro
Ġhy p
Ġopin ion
Ġciv ili
r ic
Ġw it
Ġs it
Ġs alvation
ct ive
Ġu ne
id ent
ri ed
if y
Ġpo li
ĠO h
ĠN ihili
ud d
Ġact s
ĠGerman y
g er
Ġe t
ad ays
Ġv an
Ġdis s
Ġcl ose
sh ip
ĠEurope an
O M
m en
Ġ ly
Ġw ind
Ġhe ight
Ġhe av
pe ned
am ed
fe ction
Ġmy st
ke th
Ġpra ise
Ġdra w
Ġcoun ter
Ġt akes
Ġv ain
Ġpo or
Ġag es
Ġres p
Ġweak ness
Ġdev il
Ã¦ sthe
Ġdom in
b ody
c ul
t om
Ġb es
Ġh ate
Ġf ate
Ġfor get
Ġde ad
Ġch ang
Ġr ank
ĠCh urch
Ġact ual
hes is
Ġoppos ed
Ġdevelop ment
Ġjudg ment
Ġmove ment
Ġimposs ible
Ġvi ol
a id
d le
li es
Ġm aking
ing u
Ġan n
Ġex haust
Ġso on
ant s
ĠN ature
Ġyou th
ĠR om
Ġext ra
ĠV er
Ġwis hes
Ġgra nd
Ġexperi ences
O T
w hat
Ġo per
Ġb o
as p
th od
ĠA h
ĠA r
ation al
ĠThe se
Ġdo ing
um ent
oc k
Ġsin ce
Ġ 8
Ġa st
it es
Ġm edi
on ian
Ġf an
ou red
ĠT O
Ġl ay
Ġmy th
ĠF rom
Ġpri v
Ġpsycholog ical
Ġbot tom
Ġsympath y
t r
Ġb ound
Ġf ain
Ġe c
ĠI N
Ġst yle
Ġv oice
Ġev ol
Ġyour selves
Ġunt il
Ġequ al
ĠGo ethe
e ad
Ġt ell
Ġc ol
Ġl ab
Ġse par
ter s
iv ity
Ġsou ght
Ġnever theless
ĠPer haps
x t
Ġ 9
en ing
an n
ĠI nd
Ġhe aven
Ġfa il
Ġpr oud
Ġow ing
Ġreas ons
Ġcr im
Ġphenomen on
Ġimport ant
Ġcontem pl
a ves
s es
Ġ educ
Ġm ir
Ġb orn
Ġp ict
Ġe p
Ġre vol
Ġch ange
Ġpres ence
Ġsa w
Ġbegin ning
alist s
Ġphysiolog ical
b ut
u ation
w ith
li n
Ġb it
Ġb ar
Ġe ner
Ġse es
Ġstrong er
Ġser ious
ocr atic
Ġsing le
Ġadvant age
ĠVer ily
i ally
i oned
ing ly
ent h
Ġchar m
up id
Ġlack ing
Ġthorough ly
I I
f l
i est
Ġthe olog
Ġs ong
ĠA ND
Ġme thod
Ġqu alities
Ġnow adays
ab ility
Ġkind s
ĠJew s
C E
b r
r or
Ġ Ã¦sthe
Ġb reat
ur d
Ġex er
ren ch
Ġty r
Ġneed s
Ġest ab
Ġdecad ence
Ġcre ate
Ġsuperi or
Ġdut y
j ud
w er
Ġw ild
th is
ine s
Ġ1 0
ons cious
Ġgod s
Ġbelong s
Ġimpul se
ĠEng lish
h us
Ġ ign
re s
th ough
Ġli st
Ġex act
Ġso lit
Ġev ent
Ġlike wise
Ġext re
Ġsur p
Ġresp ons
L E
Ġe ff
as c
Ġde li
Ġv ar
Ġsh ad
Ġint r
Ġint ellig
Ġpres er
Ġtrans form
Ġsens es
Ġsubli me
Ġcom b
ĠF rench
Ġindividual s
Ġenem y
Ġoccas ion
a ction
c hes
Ġm outh
an ch
Ġnot ion
Ġne g
Ġnecess arily
ĠApoll onian
' t
ll ed
Ġre verse
Ġal ong
um b
Ġr ise
Ġ1 1
Ġart ists
Ġtra d
Ġdist ingu
Ġfeel s
EN T
Ġsil ent
Ġcommun ity
i os
Ġt alk
Ġh our
Ġh oly
Ġth irst
ĠB udd
Ġevery where
Ġspirit ual
Ġrem ains
Ġhapp y
Ġcond em
Ġmod est
Ġseem ed
Ġhal f
Ġdestro y
g ress
Ġ *
li m
Ġs edu
Ġu g
Ġst upid
Ġli ber
Ġde lic
Ġper ce
Ġgr at
Ġgo ld
Ġspeak s
Ġlook ed
Ġcreat ed
Ġbook s
Ġconsequ ences
Ġenem ies
T he
a ul
a pp
l ud
o id
Ġt reat
Ġs ake
Ġn ar
Ġcon qu
Ġlo st
Ġdis e
Ġright s
Ġgl oom
Ġgra d
Ġname ly
po int
Ġver ily
Ġinterpret ation
c er
r ink
Ġh und
Ġcom pe
Ġr ich
Ġart istic
Ġpower s
Ġatt ack
Ġdesire s
Ġsl ow
Ġfin al
Ġvalu ations
Ġbli nd
Ġteach ing
Ġwo nder
Ġhund red
Ġc ry
or row
ar ge
Ġli ves
Ġar ist
ide red
Ġdes c
Ġend ure
Ġfind s
Ġret urn
k now
ing dom
ul ty
ĠC on
pt om
Ġle g
ĠP r
Ġsym ptom
Ġconst ant
IT Y
Ġsacri fic
ĠÃ¦sthe tic
k en
s ide
u ne
en ced
Ġb as
Ġh o
Ġf ather
Ġp osition
Ġd ie
Ġd ark
qu e
ir th
Ġall ow
ĠS h
ĠS uch
um an
ĠP aul
cept ion
Ġimmedi ately
Ġsle ep
E L
p ir
u se
Ġ i
Ġf ra
Ġe ag
Ġbe ast
Ġex cess
Ġwor ks
Ġk new
Ġmor als
pre hens
Ġam ount
Ġexist ed
Ġbecom ing
Ġsch ol
Ġener gy
e ch
Ġt erm
Ġw ick
Ġp et
Ġd uring
all ed
ous ly
am es
Ġwor st
ast ic
Ġsp ite
Ġcons idered
Ġmatter s
Ġdef inite
Ġdom ain
Ġsch o
Ġvict ory
Ġessent ial
O W
c uli
e av
o lish
Ġc ross
Ġf ig
ri e
ĠW H
Ġpre jud
ĠO f
Ġle ft
ĠP ro
Ġr ound
Ġ1 2
ie ld
Ġend eav
Ġuse ful
Ġsent iment
U R
m iss
p or
t im
u ine
at ors
Ġm onst
Ġd er
Ġli ved
Ġme et
Ġal though
Ġno ne
Ġcom fort
Ġatt ained
Ġabs urd
Ġele ment
Ġdisg ust
Ġeas ily
T H
b ar
o ot
Ġm er
Ġl ower
Ġye ar
Ġfoll ow
Ġconst itut
Ġrel ations
Ġprev ail
Ġphenomen a
Ġcaus es
stand ing
Ġpoli tic
Ġt ort
it ation
Ġh id
Ġc ow
Ġha p
ur ies
Ġar g
ĠP e
Ġus ed
Ġpe culi
Ġgr own
Ġcl aim
Ġgo es
Ġdist rust
Ġwis hed
Ġlaw s
Ġpriest s
Ġbeh old
Ġwr ong
Ġwa it
Ġthous and
at he
Ġc oll
Ġd ays
Ġbe ings
ce nd
Ġfor ces
Ġst ra
ner s
tern al
Ġpsycholog y
Ġclass es
Ġvis ion
Ġhistor ical
a pe
ne st
Ġt ask
Ġh op
Ġf ight
Ġp ati
ct ions
Ġl u
th ren
Ġst e
ac le
ru d
Ġsp here
Ġun f
Ġgr ound
Ġdec l
Ġbr other
Ġgen uine
Ġpriv ile
I G
f ter
l and
r on
he th
ou se
Ġsu m
Ġsu pre
Ġone self
ĠB y
ort ion
Ġgr asp
AL L
Ġread y
ĠU n
Ġbre thren
Ġden y
ih il
Ġserv ice
Ġsuspic ion
oura ble
Ġswe et
Ġextre me
c ceed
Ġ X
is hes
Ġm ass
Ġf ac
Ġto ok
ou n
ic ation
Ġn on
Ġli mit
Ġde pend
ul s
ru ction
ĠP ower
Ġ1 3
Ġ1 9
Ġob lig
Ġide als
Ġro ot
Ġant it
Ġtend ency
Ġconcl usion
Ġcruel ty
I R
f er
r ay
v il
Ġb ird
Ġf ru
Ġd read
Ġre pe
Ġfor ward
Ġli ter
Ġsu cceed
ĠA m
Ġper fection
Ġlo gic
Ġch or
olog y
Ġstand ard
Ġspeak ing
Ġfoll ows
Ġresult s
Ġele v
ia lect
ĠJew ish
Ġans wer
Ġunivers al
Ġbas is
Ġw ent
Ġw illing
ic ian
Ġbe ar
as y
Ġg ot
Ġsh ows
os pe
ac hes
Ġpro ve
Ġcom ing
ap ter
ound ed
Ġ1 7
Ġob v
Ġcl oud
Ġstand point
Ġdisc over
Ġquest ions
Ġpain ful
Ġconcept s
RE E
Ġac cept
Ġconce aled
ĠNihili sm
i ling
p ic
Ġt est
Ġa ut
Ġm ed
Ġre ached
Ġst ud
Ġst one
Ġex ce
fe red
Ġso l
Ġso il
Ġ1 4
te red
Ġgu ard
Ġgu ilt
Ġconsequ ence
Ġmind s
Ġcharacter istic
Ġess ence
Ġpossess ion
Ġut ility
Ġcap able
Ġcar ry
Ġprim itive
Ġcontrad ict
Ġpop ular
Ġinnoc ence
Ġhap pened
Ġpeculi ar
o h
u ff
Ġt aught
Ġm ent
Ġso le
ĠG ood
Ġpo ison
Ġdis ci
ĠHe ll
Ġthink er
Ġdist ance
Ġent hus
Ġimm ort
ib ly
Ġorigin al
Ġsign ific
Ġimpul ses
Ġcontrad iction
Ġult imate
anch oly
Ġenthus i
g ain
r ation
Ġth ird
Ġd ialect
im ul
im ents
il s
ant ed
Ġfe et
ĠN OT
Ġ1 6
Ġdes ir
Ġstr ict
Ġdisc overed
Ġinde pend
ĠYe a
m p
x im
y n
Ġ line
ou ble
Ġd i
Ġg ave
Ġwe ary
Ġso c
ĠB E
ĠL e
Ġnature s
Ġjud ge
Ġentire ly
Ġsudden ly
Ġcorru ption
h ip
m n
u ct
ne th
er able
Ġf ash
Ġall owed
ro l
ĠH om
Ġpre p
Ġne r
Ġgood ness
Ġacc omp
Ġregard s
Ġgl or
Ġrel ation
Ġut ter
Ġcent uries
Ġcontin ually
Ġmid st
Ġformul a
Ġprob ably
Ġsimil ar
Ġsoc alled
o ke
is c
om m
ay er
Ġde t
Ġv ent
ac y
Ġpro gress
iv al
ĠP h
Ġgreat ness
Ġ1 5
Ġrem ained
Ġstrong est
Ġapp arent
Ġfo ol
Ġbegin s
Ġhealth y
Ġrecogn ised
Ġcomplete ly
ĠSu per
Ġann ihil
Ġdelic ate
tim es
Ġchor us
Ġthe ory
Ġm on
ar ies
Ġl ed
Ġl ate
ra ct
ch ie
Ġse ver
Ġpre ss
ĠO N
ĠD e
Ġmod e
Ġheart s
ĠOn ly
Ġpossess ed
Ġpract ice
Ġimport ance
Ġrequire s
Ġsuf fere
e ned
g n
o lic
re w
is p
Ġm ult
Ġf ast
Ġf un
Ġd rink
as ant
im ately
Ġg if
Ġst ood
Ġse x
ĠW ell
Ġper form
Ġch ance
Ġr ul
Ġye a
Ġ2 0
Ġdist ress
to gether
Ġcor re
Ġlau ght
Ġpoet s
Ġmount ains
Ġauth or
Ġsuffici ently
Ġshad ow
Ġtrad ition
ĠBudd h
Ġcow ard
s pect
in y
Ġs aint
at s
Ġm ali
Ġc red
le ction
Ġl and
ro p
Ġme m
Ġme ant
Ġpo st
Ġpro ved
ab les
Ġem b
av i
ix ed
Ġessent ially
gr ound
Ġet c
Ġvan ity
Ġheav y
Ġsolit ude
Ġexce ll
Ġsignific ance
g en
m s
li ed
Ġs an
Ġf ly
es c
Ġl ater
Ġex pect
Ġv it
Ġv ul
am p
ci ation
fe nd
Ġpro ceed
Ġim press
ĠN ew
Ġle ave
Ġam b
Ġra ces
Ġdec ay
Ġref ined
Ġrelig ions
Ġill ness
Ġsoci al
Ġdem and
Ġcontra st
Ġunc onscious
Ġfalse hood
Ġformer ly
Ġcrit icism
Ġtyp ical
Ġdistinct ion
ĠTr uth
Ġmel ancholy
ĠAr t
o b
Ġt aking
re nt
Ġd ance
Ġbe gan
Ġre n
Ġg ent
Ġas h
ul ous
ill ed
Ġal together
um n
Ġthere in
pt ed
ĠCh apter
Ġpr ote
ĠL i
Ġind if
one nt
ie ty
are s
Ġthink s
Ġwant s
IS T
Ġsuper st
lit ical
Ġreve rence
Ġwrit ten
Ġhonest y
Ġauth ority
Ġmetaphys ical
acher s
know n
h ib
Ġd an
Ġd ri
ed y
ci es
Ġres ist
Ġover come
Ġappe ared
Ġcomp ar
ress ed
Ġfo olish
Ġdream s
Ġmar ri
Ġexpl an
Ġmag n
Ġanti qu
Ġfash ion
Ġlaught er
i or
Ġs our
Ġs cept
qu is
se c
ut her
Ġar bit
ĠP ar
Ġmor bid
ĠL uther
Ġdes ign
Ġres ent
Ġsay ing
Ġtruth s
Ġunderstand ing
Ġdra ma
Ġworth y
Ġconv iction
Ġcivili s
Ġbreat h
Ġpet ty
I V
u ed
li est
Ġw alk
Ġp it
Ġn a
Ġl arge
Ġcon ne
Ġev ents
ĠM orality
Ġfact s
Ġear ly
Ġexperi enced
Ġfoll y
Ġvalu ation
rib ed
ĠNot hing
Ġcap acity
Ġsil ence
Ġbene ath
Ġdisg u
Ġtur ned
Ġ rom
is ion
Ġf ire
Ġn ames
as ing
Ġg one
Ġwe ar
Ġde al
Ġex per
ge l
us h
ali ng
Ġar ri
Ġr ate
Ġinst r
ĠL ET
ish ness
Ġpl ain
Ġ2 1
Ġsub st
Ġro ad
Ġlook s
atur al
ĠBe c
Ġeffect s
Ġimag ine
ĠEvery thing
Ġine x
Ġemot ion
Ġgrad ually
Ġash amed
e ed
g or
r ance
u ss
at ch
Ġf em
Ġp en
ot ten
le t
ri es
Ġse vere
Ġar d
Ġdis cip
ake th
Ġap art
we red
Ġser iously
Ġprinci ples
iz ed
Ġdep ths
Ġdevelop ed
Ġasce nd
Ġcal m
alis ed
Ġma j
Ġspr ing
Ġextra ord
Ġec st
Ġbit ter
Ġtyr ann
Ġhid den
Ġsupre me
ĠSuper man
b ed
i um
Ġa ck
Ġw ilt
ot est
as on
Ġas c
Ġhe ld
Ġsu gg
Ġpre t
Ġper ish
Ġlo ved
ili ar
Ġen c
ĠChristian s
Ġimp ro
Ġacc ustom
less ness
Ġgl ance
Ġconst it
Ġfo ot
Ġpie ce
Ġly ing
REE K
Ġack now
Ġsugg est
Ġ er
in ter
Ġm in
Ġm ut
Ġm ort
Ġc ost
Ġf r
Ġth ine
Ġre j
Ġan g
Ġor d
Ġun s
ud es
Ġact ivity
Ġspe ech
Ġca ve
Ġcall s
Ġopp onent
edi ence
Ġtrans l
ret ched
ES S
Ġes c
Ġconv in
unt ary
Ġsuffici ent
Ġbes ide
avi our
O S
Ġt ree
it able
Ġf als
Ġd aring
Ġn ations
Ġsh alt
ru n
Ġab st
ĠM OR
Ġsome times
Ġinto x
Ġbelie ves
Ġ2 3
Ġear nest
vers ion
Ġequ ally
Ġopin ions
Ġmot ives
Ġmain tain
Ġsurp r
Ġgloom y
Ġpolitic s
o le
v ity
y ss
Ġm ark
Ġas so
Ġfor bid
Ġan al
ra d
ĠS M
Ġthere of
Ġab yss
Ġr hy
Ġinst ead
Ġout side
ok en
Ġsa v
Ġinc om
Ġinc lud
Ġpers ons
ĠJ es
Ġem pl
Ġapp re
Ġsign s
Ġimag ination
Ġhigh ly
Ġevol ution
Ġeff ort
Ġarist ocratic
ĠLi ke
Ġantiqu ity
G REEK
l us
o x
u pp
w ay
en g
Ġto uch
ch an
Ġv en
il ed
ĠH er
Ġper mit
Ġpo litical
Ġlo se
ĠTh ose
Ġch urch
ĠF OR
ĠR en
ĠR ome
Ġexist s
are r
Ġcond uct
Ġru ling
Ġcomp an
Ġsim ple
fic ial
Ġproblem s
Ġjudg ments
Ġans wered
Ġphilosoph ical
Ġenv y
Ġcrim in
Ġvul gar
Ġgent le
ĠLET TER
ĠSM ALL
C T
O L
g ing
Ġs ad
Ġf right
Ġd w
Ġg az
ut ed
Ġst art
ĠA fter
if ying
op les
ant ic
ĠF oot
Ġtr ust
Ġcons ist
Ġob e
Ġob sc
ĠR E
Ġ2 2
Ġ2 6
Ġself s
Ġvirt uous
Ġimm oral
Ġill usion
Ġdire ct
Ġgrow th
Ġemot ions
Ġbar bar
R A
U S
n ote
w ill
Ġw ater
Ġb ig
Ġf our
Ġl ust
ur ity
Ġme chan
um ents
Ġ2 4
Ġ2 7
end ed
Ġbr ings
Ġneed ed
ĠEur ip
Ġpar ty
pres er
alist ic
Ġconcer ned
Ġlead s
Ġrecogn ise
Ġ18 8
Ġask ed
Ġult imately
Ġaim s
Ġfell ow
Ġexception al
Ġhyp ot
Ġpict ure
Ġestab lished
Ġign or
b s
c l
t ru
y r
Ġo pt
Ġw and
Ġf ing
Ġin gen
Ġe th
Ġst orm
Ġk ingdom
Ġar r
Ġfe ature
ud i
Ġtr y
Ġact or
pl ace
Ġdec line
aw n
Ġem an
Ġmis ery
Ġconst ra
Ġprinci p
Ġerr ors
Ġnob ility
Ġappro ach
Ġpop ul
Ġselfc ont
Ġintr odu
Ġstupid ity
Ġscho ol
Ġextraord inary
ĠFoot note
f ty
f ace
Ġt empt
Ġh ung
Ġp os
ar n
ar se
Ġre se
Ġst imul
pe t
us ed
Ġk n
ĠH ave
Ġsp oken
ag on
ĠM Y
Ġqu iet
ili t
Ġimp ati
Ġacc ident
Ġatt ention
the y
Ġthink ers
Ġhapp ens
Ġwhere ver
ĠJ ud
Ġinv est
Ġfre qu
Ġpsycholog ist
Ġvalu able
Ġspeci al
Ġsent iments
Ġperiod s
Ġparticular ly
Ġinnoc ent
Ġav oid
Ġclose ly
ĠRom an
Ġperce ive
Ġobv ious
Ġaccustom ed
I M
l ook
Ġ Ã
li er
Ġc our
Ġn ation
ur able
Ġst ar
ĠA gain
Ġlo g
Ġun known
Ġag ree
Ġmor ning
Ġpe oples
ens ive
Ġ2 8
Ġcertain ty
Ġetern ity
ĠDionys us
Ġmount ain
Ġego ism
Ġhence for
Ġdece ived
Ġdegener ation
ĠHell en
Ġcivilis ation
A S
b ur
f ig
Ġa li
he ad
Ġw retched
Ġm other
Ġp rud
Ġd ied
ĠI m
sel ess
Ġmo ck
Ġso oth
ol ation
Ġlo ves
Ġlo ath
Ġeven ing
ĠN E
Ġthan ks
lie f
oc re
Ġinstinct ive
Ġsee ks
Ġ2 5
Ġaw ake
Ġro b
Ġmis fort
Ġfoll owing
Ġetern ally
ĠĠĠĠĠĠĠĠ ĠĠĠĠĠĠĠĠ
ĠAl as
Ġeas y
Ġbli ss
Ġred u
Ġplac es
Ġnar row
Ġantit hesis
Ġlog ical
j ust
k es
k ing
z e
Ġa new
he t
Ġf le
ic ed
ce ly
Ġre nder
Ġas pect
Ġl aid
Ġan arch
ĠS ome
Ġun re
ort un
ish ing
ĠGod s
Ġsa ve
Ġ2 9
Ġrem ark
Ġinc lin
Ġcreat ures
Ġmast ers
Ġdep th
Ġbu ild
Ġsuperi ority
Ġacqu ire
Ġmedi ocre
Ġeduc ation
Ġrespons ible
ĠPe ople
Ġresent ment
Ġdiscip line
e per
Ġt al
Ġw all
at isf
st s
Ġn ote
Ġl eng
Ġse lect
Ġex hib
if ies
oc ra
Ġob edience
Ġhapp en
Ġthrough out
ĠJ ust
Ġte nder
Ġcome th
Ġinf inite
Ġwar m
Ġrel ated
Ġoppos ition
Ġconce al
Ġlau g
Ġmom ents
Ġdeep est
Ġcur ios
air s
Ġfat al
Ġbless ed
Ġmad ness
Ġmyst er
Ġast on
Ġexact ly
Ġdise ase
Ġeag er
Ġfru it
Ġmem ory
Ġexplan ation
Ġeman cip
a per
n atural
r ous
Ġ Q
Ġ vers
Ġa chie
in ity
Ġs ce
is ive
Ġh ur
Ġto t
Ġd ue
Ġre ach
Ġfor t
Ġint ention
Ġthere to
ĠE vil
ĠE pic
Ġus ually
Ġind ul
ĠD id
Ġen orm
ass ion
ie f
Ġrem em
Ġref lect
und ance
Ġsl ave
Ġele vation
Ġpoet ry
Ġdest ruction
fort un
Ġmar ty
Ġocc ur
unt arily
Ġbene f
Ġdecad ent
Ġdire ction
Ġtyp es
Ġcondem n
Ġmass es
Ġdisci ples
ĠHom er
Ġmarri age
Ġempl oy
T h
W hat
a pt
p ired
u c
an cy
le br
se au
Ġl a
ous seau
Ġsh ar
Ġlo nes
Ġsp read
ag ger
ĠP essim
Ġch o
Ġj e
Ġqu ick
ili ties
Ġpres upp
Ġsee ing
Ġself preser
Ġmusic ian
Ġimm ense
Ġwant ed
Ġcreat ing
Ġcreat ure
Ġadv ent
Ġant agon
Ġdem onst
Ġrequ ired
Ġsupp osed
Ġdest iny
Ġaff irm
Ġperfect ly
Ġprov ided
Ġenjoy ment
Ġinvent ed
Ġspect ator
Ġpessim ism
Ġgold en
Ġslow ly
prehens ible
rie f
Ġhop es
Ġindepend ent
Ġasso ci
E M
e em
l est
o z
r ated
Ġt ired
li ct
Ġm ater
Ġb old
Ġf it
Ġto ler
Ġre ce
Ġfor ced
th y
ay ing
ist er
ul f
pt uous
Ġim age
Ġevery body
ĠN ay
Ġknow ing
Ġad mit
Ġgr ows
ord s
Ġpers u
Ġent er
Ġlight ning
Ġsc ar
Ġconce ived
Ġunc ertain
Ġdesp air
ĠMan y
Ġmot ive
Ġfam ous
Ġexer cise
Ġgrat itude
ĠAm ong
Ġsour ce
ĠEurip ides
Ġinvest ig
Ġcurios ity
v est
v ous
Ġs light
on om
Ġb od
Ġd ign
im e
Ġu r
ir ing
Ġde press
Ġv o
Ġwor se
Ġpre fer
Ġne ar
ĠF rance
Ġact ive
Ġra d
Ġatt rib
the re
Ġbr id
Ġ3 0
Ġamong st
Ġdisc ourse
Ġsc orn
Ġadv ance
ĠU p
ĠBe yond
Ġwr ite
Ġce lebr
Ġobser ve
Ġhost ile
ĠSe e
Ġmisunder standing
Ġdeed s
Ġchang ed
Ġlab our
Ġrelations hip
Ġsan ct
Ġcompar ison
ocra cy
C H
m at
m ble
o ys
o ved
p id
p ri
Ã ¯
â Ģ
is ation
it ing
Ġb us
Ġf est
om ing
ich ard
Ġev idence
and al
ĠH ence
ive ness
Ġdis int
Ġcont ent
Ġind isp
Ġdes er
ĠR ousseau
Ġsub miss
Ġbl ack
Ġconc ern
Ġgl ad
Ġinf er
Ġins ight
Ġread ily
Ġview s
Ġrep udi
Ġsens ation
Ġpriest ly
Ġke pt
Ġprev ent
Ġpure ly
Ġfundament ally
Ġconsider ation
wor ld
Ġforg otten
Ġcheer ful
Ġconstant ly
Ġtort ure
Ġcoll ect
Ġstra ight
Ġprivile ge
Ġna Ã¯
ĠJes us
ĠPessim ism
âĢ ĵ
r ing
it udes
Ġm ask
ot ic
Ġre ward
Ġde l
ri be
Ġex al
ĠS aviour
Ġpre y
ĠP re
Ġfa ir
Ġen light
ĠR ichard
Ġposs ibility
Ġgo ing
Ġrec k
Ġser ve
Ġref er
Ġref lection
Ġafter wards
ER S
Ġdem ands
IT H
Ġdeep ly
Ġpract ical
Ġcal cul
alis ation
Ġimper ative
Ġhor ror
Ġplac ed
Ġcheer fulness
Ġcivili z
Ġexhaust ion
IG H
Ġmaj ority
Ġpopul ace
O P
f rom
Ġt en
Ġt or
Ġthe at
in ate
Ġs n
Ġto ne
Ġn ay
ĠT ra
Ġan x
ra id
Ġal as
us ions
ci ences
ĠS U
ali d
Ġpre d
ĠC ON
ĠN ever
Ġun less
ag ed
Ġr ic
ious ness
Ġcons ists
el s
Ġres er
Ġphil olog
Ġopp ortun
Ġperson ality
Ġread ing
Ġlear nt
Ġcle an
Ġobject ion
Ġest im
Ġsuf fered
Ġprejud ice
Ġdread ful
Ġmisfort une
a cious
c ourse
e c
o li
s ch
Ġt err
Ġs orrow
Ġb irth
Ġp ot
ic ated
le nd
Ġn ons
Ġre ference
Ġg ospe
ĠI S
il osop
Ġlo ne
Ġsome what
Ġart s
ign ation
Ġold er
Ġbet ray
les h
ĠV ol
Ġmis s
Ġwant eth
Ġpar ad
Ġlead ing
Ġinterest ing
Ġce ase
Ġfam ily
Ġsk in
Ġmodest y
Ġendeav our
Ġdesir able
ĠBuddh ism
ĠMOR AL
Ġhencefor th
Ġscar cely
B LE
U T
U ST
m al
he nd
it ate
Ġb ased
Ġf irm
Ġp ale
ar m
ar ian
Ġmo od
am ing
Ġdo st
Ġsh own
os p
em ent
ĠM e
ame ly
Ġcons um
Ġra pid
Ġend s
are st
Ġpers pect
ĠY es
Ġcomp ared
Ġlook ing
Ġconf idence
Ġsur r
Ġsmall est
Ġwr ote
Ġdep art
Ġfore ign
Ġgiv ing
Ġrepres ents
Ġprodu ced
Ġbu ilt
Ġadm ire
Ġhost ility
Ġsatisf action
Ġfan atic
ĠInd eed
Ġwick edness
Ġarg ument
Ġfac ulty
C h
b re
Ġ verse
Ġh ang
Ġc ate
Ġc row
Ġf light
Ġf ixed
Ġf lesh
Ġp at
ot s
Ġd ig
om an
ĠT est
ver ted
Ġde fend
Ġex agger
ĠC H
Ġlo ft
ĠF a
Ġlong est
Ġspe aketh
Ġdes cend
Ġad op
ens ion
Ġposs ibly
Ġra ise
Ġaf fect
ck ed
sequ ently
Ġtrans fig
ĠEurope ans
Ġpossess es
Ġsupp ose
Ġprofound ly
Ġden ial
Ġunc ond
Ġco arse
Ġprop ortion
Ġgre w
asm uch
Ġdomin ion
Ġexcess ive
Ġfig ure
Ġpati ence
Ġinstr ument
Ġesc ape
Ġopt im
V E
X X
c est
e enth
g l
h o
o int
r ate
v ative
Ġ ice
er ation
Ġb an
Ġb ow
Ġc li
an im
ri an
Ġy ield
Ġwor ship
Ġlo fty
Ġun fortun
iv ing
Ġch oice
ĠCh andal
Ġpr ice
Ġob st
Ġdec isive
Ġdif ference
Ġ3 1
Ġ3 4
Ġ3 7
te re
Ġru in
lic ity
Ġinter course
Ġass ert
Ġsl aves
Ġconf ess
Ġcle ver
Ġnatur ally
Ġsick ness
Ġvict or
Ġgre gar
Ġmist ake
Ġexhaust ed
Ġcompe lled
Ġsacrific es
Ġlaug hed
Ġenorm ous
ĠnaÃ¯ ve
Ġexal ted
P P
c ad
i ent
i able
v ent
Ġt ong
he m
Ġs on
Ġs qu
at tle
Ġm ild
Ġc ut
Ġp al
Ġp ious
Ġd ying
st ood
ar ant
Ġli on
ain ts
Ġup right
ĠP asc
ĠF in
Ġtr ouble
rist ian
Ġob tain
irt ue
Ġrem ind
Ġpass ed
Ġ3 2
Ġ3 3
Ġwhere as
Ġser p
Ġgener ation
Ġfoll owed
Ġrel ative
AT ION
Ġele ments
Ġphys ical
Ġir re
Ġir rit
Ġbene vol
Ġclear ly
Ġacqu ired
Ġadm ir
Ġassum e
Ġviol ent
Ġexer c
Ġleg s
Ġwick ed
Ġoblig ed
Ġment al
ĠBec ause
Ġrhy th
Ġven ge
Ġcrimin al
Ġloath ing
Ġleng th
Ġshar p
ĠChandal a
O D
U L
a x
f ied
m atic
o red
line d
re quis
Ġw ays
nd ered
en cies
Ġb right
Ġf ood
ou nce
Ġd Ã©
Ġe ight
Ġbe g
al ous
Ġre ali
Ġhe s
Ġhe ll
Ġst op
ĠA re
est s
Ġse as
Ġse arch
Ġal tru
os en
ast s
Ġpre requis
ac les
pp ed
ĠN ap
ĠE m
Ġle vel
Ġdis ch
Ġr is
Ġqu ar
ĠIt s
Ġpres um
pl ay
Ġsa ith
Ġrem ote
Ġdist ur
Ġdist ant
Ġinc ap
Ġear lier
Ġpur s
Ġsl and
ĠOn ce
Ġsuper ficial
ha pp
Ġprom ise
vol ution
OU R
Ġrid dle
Ġma xim
Ġhabit s
Ġfam iliar
Ġimmedi ate
Ġmel ody
Ġincre ase
Ġserious ness
Ġlist en
Ġrespons ibility
Ġdestroy ed
Ġug ly
Ġconstitut es
athe tic
Ġindif ferent
ĠHellen ic
Ġlones ome
Ġgregar ious
R I
c ks
l ling
Ġt it
on ic
Ġh ouse
Ġp ort
ou nder
Ġd run
al cul
ur re
ĠA ph
Ġmo b
ro s
Ġv ice
Ġwho lly
Ġsh ip
ast er
ant om
ant icism
Ġch ief
ower s
og ue
Ġatt itudes
Ġins pired
Ġher self
ere r
Ġrep ose
Ġsens itive
Ġest eem
Ġdep ri
Ġcontin ue
Ġdesp ise
ix t
Ġinterpre ted
Ġstri ve
Ġbur den
Ġbot ched
Ġinj ury
Ġsymb ol
Ġtem per
Ġdeterm ined
Ġdece ive
Ġsatisf ied
Ġchang es
Ġcontempl ation
Ġmir ror
Ġdistingu ished
Ġlu x
Ġsole mn
Ġcred it
Ġsuperst ition
Ġdign ity
Ġbus iness
ĠTest ament
ĠNap ole
A K
D E
a iss
r ough
ne ver
Ġt ables
in ce
is dom
Ġm ill
Ġp ay
Ġd are
ll ow
Ġre b
ld om
ra in
ra ce
Ġwe ight
Ġde ar
pe ak
Ġwho ever
ĠS el
Ġpre c
ili ght
ĠHe gel
Ġover fl
Ġinstinct ively
Ġ3 5
Ġ3 6
Ġopp ressed
empt ion
Ġgl ory
ĠThere fore
Ġbad ly
Ġcreat or
Ġcreat ive
Ġple asant
Ġadv oc
Ġsupp ort
Ġhard ly
Ġexpl ain
Ġexpl ained
Ġve ner
Ġcrit ic
Ġvict im
Ġri pe
Ġdeterm ine
val uation
Ġbro ken
Ġthous ands
Ġlow est
Ġmethod s
Ġrepe at
Ġelev ated
Ġconstit ute
Ġterr or
ĠPasc al
aiss ance
e gr
h ow
h old
u ated
u ber
ne y
Ġc ity
Ġto ld
ot ed
st hat
ĠT w
Ġcon j
ĠA rist
ous ness
Ġper pet
Ġmore over
Ġun w
Ġr an
Ġout come
ok ed
Ġsuff ers
Ġte ars
Ġins pire
Ġgra ce
RE AT
Ġess ay
ĠK now
Ġreal m
Ġhead s
Ġcontempt ible
Ġpath os
Ġdiffic ulty
Ġnob ody
Ġsure ly
ĠTr ans
Ġdegener ate
Ġwit ness
Ġec onom
Ġsepar ate
Ġsedu ctive
Ġwonder ful
Ġschol ar
Ġaccomp an
Ġarbit rary
Ġconne ction
Ġwear iness
Ġecst asy
Ġobsc ure
Ġignor ance
Ġquick ly
ĠNapole on
E AR
a h
m ity
n ature
y e
Ġ ed
Ġw ound
at ory
it ated
on ment
Ġf if
st er
st ic
Ġre vel
Ġg h
ver ty
Ġwe l
Ġwe alth
ĠA b
Ġde eper
ĠThe ir
Ġse ldom
Ġv ast
ĠW ould
op h
ac es
Ġpo verty
Ġlo ss
ĠN e
ĠN or
ĠE n
ĠP ars
ling s
Ġpr ay
ĠL o
Ġtim id
Ġqu ality
ition al
Ġsa ge
Ġgr anted
Ġself ishness
Ġcl um
ord ial
Ġaf raid
Ġmus ical
Ġrec on
ĠY et
te enth
Ġte achers
Ġread er
Ġexpress ed
Ġconce ive
ES T
po ch
Ġaff li
Ġcur se
ĠSocr atic
Ġappro pri
Ġmid dle
Ġattempt s
Ġmanifest s
wor k
wh ich
Ġcustom s
Ġfan cy
Ġcol our
Ġintr ins
Ġliber ty
pir ation
Ġschol ars
por ary
Ġprep ared
Ġamb ition
Ġopponent s
Ġinclud ing
ĠRen aissance
Ġprincip al
ĠJud a
Ġje alous
Ġindisp ens
ĠTra gedy
Ġcrow d
ĠFin ally
Ġrhyth m
h uman
o very
u ptuous
Ġt able
Ġa ud
in it
Ġw ide
Ġw inter
Ġs aints
Ġf ant
Ġin her
Ġin asmuch
Ġd am
ar i
Ġas ide
Ġsu s
ri pt
ri ption
ci li
Ġso vere
ĠS c
ĠO ut
ĠM oral
Ġfa ult
Ġag o
Ġr ing
ict ions
ĠTH AT
Ġpass age
Ġref ine
Ġfriend ship
Ġdifferent ly
Ġbel ow
Ġimag ined
Ġfull y
Ġoff er
Ġget s
Ġhonour s
Ġid ent
Ġpath s
Ġturn s
Ġcount ry
ĠSu pp
Ġbro ad
Ġfell ows
wh o
Ġmisunder stood
Ġviol ence
Ġcrim e
Ġpict ures
Ġconqu er
Ġsucceed ed
Ġenthusi asm
Ġner vous
Ġannihil ation
Ġsever ity
Ġsuffere r
Ġexper iment
Ġmort al
Ġrej o
Ġord inary
Ġforbid den
Ġobe y
Ġmarty r
Ġserp ent
Ġsovere ign
B e
V ER
i ated
l ong
m in
m on
o on
w he
Ġin ward
or ous
al es
ut ation
ct ure
ĠI T
th ink
Ġan cest
ch or
Ġwe ap
ĠA nt
Ġde b
Ġv ig
ĠW E
ĠW as
Ġor g
ine nt
Ġar ises
ĠE x
ĠM AN
Ġam id
ĠD E
less ly
Ġthr ow
Ġinc lined
Ġem p
Ġculture d
Ġsur v
Ġsens uality
of t
Ġaccord ance
Ġsupp ress
iz e
Ġden ied
Ġwr ath
Ġuni verse
Ġstep s
Ġsound s
Ġdut ies
Ġvol untary
Ġsubtle ty
ĠApoll o
Ġspect acle
wh ile
Ġinvol untarily
Ġsurp ass
Ġcondem ned
oun ced
Ġdialect ics
Ġdan cing
Ġhypot hesis
Ġsooth s
Ġmater ial
Ġvenge ance
ĠSel f
A Y
A IN
a f
f ather
i ver
m ed
r ays
u it
Ġw ine
at ives
en n
Ġb ase
Ġh om
Ġp aid
Ġth reat
Ġto nes
Ġd awn
Ġl ad
ur rence
Ġnot ions
Ġst ro
Ġall e
ĠA N
ul ated
Ġex uber
ĠW ITH
ter ior
Ġso ft
et ter
Ġper ception
ĠB ay
Ġcom pl
Ġsp o
Ġsp ace
Ġle aves
Ġch ast
Ġch osen
ĠM ay
Ġcont ains
Ġen ch
Ġca ut
Ġself d
Ġreg ular
Ġpart ly
ĠWag ne
Ġ3 8
Ġpresent ed
Ġstand ing
Ġsc ale
Ġunderstand s
Ġtru ly
Ġearth ly
Ġwrit ings
Ġsymb ols
Ġbra in
Ġmist rust
Ġhold s
ĠSp irit
Ġtransform ed
Ġstud y
Ġapparent ly
Ġexcell ence
Ġscept icism
Ġsubst ance
ĠÃ Ĩ
ĠAgain st
Ġsubmiss ion
A M
G E
c r
g ence
k ed
o qu
s on
u ck
Ã ¼
ne an
li d
it ious
Ġf il
or ism
Ġe cc
le an
Ġis ol
Ġn ine
Ġg ame
ct s
ur s
id ious
Ġde fect
est ion
Ġex ceed
Ġal ter
us hing
am b
ĠH im
ant ing
Ġun ity
art ed
Ġcons cient
Ġspe c
Ġdes ired
Ġbelie ving
Ġgr ate
olog ical
Ġra b
Ġsub ter
end s
Ġinc alcul
ĠTo o
Ġaw are
Ġem ph
Ġsec urity
Ġimm orality
Ġstre t
Ġstre am
Ġprof ess
Ġdiv ined
Ġdem ocratic
AT H
Ġsuper fl
Ġmast ery
Ġpassion ate
Ġocc up
Ġreve aled
Ġcaus ed
Ġcar ried
Ġstri ving
Ġrepresent ed
Ġsymb olic
Ġine v
Ġpessim istic
Ġune x
Ġtheolog ians
EL F
Ġbeast s
Ġimmort ality
Ġmult itude
Ġimpress ion
Ġacknow led
Ġearnest ness
Ġremark able
atisf ied
ĠQ u
Th ou
Ġciviliz ation
ĠdÃ© cad
Ġindispens able
Ġemp ty
Ġsuperfl uous
A nd
a ire
d ra
o v
p ed
w in
y ra
ne tr
Ġt ill
in oz
re sh
Ġs en
is y
at t
it ating
Ġth ro
Ġth under
ar f
Ġn ational
Ġan chor
Ġsu spect
Ġal tern
Ġal oft
il ty
ĠG reat
os m
ĠH app
Ġno ise
Ġpre ach
ĠB ra
Ġim itation
ĠO UR
Ġcom prehens
Ġun le
Ġun able
Ġun happ
ĠM ore
ort ed
so oth
Ġind u
Ġqu ant
Ġcons id
one y
Ġca ution
Ġacc ess
Ġacc um
un ning
Ġjust ified
Ġsee keth
oll ect
Ġexist ing
Ġrec ollect
Ġintellect uality
Ġinter rog
Ġpoint s
Ġfound ation
Ġsur m
be ing
Ġequ ality
Ġtri ed
Ġprofound est
ĠSo ci
Ġcaus ality
Ġfav ourable
Ġfat ig
Ġtre asure
Ġhero es
Ġbra ve
Ġcra ving
ug n
Ġpie ty
Ġsuspic ious
Ġmisunder stand
Ġheight s
Ġcol ours
Ġsymptom s
ĠWH AT
Ġsol ution
Ġfun ction
Ġfem in
Ġard ent
Ġang ry
Ġconstra int
Ġcour t
Ġenlight en
G od
a it
c on
e ne
h ist
i vers
p ie
s ome
Ġt ast
Ġo d
Ġm ach
Ġb id
Ġc op
Ġc ried
Ġf ond
Ġd im
ic ious
le x
om ach
Ġwh is
Ġfor sooth
ur ious
ra p
ra nean
Ġst omach
ĠA L
if al
Ġdo or
ĠS T
ĠH as
Ġpro c
Ġim pe
Ġar ise
Ġcom pre
Ġab ility
ĠP R
ĠP RE
ĠM us
Ġr ational
Ġpe netr
un ciation
Ġdec ided
Ġbet rays
Ġbr ut
ĠY our
Ġcomp rom
Ġcomp assion
Ġsec re
Ġread ers
Ġ4 1
Ġexpress es
Ġsur face
Ġback wards
Ġjud ged
Ġdem on
Ġput ting
Ġclass ical
Ġprom ises
Ġco ol
Ġprop osition
mb s
Ġcur rent
OU S
Ġdire cted
Ġseek ing
Ġma id
itut ions
Ġlaugh ing
Ġmeasure s
ĠSp inoz
Ġincre asing
Ġtur ning
Ġrevol ution
Ġdecl ared
Ġbird s
Ġvent ure
Ġsex ual
Ġagree able
Ġprud ence
Ġmyster ious
Ġrad ical
Ġopportun ity
Ġnons ense
Ch ristian
Ġtong ue
urre ction
U E
a ff
h and
n amely
o ven
v i
Ġt ension
re p
Ġs ix
it ioned
Ġb ri
Ġh unt
Ġf ol
Ġf ive
Ġf ulf
an ced
Ġd a
ent al
ut able
ir l
ir onment
Ġst ars
Ġli ps
Ġall to
ak ed
Ġk ne
Ġk ings
Ġsh ut
um e
Ġpre par
ant ly
Ġpo is
ĠO ld
ag an
Ġwhen ce
Ġart ific
Ġdes ert
ang ers
Ġover c
Ġyour self
Ġrec omm
Ġwhere by
here nt
Ġbl ame
Ġsec ure
ib ilities
Ġ4 2
Ġsin s
Ġfl our
Ġgu ilty
Ġrep ro
Ġrep ugn
ĠBe ing
Ġsuper ab
Ġobject ive
EN CE
Ġsick ly
mb ling
Ġinterest s
ĠRe volution
Ġid i
Ġred emption
Ġsk y
Ġmetaphys ics
Ġenv ironment
Ġintellig ence
Ġterm s
uls ion
Ġliter ature
ĠON E
Ġgif t
Ġcoward ly
Ġfr ont
Ġtransl ated
Ġinclin ation
ĠEpic ur
Ġbrid ge
Ġdisint erest
ĠPars ifal
init self
A C
L D
c onst
i og
n ight
o e
p r
Ġb al
Ġh int
Ġf asc
es p
Ġin qu
or able
Ġd ust
ic ate
ar win
Ġn ut
Ġg ard
ver age
Ġde pre
ul ation
ul ate
ill er
am ount
ol ution
ĠG r
ĠS P
ĠS cience
Ġno vel
pt ure
ther n
Ġar m
Ġab and
Ġun m
ĠTh y
ĠTh rough
Ġdis h
ĠM en
Ġtr oub
Ġinst itutions
ĠL aw
og y
Ġad apt
Ġgr owing
Ġself de
Ġtra ining
Ġpers ist
Ġmake th
Ġser ies
Ġsm ell
Ġ4 3
Ġ4 5
Ġmight y
Ġgu ess
Ġconf lict
Ġpsycholog ists
Ġrest s
Ġden ies
Ġfore st
Ġmanner s
Ġaff airs
Ġid ios
Ġsucc umb
Ġvis ible
Ġorgan ic
Ġcorru pted
Ġexp edi
Ġharm ony
Ġsimil arly
Ġdraw n
Ġbes ides
Ġoper a
Ġdeli ver
Ġoccasion ally
Ġprejud ices
Ġconstitut ed
Ġimmort al
Ġstrict ly
Ġline s
ĠPh ilosop
Ġvit ality
ĠPar is
Ġdisgu ise
Ġrom antic
Ġgaz e
Ġsce ne
Ġdel usion
Ġprerequis ite
Ġmill enn
Ġsooths ayer
ĠWagne rian
dra w
ĠSpinoz a
Ġidios yn
F F
V II
h is
in th
re uth
Ġs ke
nd s
Ġh ot
ou l
ou rage
Ġd ouble
ic ians
Ġe poch
se t
ve ll
Ġre act
Ġre ndered
im p
im il
ent y
Ġl ot
Ġan ger
ĠW or
Ġk ing
ĠS oph
ine nce
Ġsp lend
ĠM or
ĠM ust
Ġsa ved
Ġjust ification
Ġjust ify
Ġra ised
Ġhum ility
Ġregard ing
Ġpart s
Ġ3 9
Ġte acher
Ġinv ention
Ġsm ile
Ġgra vity
Ġconcept ions
Ġ4 0
Ġ4 4
ĠĠĠĠĠĠ Ġ
Ġsens ations
Ġfre sh
Ġhon oured
Ġhon ourable
sp ond
AN S
Ġest imate
Ġdef ence
ĠWith out
Ġret ur
ail s
ĠSt ate
Ġcal ling
AR D
Ġrun s
Ġobser ved
Ġdisp osition
Ġconcl usions
Ġbless edness
Ġfall en
Ġwo e
Ġproper ty
Ġorgan ism
wor thy
Ġvol uptuous
Ġmonst rous
Ġpati ent
Ġcloud s
Ġfun ctions
Ġrul es
Ġcorre spond
Ġexcell ent
Ġresist ance
Ġconvin ced
Ġcelebr ated
Ġtheat re
oli sm
Ġmiss ion
Ġreali se
Ġdistur b
Ġdrun ken
Ġrefine ment
ĠBay reuth
Ġcompre hend
Ġidiosyn cr
L Y
f are
l li
o ble
r ical
Ġ Z
in ating
re es
re ation
Ġc ro
Ġc unning
Ġf er
Ġin ternal
an ity
Ġd ull
Ġd edu
Ġbe w
as ks
Ġre alised
Ġg ar
Ġg ain
ver t
Ġhe red
ur ation
Ġan tic
ri um
Ġex ec
ust ice
ĠG ospe
um erable
ard s
Ġpre gn
ĠC ertain
Ġne xt
pp er
Ġlo ving
Ġun natural
Ġdis play
ĠM E
so ever
Ġpr od
Ġcont rol
ĠL O
ĠD arwin
Ġact ors
Ġcons olation
Ġen ig
ĠWh atever
ang ed
Ġpl ays
Ġsub mit
Ġtra vel
Ġhum ble
hes es
Ġinc arn
sh i
Ġte eth
Ġdisc l
Ġwant on
Ġple be
Ġtrans cend
Ġpar as
Ġsur re
ĠBe eth
Ġdra g
ĠIs ra
Ġut most
Ġjoy ful
Ġexcept ions
Ġdesp ised
Ġexpl o
Ġsent ence
Ġ18 7
Ġnob lest
Ġmist aken
Ġsystem s
Ġmag ic
Ġcount en
Ġimper son
Ġproper ly
ĠDo es
with standing
Ġintellig ible
Ġpreser vation
Ġsacrific ed
Ġeag le
Ġcorre ct
Ġbitter ness
Ġacknow ledge
Ġmut ual
Ġpermit ted
Ġfing ers
Ġselfcont rol
Ġtal ent
Ġremem ber
Ġcho ose
Ġdepress ion
ĠVol t
Ġparad ox
Ġperspect ive
nature d
Ġchast ity
ĠEpicur us
Ġantic ip
U M
i o
t hen
u ge
v ag
Ġ z
Ġa we
Ġa like
in c
re st
re edom
Ġs ink
Ġs igh
Ġh ide
Ġh ours
Ġh oney
Ġc osm
Ġf ill
Ġf ount
Ġf urn
Ġth ri
Ġd iet
ll s
ĠĠ Ġ
ly mp
Ġre v
Ġre ject
Ġg est
Ġg ate
ut ions
ĠI nt
Ġhe ir
th ou
ith yra
Ġnot withstanding
Ġst ory
ĠA cc
est er
Ġse ts
ĠW isdom
fe e
ĠG en
Ġsh are
Ġint ended
Ġpre cept
Ġpre ced
Ġpre po
Ġwhe never
Ġpro ves
ĠO lymp
Ġab undance
ap se
ap pe
able ness
Ġpr ot
Ġthan k
Ġph antom
Ġunder t
Ġob t
Ġimp art
ys is
Ġra ge
Ġbecome th
Ġwell being
ĠFor mer
Ġte xt
Ġte aches
Ġdisc er
Ġwis est
fic i
Ġfl atter
ĠSch iller
Ġdev ised
form ation
Ġsupp osing
Ġfore ground
Ġcare fully
Ġir on
Ġcal umn
Ġprodu ce
Ġtre m
Ġinj ustice
Ġmag ician
Ġinner most
Ġrare ly
IL L
Ġextra vag
Ġsong s
Ġestab lish
Ġdeli ber
Ġintellig ent
Ġneg ation
cer ning
Ġlimit s
Ġsever al
Ġexpect ed
Ġmagn ific
gor ical
Ġsav age
Ġincom prehensible
Ġappre ci
Ġeffort s
Ġfing er
Ġfrequ ently
Ġemploy ed
Ġantagon ism
Ġbod ies
Ġsurr ound
ĠEm pire
Ġtit le
Ġsus cept
ĠÃĨ sch
Ġsubter ranean
Ġincalcul able
Ġprod ig
ĠBeeth oven
ĠIsra el
ĠVolt aire
ĠFormer ly
A ST
a very
b b
b ly
b orn
f all
g ent
m ane
m osp
o es
o ff
s ed
Â ł
Ġa id
Ġa verage
he ld
Ġs ag
Ġof fered
Ġm aint
Ġb ed
or ic
Ġto u
Ġd ow
Ġbe ars
Ġbe aring
Ġn our
Ġre de
ĠI de
Ġl est
Ġst ages
ĠA d
if f
us hed
et s
Ġint ent
ac ri
Ġpo em
ru ctive
Ġar rog
Ġevery one
Ġun be
ĠE X
ĠE d
Ġle ap
Ġgreat ly
Ġany one
ĠL ove
ult ure
Ġpl an
Ġpres c
Ġsel fe
Ġtruth fulness
to fore
Ġappe al
Ġaw aken
Ġright ly
Ġinv alid
ĠV irtue
Ġapp lies
Ġapp lied
Ġins piration
Ġgener ations
Ġgu arant
Ġwar ri
Ġpar al
Ġback ward
Ġback ground
ĠU N
up on
AN T
Ġunc lean
Ġimag inary
Ġcontin ual
Ġprom pt
Ġaff ord
Ġbur st
ET H
Ġmid night
Ġobser vation
Ġtend encies
Ġri g
Ġneg ative
ĠCon cerning
Ġfra g
Ġnone nt
Ġlimit ed
Ġroot s
Ġner ves
Ġcoward ice
Ġindif ference
Ġcompan y
Ġdw ell
Ġmechan ical
Ġachie ved
Ġpersu ade
Ġeight eenth
Ġrab ble
Ġenlighten ment
Ġbri lli
const itut
Ġmillenn ium
Ġske pt
Ġplebe ian
Ġmaint ained
Ġrede em
C I
E A
a iling
g ard
k y
r ich
w ixt
Ġo h
it ement
Ġb attle
Ġp in
Ġin sc
ed ing
Ġe at
Ġe ase
le y
al d
Ġwh ite
Ġg rief
ver n
ay ed
ch ance
her s
ĠA R
ĠA S
ain ted
Ġex ternal
Ġat mosp
if t
Ġso ld
ĠG REAT
Ġpre achers
ĠC rit
Ġthere from
Ġper mane
Ġne arer
ĠN ote
Ġdis ag
Ġdis app
ort ions
Ġpr on
Ġind ication
el ling
ign ific
Ġold est
ER E
akes pe
Ġins ist
Ġins ignific
Ġorigin ally
Ġ4 6
Ġabs or
Ġfl ow
Ġconf ound
Ġel oqu
Ġobject s
uous ly
Ġlack s
Ġnor mal
Ġhard est
verse ly
Ġfore most
Ġexc l
Ġdoctri nes
Ġmanifest ed
Ġorgan isation
ĠWhere ver
Ġadvant ages
Ġdog ma
Ġinvol ved
Ġsuccess ful
Ġpie ces
Ġassum ption
Ġspr ang
Ġhor iz
Ġbreak s
Ġhyp ocr
Ġmyst ery
Ġrevol t
Ġcomb at
Ġconqu est
ĠSh ould
Ġdistrust ful
Ġwilling ly
Ġaut umn
Ġtyrann y
Ġabst ract
Ġintox ication
Ġsurpr ise
Ġarr ange
Ġintrodu ced
Ġhung er
Ġpos itive
Ġredu ced
Ġfle e
Ġwall s
Ġbenef it
Ġselfpreser vation
Ġincap able
ĠJuda ism
Ġancest ors
Ġgrate ful
ĠBra h
Ġinterrog ation
Ġprepo nder
' ll
G H
i ers
l ated
r ict
ne ous
Ġo pened
re ed
Ġw ings
Ġs ciences
is er
Ġof fend
Ġm ention
Ġm ilit
Ġc ree
Ġc aste
Ġc ere
Ġc lim
Ġf ix
Ġp omp
Ġin most
ot he
Ġd ro
ic ide
ic ating
Ġwh ither
as ies
Ġre lief
ich rist
ra cted
Ġwe ather
Ġcon form
Ġall ows
Ġde em
ad ed
ge th
Ġk ill
ĠS E
ĠS to
ĠC om
ĠC OM
Ġlo ver
Ġpro ced
Ġour s
Ġun he
ĠF R
Ġpl ant
Ġover look
Ġrem edy
Ġsy nt
Ġmusic ians
Ġent ertain
Ġro om
Ġcomp are
Ġimm or
Ġwork ing
Ġbest ow
Ġcreat es
IS M
Ġple ase
Ġconf ron
Ġconf ounded
oub ted
Ġtri b
AN D
Ġcirc le
Ġstru ck
Ġdesp ite
Ġprop ag
Ġgre en
Ġprim ordial
Ġmove ments
Ġcourage ous
Ġce ased
Ġrid ic
Ġhero ic
Ġimper fect
Ġadd ed
Ġkeep ing
Ġfine st
Ġspect ators
Ġharm ful
Ġcounter p
Ġcounter fe
Ġmir acle
Ġdistingu ishes
Ġug liness
Ġtreat ed
ĠSh akespe
Ġdepend ent
Ġmed ic
Ġenthusi astic
Ġsuffere rs
Ġgif ts
Ġarbit r
Ġimpro ve
Ġmark et
Ġali en
Ġali ve
Ġaston ishment
Ġadvent ure
EM P
Ġreser ved
Ġpot ent
Ġadmir ation
ĠKnow ledge
ĠSupp osing
Ġnine teenth
pie ce
ĠMus ic
Ġda ily
iog rap
ĠAcc ord
Ġmagnific ent
Ġnonent ity
Ġmillennium s
U RE
a ine
a ving
e x
m as
p her
t eth
u x
v ant
at a
Ġm il
Ġb ind
Ġh ind
Ġc over
Ġin it
Ġin ability
ot ion
Ġd on
Ġd ict
Ġre aches
Ġha ir
Ġst at
Ġwith draw
Ġde arly
Ġmo on
ter ing
us es
Ġwor shi
our n
os er
ĠC an
Ġne arly
ĠO ri
Ġcom edy
ap ed
Ġwould st
Ġany body
Ġind ust
Ġgood natured
ĠWh ile
oc rit
Ġimp ot
Ġimp over
Ġacc ur
Ġspirit u
Ġsa fe
Ġsub t
Ġhere tofore
Ġcomp osed
Ġgra ve
Ġpra ised
IS E
Ġfoll owers
Ġfl ame
Ġsl avery
Ġrep ly
Ġweak er
ĠU nder
Ġfo ols
Ġput s
sp irit
Ġvalu ing
iz ing
Ġhard ness
Ġstru cture
Ġprev ious
Ġshe pher
Ġprom ised
Ġinn umerable
Ġcr own
Ġprop he
par able
Ġinflu ences
nera ble
Ġuni que
Ġprodu ct
Ġinterest ed
ĠRe lig
Ġmot ion
Ġwrit ing
Ġcre ation
Ġprocess es
Ġsymb olism
Ġprob able
Ġtyr ant
Ġwild er
Ġvar ious
Ġdise ased
ĠPr otest
Ġfig ures
Ġmonst er
Ġwait ing
Ġlu ck
Ġextreme ly
Ġaccept ed
Ġdisci ple
Ġutter ly
Ġpress ure
Ġprote ction
Ġdesign ated
Ġplain ly
Ġfrequ ent
Ġpresupp oses
Ġassoci ated
Ġvo ices
Ġgospe l
Ġsland er
Ġoverfl owing
Ġadvoc ate
ĠNe ither
Ġisol ated
Ġconscient ious
ithyra mb
Ġatmosp here
ĠShakespe are
Ġshepher d
I D
e ner
g ood
i ac
m ing
o is
t Ã©
Ã ¢
Ġa version
in ated
er ate
at tered
Ġh ier
Ġc ri
Ġc yn
Ġc atch
Ġp ortion
Ġth in
Ġe lim
le ad
Ġn igh
Ġn aught
Ġn ihili
ve red
ut es
ĠT ake
Ġas pire
Ġha z
id ity
id ents
ra ph
Ġcon sec
Ġli eth
Ġli mbs
ro se
ĠW he
Ġy es
Ġat he
ome the
Ġsh owing
os itions
ĠH A
ĠH uman
Ġpre dom
ĠC ons
ĠC ont
ath olic
ĠN O
Ġun self
Ġus ual
Ġdis ple
Ġr ation
Ġmor ally
Ġtr ick
Ġam bit
oc les
Ġform ed
erm an
Ġide alism
Ġover th
Ġbelie vers
ĠR ather
ĠR uss
Ġspirit uality
pl ess
Ġmod eration
Ġpresent day
Ġopp ress
Ġser ved
Ġref ute
Ġref rain
Ġcomp ens
Ġintellect s
Ġmis erable
Ġcult iv
Ġ4 8
Ġabs ence
Ġass ist
Ġdiv inity
Ġbre ast
Ġchild ish
Ġrespect able
Ġphys ician
ont ide
Ġdef in
Ġcontin ued
Ġprev iously
Ġexc lus
Ġrepresent ation
Ġfat ality
Ġdisp ense
ĠEng land
ĠWho ever
Ġdog s
Ġtriumph ant
Ġincre ased
rog ress
Ġattain s
Ġtell s
Ġfail ed
Ġtheolog ian
Ġperce ived
Ġdesc ription
Ġfather s
Ġclaim s
Ġcharacteristic s
Ġperform ed
Ġtradition al
Ġemb od
Ġren ounce
Ġprote ct
Ġconstit ution
Ġfright ful
Ġdw arf
Ġvers es
Ġselfpreser vative
ĠFa ust
Ġadop t
Ġaltru ism
Ġclum sy
ĠAnt ichrist
Ġecc les
Ġfemin ine
Ġdim in
ĠCertain ly
Ġcounten ance
Ġintent ions
constitut ed
Ġdisapp oint
N OW
a os
c ent
c ond
e e
f ers
g ra
l o
l ast
l au
m ind
n ings
p ower
u ing
u ity
li ty
re l
re r
Ġw ife
Ġs li
at um
it ary
it led
it ution
Ġb read
Ġb rief
Ġc ure
Ġc ove
Ġp our
Ġto w
Ġd ry
Ġd rop
st o
ic able
al ling
ly ing
Ġhe aring
Ġl at
Ġha m
Ġnot es
Ġnot ice
Ġst ing
od e
ĠA ug
Ġde ception
est he
Ġse m
Ġse lection
Ġex alt
Ġv on
Ġv ices
ĠW oman
Ġman ly
am ber
ĠG O
Ġsh owed
Ġsh rew
ali z
ast ers
Ġpre cious
Ġper sec
Ġper chance
ath om
Ġsp oke
ĠE r
ĠE ternal
iv able
Ġj u
ĠM id
Ġtr ying
ĠL XX
Ġind ignation
Ġgood will
one s
Ġow e
Ġide alists
Ġover t
Ġend uring
Ġdid st
Ġcomm ands
Ġmod es
ĠTHE RE
Ġent itled
Ġbl under
lic it
ĠV al
Ġreason ing
Ġins ati
Ġorigin ated
Ġ4 7
Ġef fe
EN D
ĠSchopenhauer ian
Ġcomple x
Ġconv ictions
Ġsimp licity
Ġclear ness
Ġcrit er
Ġfur the
Ġbu ng
Ġfall s
Ġcorru pt
Ġinvol ves
Ġinvol untary
Ġincre ases
Ġsatisf y
Ġspr ings
Ġlab yr
ĠBudd ha
Ġug liest
Ġnar c
Ġdesc ribed
ĠPr omethe
Ġmer it
Ġprevail s
Ġsum mer
uls ive
isc overed
Ġmali ce
Ġmali cious
Ġmali gn
Ġamb ig
Ġdisgu ised
Ġarri ve
Ġmin ute
Ġrej oice
Ġcompan ions
Ġimpati ent
Ġimpati ence
Ġachie ve
Ġdemonst rated
Ġattrib ute
Ġvictor ious
Ġdisch arge
Ġdepri ved
Ġaffli ction
whe l
Ġweap ons
Ġexuber ant
Ġcaut ious
Ġexceed ingly
Ġspec ific
Ġfatig ue
Ġsuperab undance
Ġtrem end
Ġinsignific ant
ĠFR OM
Ġconfron ted
oubted ly
Ġcounterp art
iograp hy
Ġwilder ness
F OR
S E
h um
i ast
k ward
o ing
s ight
t ical
y l
y al
Ã ¶
Ġt id
li ning
he arted
Ġw on
is ure
is ible
er d
Ġb ond
Ġf ame
Ġp up
or ation
or ies
ot es
ic ing
le ep
se e
Ġn aked
as aying
Ġre action
Ġg ained
Ġhe ed
Ġhe aling
Ġl ur
ra se
Ġst ead
Ġsu icide
ĠA T
Ġde ity
Ġse ized
Ġse vent
ad vant
Ġv ir
if orm
ure an
il st
ous es
Ġ' '
Ġwor m
ol ence
ĠS ince
ast ly
Ġno ontide
Ġpre ached
Ġpre lim
ĠB ible
ĠB ook
ĠB irth
Ġdis like
ĠF irst
Ġmor alist
Ġmor alists
ĠD is
Ġen ra
Ġen mity
Ġover whel
ars h
Ġstr ang
Ġnew sp
the se
Ġkind ness
Ġmus c
Ġfee ble
sh ine
Ġaw kward
ber t
Ġru ined
Ġbl ow
Ġfind ing
ON G
Ġwant ing
und ant
Ġquestion able
Ġconf usion
Ġant ip
ĠWhen ce
ĠBe fore
Ġobject ions
lit ion
ĠAt hen
rib es
Ġsun shine
Ġjudg es
Ġsing ular
Ġreve als
ĠRe c
Ġcrit ical
Ġstrugg les
Ġmanif old
Ġce ases
Ġtre es
Ġsymp athetic
IC E
Ġadd ition
Ġphilosoph ic
Ġselfc on
Ġav ail
Ġdomin ant
ĠRom ans
Ġevol ved
Ġcontempl ative
Ġign oble
pir ations
Ġprevail ed
Ġarg uments
Ġment ioned
Ġglor ious
Ġmult ip
Ġproceed s
Ġunconscious ly
Ġanal og
Ġingen ious
Ġfeature s
ĠIm m
Ġinclin ations
Ġemancip ation
Ġinfer ior
IGH T
Ġtor ment
Ġpat ri
Ġaffect ed
Ġrelative ly
Ġbenevol ence
Ġlux ury
Ġintrins ic
Ġorg ans
Ġemph as
Ġsen seless
Ġcomprehens ion
Ġnut r
Ġidiosyncr asy
Ġsurre nder
ester day
Ġobt ained
Ġhypocr isy
ĠAug ust
Ġshrew d
Ġnewsp aper
* *
H IL
L AT
N ESS
S ELF
c he
c her
r al
r um
u ish
w as
Å ĵ
Ġa rose
Ġthe ore
Ġw in
Ġw at
Ġw ag
is ers
it ic
it tle
it ative
it ably
Ġm atur
Ġc at
Ġf ro
Ġf ost
Ġp alt
Ġp arent
Ġp agan
Ġth ick
or se
Ġto m
Ġd u
Ġd ili
Ġd angers
ar iness
al esc
Ġg n
Ġg ru
ent ed
ĠI I
ĠI d
id ing
Ġst u
ch ing
ĠA RE
ĠA way
Ġmo ved
am iliar
ĠS he
our ge
Ġsh out
ali an
um es
ĠC atholic
Ġpro ject
ian ce
ĠO ther
Ġar ch
Ġun worthy
Ġle isure
Ġdis advant
ĠM uch
Ġr ough
Ġknow eth
Ġinst ant
Ġinst ances
Ġpr ayer
Ġpr otest
Ġout look
Ġout bur
Ġworld s
Ġen n
Ġye llow
el t
Ġres ol
Ġimp ly
Ġphil ology
Ġself m
Ġcall eth
Ġtra it
ĠTH IS
Ġappe als
Ġpass ing
Ġcomm it
ER M
Ġgl ow
Ġmis lead
Ġtw ilight
Ġsc ales
ĠGree ce
Ġadv anced
Ġconf used
Ġcharact ers
Ġlive th
ĠK NOW
Ġtri es
Ġsac red
Ġconv alesc
Ġget ting
Ġpract ically
Ġco ars
mb l
Ġcur ious
ĠMan u
Ġcare ful
Ġhy ster
Ġprodu ctive
Ġstri ves
Ġid le
Ġgre y
Ġbur ning
Ġdeg rees
Ġsecret ly
Ġdisp osed
Ġpub lished
Ġenjoy ed
Ġadm in
Ġdeterm ines
Ġassum ed
Ġforg ive
Ġsuffer ings
Ġbring ing
Ġsit ting
Ġforget fulness
Ġdead ly
ĠRom anticism
Ġmedi ocr
Ġpriv ate
Ġsepar ated
ĠInd ian
Ġfail ure
Ġep ic
Ġtheolog y
Ġtheolog ical
Ġpreser ve
Ġneg lect
Ġ* **
Ġho liness
Ġunf amiliar
Ġliter ary
uff ici
Ġpoison ous
Ġinstr uments
ĠBec oming
Ġemotion al
Ġabyss es
Ġeth ical
Ġmock ing
ĠNE W
Ġtot al
âĢĵ âĢĵ
Ġgospe ls
Ġlone ly
Ġoptim ism
Ġunfortun ate
Ġunfortun ately
Ġupright ness
Ġbeg un
Ġquar ter
Ġvener ation
Ġrevel ation
Ġwel fare
Ġfil th
Ġrepro ach
Ġvoluptuous ness
ĠCrit icism
Ġpermane nt
Ġproced ure
Ġambit ious
Ġeccles iast
Ġcriter ion
Ġtremend ous
G AIN
I t
I AN
O K
U D
a ith
a fter
b rium
d les
e qu
f fect
g s
g re
o lis
r ors
t es
t led
z z
z ig
Ġt orn
in st
at ism
Ġm ur
Ġm ature
Ġh ated
Ġf illed
Ġp age
Ġin fect
ar ks
Ġe ch
Ġre aring
Ġu seless
Ġl oses
Ġha ll
ra ction
Ġst ern
Ġst amp
ch ange
ĠA GAIN
Ġde aling
Ġde terior
Ġmo ves
Ġse ven
Ġal arm
ĠH E
ard on
Ġthere with
pt ured
ant ism
ig ned
ĠB etter
Ġpro s
Ġpro xim
red er
Ġwill ed
Ġun b
ĠE N
Ġus es
Ġch aos
ment ary
ĠF reder
ĠL ook
Ġam az
ili brium
Ġcons ciences
ĠIn st
Ġdes ider
lie ve
oc al
Ġpl ants
Ġacc us
Ġposs ibilities
Ġself re
Ġfact or
Ġap h
Ġtra in
Ġtra ined
oll ow
Ġhum ane
Ġdist orted
pect ed
Ġpresent s
tern ity
Ġopp ose
Ġstrong ly
Ġbl ue
Ġbl asp
Ġro ck
Ġshall ow
Ġinf li
Ġmis chie
Ġpain s
Ġpoint ed
Ġ4 9
Ġsin ister
Ġfl ood
Ġpar amount
Ġrep ulsive
Ġac ute
Ġac ross
Ġcor p
Ġequ als
Ġequ ilibrium
Ġrespect s
Ġ5 0
Ġ5 4
Ġ5 6
Ġfear ful
Ġcent re
Ġcirc les
Ġaccording ly
Ġaff air
Ġrequire ments
OU LD
Ġexc lud
Ġprodu ces
Ġcru de
Ġhelp ed
Ġplay ed
Ġsecond ly
Ġprim e
Ġdeg rad
Ġeas ier
Ġwa ves
Ġtre mble
Ġneighb ours
Ġinj urious
Ġtrium p
Ġri gor
Ġascetic ism
arch y
Ġbless ing
Ġcast es
Ġtem porary
Ġdiss atisfied
Ġwind s
Ġchang ing
br id
res pect
Ġsolit ary
Ġevent ually
Ġvar iety
Ġtransform ation
Ġgrat ification
Ġdesc ribe
Ġfra ud
Ġendeav ours
Ġdisgust ed
Ġgrasp ed
Ġliter ally
Ġvit al
Ġren unciation
Ġfem ale
Ġascend ing
Ġer ro
Ġanal ysis
Ġmechan ism
Ġawake ned
Ġbod ily
Ġreck oned
Ġanx iety
Ġestim ates
ĠFa ith
Ġcli mb
Ġbenevol ent
Ġunw illing
Ġfant astic
Ġmartyr dom
Ġod our
Ġwhis per
Ġprepar ation
Ġrepugn ant
ĠMor als
Ġhered itary
ĠGospe ls
Ġimperson al
Ġsuscept ibility
Ġpreponder ance
Ġdefin ition
Ġham mer
Ġlabyr inth
Ġtid ings
Ġprelim inary
B ut
F UL
G erman
O C
e y
g ation
l ove
o ner
r im
r ows
s in
w ing
y lus
z y
Ġw ast
Ġs or
Ġs now
er ous
Ġof t
it an
it al
Ġb le
Ġb orrow
Ġc ries
Ġp aper
Ġth ither
Ġth rew
or ne
Ġto ward
ot le
ar ned
Ġe re
le ts
Ġre tain
ĠT e
ir ty
Ġl ar
Ġl oud
Ġl az
Ġst ir
Ġcon verted
ul ates
Ġmo ney
ad es
ĠW ILL
if ice
ci al
ci pe
Ġsh ake
Ġsh ape
um in
ĠH OW
Ġno se
Ġpre m
Ġthem e
ac c
ac ed
pp ing
ĠB oth
Ġpro spect
em ber
ru p
ĠO b
ĠO rigin
Ġsp ot
Ġsp ent
iv ine
ĠP ers
Ġdis appe
Ġsome where
Ġyou ths
Ġany where
ĠL X
Ġqu ali
ĠD ay
ĠD em
ĠD IS
Ġact ing
Ġdes per
Ġunder m
Ġimp ud
Ġstill ness
Ġshould ers
un ishment
Ġra in
Ġhum ili
Ġrem oved
Ġaf tern
Ġseem eth
Ġaw ful
Ġem pire
Ġref use
Ġref uted
Ġinv isible
Ġdisc uss
Ġdisc overy
ĠV IR
Ġgl ances
Ġindivid uation
Ġreason able
Ġread s
Ġpur ity
Ġtrans p
Ġtrans valuation
atic ally
Ġpar ag
Ġrep ent
Ġcor ner
sm en
Ġequ ival
Ġsupp le
AN CE
Ġ5 1
Ġ5 5
Ġpurp oses
Ġsort s
Ġsun k
Ġmar vel
Ġdoubt ful
Ġve il
Ġreve al
Ġplay ing
Ġdecad ents
Ġbu ff
Ġprim ary
Ġenj oys
Ġphysiolog y
alis ing
Ġobser v
Ġbra very
Ġmist akes
Ġserv ant
Ġmanifest ation
Ġcount ries
Ġmeasure d
Ġtem p
Ġtem ple
Ġimposs ibility
Ġinvent ive
Ġund oubtedly
Ġfine r
ĠSe cond
Ġpoli te
Ġdiss olution
Ġbo red
Ġsince re
Ġast ray
Ġsepar ates
Ġcharm ing
Ġdistingu ish
Ġsedu ction
ĠCon sequently
Ġder ive
Ġabsurd ity
Ġyear ning
ĠUn ivers
Ġoblig ation
Ġfru its
Ġobv iously
Ġdri ven
Ġinex orable
Ġard our
Ġsuggest ed
inter pre
ĠHer ac
Ġrese mble
Ġstimul us
Ġrob bed
Ġhur t
ĠEpic urean
Ġrece ive
Ġslight est
Ġrefer red
Ġanx ious
Ġric hes
Ġphilolog ist
Ġfirm ly
Ġconsum m
Ġuncond itional
Ġbow els
Ġtemper ament
AK E
ĠArist otle
Ġgh astly
Ġjealous y
Ġinher ited
Ġinev itable
Ġunex pected
ĠdÃ©cad ence
Ġaltern ative
ĠMore over
Ġsurm ount
Ġcro oked
Ġgest ures
Ġextravag ant
Ġbrilli ant
Ġdisag ree
Ġhoriz on
Ġridic ulous
Ġmedic ine
Ġexalt ation
Ġbung led
Ġpalt ry
Ġtom orrow
Ġecclesiast ical
ĠAGAIN ST
Ġproxim ity
ĠFreder ick
Ġaftern oon
ĠVIR T
E CT
Q U
S em
U N
c an
c al
c ra
f old
h al
l ude
m orality
p ro
u ations
ne l
Ġw ars
Ġw ont
er ity
it ect
en cer
Ġf et
Ġf ounder
Ġp ed
Ġp ull
or ious
ot hing
ed s
ic ature
Ġbe ll
Ġbe lly
Ġis olation
al ogy
Ġre cipe
Ġg le
Ġg ro
Ġg ushing
Ġu pper
Ġhe ars
Ġl ament
Ġan ci
Ġst o
Ġst ress
Ġwe ep
Ġcon ject
Ġcon vert
od ay
est ed
Ġv iz
Ġal c
il o
um p
ig hed
ĠB ad
ĠB less
Ġwhe el
ru ct
ru ng
Ġar ms
Ġwill s
Ġun just
ĠM ar
ĠM UST
Ġr ange
ud der
Ġcan on
Ġpr ison
Ġcont act
Ġcont ained
ĠL a
ĠL ord
og ical
Ġind ign
Ġcons er
Ġen s
Ġye asaying
Ġres ignation
oc ks
ang led
Ġpl uck
Ġimp osed
ĠR es
Ġacc idents
Ġthen ce
pl us
ens ed
Ġgr im
Ġap ost
Ġtra ce
Ġrem orse
Ġinc ons
Ġrec all
Ġnothing ness
for ward
ĠJ oy
ip zig
Ġref ers
lic al
lic able
Ġro ll
Ġdisc ern
Ġdisc ont
ĠV ery
Ġins urrection
Ġins anity
Ġsc he
Ġlear ning
Ġsin ful
Ġple ased
Ġgu ests
Ġfree think
Ġconf irm
IN E
Ġrep utation
ĠU nt
Ġdem ocracy
sm an
Ġeffect ive
Ġfo e
ĠK ingdom
Ġsmall er
Ġdev ise
Ġbel oved
iz es
Ġdoub ts
Ġ5 2
Ġut tered
Ġimag es
Ã¦ s
Ġdesp ises
Ġpract ised
Ġrecogn ized
Ġ18 6
Ġve nerable
Ġpun ish
Ġexc itement
AR T
Ġstri ke
ĠRe formation
ane ously
Ġsubject s
Ġsubject ive
Ġconsider able
Ġphysiolog ically
Ġnob ler
Ġtre mbling
IC H
Ġcommon place
Ġcra ft
Ġcoun sel
Ġadd ress
Ġinterpret ations
ĠSp encer
Ġformul Ã¦
Ġpeace ful
Ġune qu
Ġdraw s
Ġoper ate
Ġcontempl ate
Ġdeli vered
Ġtalk ing
Ġblind ness
Ġdark ness
Ġmeet s
Ġsphere s
Ġprivile ges
ĠX XX
Ġcontradict ions
ĠLe ipzig
Ġfast idious
Ġrom anticism
Ġpen al
Ġasc ertain
Ġconvin ce
Ġincom parable
Ġselfs acri
Ġfour th
Ġhypot heses
Ġignor ant
Ġeth ics
Ġtempt ation
Ġquiet ly
Ġaccident al
Ġrender s
Ġanarch y
Ġunre ason
Ġexhib it
Ġinfinite ly
Ġfest iv
Ġcalcul ated
Ġexagger ated
Ġloft iest
Ġsqu and
Ġdisch ar
Ġris k
Ġeconom y
ĠAb ove
Ġident ical
Ġthreat ening
Ġconsid ers
Ġmach ine
Ġcop y
lex and
Ġcomprom ise
Ġgard en
ĠLO VE
ĠÃĨsch ylus
Ġsag acity
Ġnour ishment
Ġcere mon
Ġclim ate
Ġconform ity
Ġmarket place
Ġcove t
Ġfurthe st
ĠRec urrence
ĠId ols
Ġmediocr ity
Ġblasp hem
Ġtriump hed
Ġparag raph
ĠHerac lit
Ġanci ents
A D
A ll
T is
a is
d o
d ens
i ality
o nder
o ling
Ã ´
Î ¿
Ġt act
li an
Ġw ond
Ġw aste
Ġw aged
Ġs ides
at iv
at ible
Ġm ing
Ġm asc
Ġm ixed
Ġh osp
Ġh ollow
Ġc as
Ġc ook
Ġf i
Ġf ish
Ġf led
Ġf ield
Ġp ill
Ġp athetic
Ġin herent
or ical
an c
Ġto p
Ġd aw
Ġd ared
Ġd ithyramb
Ġbe gg
Ġwh ilst
ve y
ce an
Ġg a
ent ial
ĠT oday
ĠI M
Ġu ng
Ġfor s
Ġst ated
Ġcon vers
Ġall ure
ĠA ges
Ġde arest
Ġde af
Ġv alid
Ġy esterday
Ġat om
us ive
Ġso lid
ol ent
ĠS il
ĠS peak
Ġsh ine
os is
ĠH y
ĠH ath
Ġint egr
Ġpre de
ĠC A
ĠC R
ĠC omp
ĠC arly
ac heth
ig her
Ġpo ll
Ġlo ose
ru e
ru pt
Ġim itate
ath s
Ġfe ared
Ġun int
Ġun ited
Ġun iform
ĠE ternity
Ġle ge
ĠF e
ĠF reedom
Ġwhat soever
Ġag it
Ġknow est
Ġinst itution
Ġpr is
Ġph rase
Ġind ig
ĠD ES
Ġen ab
Ġad vers
Ġad orn
Ġsa il
ep s
Ġra pture
Ġend owed
end ing
Ġvirt u
Ġgo eth
are th
are rs
Ġinc red
Ġrec o
Ġent ered
Ġro sy
Ġro cks
Ġcomp ulsion
Ġsim ile
Ġperson ally
Ġsin ner
Ġfound ed
ange lical
Ġprof und
Ġass er
Ġgu est
Ġpar able
Ġfriend ly
RE S
Ġprin ces
AT E
Ġobject ivity
sp ons
Ġdra matic
form ed
Ġvalu ed
Ġ5 3
Ġfaith ful
Ġes p
Ġprev ailing
Ġsat yr
Ġshe ep
Ġmar vell
Ġprop het
ought s
Ġcar ries
Ġcar icature
Ġhar b
Ġsw all
Ġsw amp
Ġdisg race
Ġwrit es
Ġsubject ion
Ġdire ctions
Ġans w
Ġcontem porary
Ġinj ured
Ġcra w
Ġcount less
ĠSp ake
Ġcold ness
Ġund iscovered
ION S
Ġassum es
Ġoccas ions
Ġpessim ist
Ġcommand ing
Ġcustom ary
Ġdiss imul
Ġbound s
ĠPro v
Ġendeav oured
Ġder ived
Ġfight ing
Ġfac es
Ġstone s
oh n
Ġprep are
Ġpost erity
Ġproceed ing
Ġsuperst itious
Ġconne cted
Ġarri ved
Ġtransl ation
Ġfals ified
Ġinclud ed
ĠRen an
cl aim
Ġwand erer
Ġingen uous
Ġkn ife
AS S
bur g
Ġprud ent
ĠĠĠĠĠĠĠĠĠĠĠĠĠĠĠĠ ĠĠĠĠĠĠĠ
ĠJust ice
Ġfort un
Ġcondemn ation
Ġrece ived
Ġvo lition
mat ical
Ġfest ival
Ġcollect ive
Ġreck on
ĠNever theless
Ġric her
ĠMe an
Ġfanatic ism
Ġaltru istic
Ġfif th
ĠEn ough
Ġrecon cili
Ġacknowled ged
Ġanchor ite
Ġtast es
Ġsecre ts
Ġartific ial
Ġbal ance
ĠPhilosop hy
ĠWor ld
Ġtranscend ental
Ġprecept s
ĠOlymp ian
Ġwarri or
Ġmilit ary
Ġcree p
Ġimpot ence
Ġhaz ard
Ġpredom in
Ġunself ish
mind ed
ĠVal ues
ĠPromethe us
Ġtheore tical
Ġcoars er
Ġaph orism
Ġerro neous
ĠUnivers ity
Ġdisagree able
ĠHeraclit us
H uman
O G
R IST
S I
U TH
V I
W e
W ho
b ook
g ory
i i
i ations
j ug
k in
l ers
m es
m ore
n y
o ol
o ided
o keth
r od
r ass
r ational
w ell
Ġt ame
Ġa h
in able
Ġw ood
Ġs and
at in
on ism
Ġb all
Ġb ore
Ġb ite
Ġc up
es th
Ġp am
an ks
ot ism
Ġd umb
ar th
Ġbe at
om fort
Ġn ative
as urable
Ġre alities
Ġas pirations
Ġl un
th us
Ġde tr
ro ad
Ġex ult
Ġv iv
Ġso re
ĠS w
Ġtheir s
um ble
ĠH IS
Ġint u
Ġint im
Ġpre fers
ĠC ross
Ġthere on
Ġper miss
Ġpo ore
Ġlo vers
Ġpro claim
Ġup wards
Ġab use
per haps
ĠP ity
Ġdis par
ĠF ree
Ġr ising
Ġr Ã´
Ġlife t
Ġen able
Ġart ic
Ġspe ll
ĠHe aven
ie g
Ġpl ane
Ġpl astic
Ġob tr
Ġimp l
Ġimp r
ab b
Ġlove th
Ġself den
int ed
Ġend ured
Ġcl o
Ġcl osed
Ġdec lining
Ġever last
Ġrec urrence
Ġpass es
Ġpass ages
Ġcond itioned
Ġwhere in
Ġright e
Ġbl ock
Ġinv ari
Ġdisc ove
ĠV ict
Ġwis heth
Ġins ists
Ġinter m
Ġgra cious
Ġexpress ions
Ġfl as
Ġwar like
Ġsl ay
Ġfree ly
ĠHow ever
Ġgod less
be red
Ġcor ners
alth y
Ġsuper natural
Ġbeh ave
Ġdev oted
Ġdev otion
ĠAt hens
Ġ5 7
Ġut ilit
Ġjoy ous
Ġke y
Ġke en
Ġoff ence
Ġpract ise
Ġrecogn ition
mb led
Ġpleasure s
Ġpartic ip
Ġdoct or
Ġexc ite
Ġir ony
Ġir rational
Ġprodu ction
Ġgre et
Ġbur dens
Ġrid dles
Ã© e
Ġcontem por
Ġhold ing
Ġsubli m
Ġav oided
Ġhor se
Ġpessim ists
Ġcommand ed
ĠNihili stic
Ġdiss ip
Ġly ric
Ġgrand father
Ġmedi um
tr uth
Ġep ile
Ġbreat he
Ġmouth piece
Ġconqu ered
Ġmer ry
Ġcoll apse
Ġvision ary
Ġhop ed
Ġdecl are
Ġsupre m
Ġdepend s
Ġelev ate
Ġcontradict ory
ĠHom o
Ġsex es
Ġdemand ed
Ġdan cer
Ġpit iful
Ġinex p
Ġmut ually
Ġcost s
Ġsad ness
Ġapproach ing
Ġkn ight
Ġconceal ment
Ġmyster ies
Ġeager ly
Ġtot ally
ĠHomer ic
Ġassoci ate
Ġdisint egr
ĠMORAL ITY
Ġsurr ounded
ĠnaÃ¯ve tÃ©
Ġlonesome ness
ĠAph orism
Ġcredit or
ĠTw ilight
Ġgh ost
Ġappropri ate
Ġinher it
Ġinward ly
Ġsurpass ed
ĠHapp iness
ĠAL L
Ġkne es
Ġdisinterest edness
Ġtroub led
Ġdeliver ance
FF ER
ĠSoph ocles
Ġsplend id
Ġdow ng
Ġcounterfe it
Ġcri pp
ĠWhe ther
Ġcompens ation
ĠMid dle
FOR E
Ġnutr ition
Ġdisadvant age
Ġprofund ity
Ġmarvell ous
ĠMean while
Ġdetr iment
Ġinvari ably
I A
I n
M ENT
P T
W hy
W ARD
Y e
b l
e vil
f ou
f ree
f ying
i ation
n k
o cc
r ion
r ange
z en
Ġt ed
li fe
li ance
Ġa pe
Ġo mn
Ġo cean
Ġthe ories
in a
re cked
Ġw ounded
is able
it z
Ġm al
Ġm ould
on geth
Ġh ates
Ġh arsh
Ġc ul
Ġf ren
Ġin quis
ot al
ic ates
Ġn ause
Ġre ared
Ġg ulf
ĠT EMP
Ġhe at
Ġl ord
Ġl amb
ra nd
Ġcon versely
od ern
Ġon wards
ĠA M
ĠA lexand
ri ne
pe th
est ic
Ġse qu
Ġse ct
Ġv all
Ġv ind
ge ts
us al
us hes
ol oured
ĠG re
ĠG ene
ĠS em
ĠS outh
Ġsh ining
um m
ĠH ad
ast ery
Ġint ens
Ġper tain
Ġne t
Ġne arest
ine se
Ġpo pe
Ġpro st
Ġpro se
Ġpro long
Ġbut ter
Ġar row
Ġfe ver
Ġsp rung
Ġun qu
Ġun ple
ĠE V
ĠE c
ĠP o
ĠP art
ĠTh ree
Ġdis d
Ġdis se
Ġdis ill
ĠF ather
Ġfa ble
ake ned
Ġcont rib
ĠD O
ĠD r
Ġlike ly
Ġen g
Ġow es
Ġca pt
un ction
Ġgr ou
Ġsub jug
Ġgo als
Ġgo vern
Ġtruth ful
ren ces
Ġthr own
atter ing
Ġkind ly
Ġdec ide
Ġsuff ice
Ġrec ord
Ġrec over
peri um
ĠY OU
Ġthing initself
Ġbl oom
Ġext inct
Ġro se
Ġdisc ord
Ġpri esth
Ġapp ly
Ġapp alling
Ġgl owing
Ġsim ult
Ġinf lict
Ġins ane
ern al
Ġher ald
Ġlight s
Ġorigin ate
IS H
Ġfl at
Ġass ured
Ġgu ide
Ġappear ances
Ġill um
Ġsur plus
Ġweak ening
Ġprin ce
Ġess ays
Ġbre aking
Ġpoet ic
Ġtri f
Ġsupp ressed
Ġrest less
Ġrest rict
Ġelse where
Ġcontin uous
go istic
Ġsat y
Ġoff ensive
Ġinn ov
Ġinterpre ting
Ġjudg ing
Ġhel pless
sthe y
ĠAn other
Ġdelight ful
Ġcru c
Ġid ol
Ġid ols
Ġmanifest ations
Ġorgan iz
Ġvol untarily
Ġremain ing
Ġbro od
Ġbro ke
Ġdifficult ies
Ġharm on
Ġharm less
Ġunivers ality
ĠTR ANS
Ġstates man
Ġhyp not
Ġmyth ical
Ġalong side
Ġdefinite ly
Ġsentiment al
Ġmonst ers
bar rass
Ġtort ured
ĠBy ron
Ġaccomp lish
Ġperform ance
Ġsan ction
Ġcompar ative
Ġmagn anim
Ġsour ces
Ġpit ch
Ġpen it
Ġuns peak
Ġintox icated
Ġfright ened
Ġarr anged
Ġtempt ed
ĠSome thing
Ġsce nes
Ġindul ge
Ġdeser ve
OP H
Ġreser ve
Ġrapid ly
Ġcate gorical
Ġpal p
Ġexerc ises
Ġprec aut
ĠTw o
Ġperpet ual
Ġwound s
ĠNor th
Ġintrins ically
Ġconquer or
Ġlad der
Ġalle vi
Ġspo il
ĠHim self
Ġaccum ulated
Ġdepre ci
Ġdish onest
Ġadapt ation
Ġfount ains
fee ling
Ġguarant ee
Ġparal ys
Ġskept icism
Ġsold ier
Ġdisple asure
Ġambig uous
Ġparent s
Ġarch itect
Ġech o
Ġpros per
ĠTe ut
Ã¦s ar
Ġfestiv als
Ġenab led
Ġansw ers
Ġdissimul ation
ĠrÃ´ le
Ġpriesth ood
A G
a ci
a pted
c our
f ts
f aith
h ab
i qu
i que
n s
n icious
o Human
r ong
r ant
r uth
r own
u line
w hen
w hy
x i
Ï Ĥ
Ġ ic
Ġt ire
Ġt ick
Ġt asks
li st
he red
in ations
in sp
re am
re rs
Ġw age
Ġs ed
Ġof fic
Ġm ou
Ġb iolog
Ġb ourge
Ġh un
Ġf lies
Ġp ang
or ph
an qu
le th
Ġis s
om bre
al se
Ġg ap
Ġg irl
ĠI II
Ġfor ci
Ġl ays
Ġha ught
ur ance
th rop
od est
ĠA D
Ġde ified
ul ating
ri ble
ri ous
ain ing
Ġme nd
Ġv ag
ill e
Ġal tered
Ġk illed
ĠG u
ĠS ou
ĠS OU
ĠS alvation
Ġsh ade
Ġsh rink
Ġsh udder
ĠH oly
ĠC ome
ĠC Ã¦sar
Ġper nicious
Ġne ut
Ġlo oketh
ru ss
Ġsp ider
Ġab ortions
Ġun pre
ĠE gy
ĠP ur
ĠP unishment
ĠP russ
ke ned
Ġch ron
Ġj o
Ġj our
Ġj oys
ĠM o
ĠM ad
Ġag on
Ġag gress
Ġr ush
ĠCh inese
Ġtr od
Ġpe asant
Ġout ward
Ġworld hist
ĠD uring
ĠD esc
ĠD awn
Ġcons pic
ĠWh ither
Ġres olute
Ġform id
Ġide alist
Ġimp ose
ĠR ap
Ġgr ant
ign s
Ġsub ord
Ġsub sequently
Ġcl ock
Ġrem otest
ĠTH OU
Ġinc urable
Ġdec ision
Ġwell constituted
Ġrec overy
Ġge ne
act or
Ġpass ive
Ġwhere with
Ġcomm ence
press ed
Ġstand eth
for ce
ip us
Ġem pt
ĠTHE IR
Ġref res
lic ation
ER N
ĠV en
Ġevil s
ten ance
Ġcomp lic
ON D
ib us
Ġinf inity
Ġtw enty
AL S
Ġbest owed
Ġabs ent
Ġtrans fer
Ġfl o
Ġfl ut
Ġstate ment
Ġculture s
Ġmean while
IN D
IN ESS
Ġrel ax
Ġgod like
Ġoppos ing
Ġdiv or
RE N
Ġel ab
Ġcharacter ised
Ġconce it
Ġconce ivable
ark en
Ġchild hood
Ġexam ine
row ing
Ġfal ling
Ġsac erd
Ġlack ed
Ġhard er
Ġut ili
IT ION
Ġdef ined
Ġdef ensive
Ġinn ate
Ġhealth iness
lis hing
mb les
LI E
ĠMan kind
ĠAn y
Ġset ting
ĠEvery where
Ġrevenge ful
AR Y
Ġstri kes
Ġstri king
ĠRe ason
Ġhar vest
Ġsw ord
Ġlearn s
ĠAl so
ĠAl ready
Ġacqu iring
Ġacqu ainted
Ġconcl ude
ĠPlat onic
Ġadd itional
Ġtem po
Ġhistor ians
Ġinvent ions
ĠSe pt
Ġenv ious
Ġfavour ite
Ġmain tenance
TER N
Ġmyst ic
Ġdomin ating
Ġforget ting
Ġoper ates
Ġbo at
ĠAr ch
Ġbound aries
Ġheaven ly
Ġfail s
Ġeduc ated
Ġep it
II I
onscious ness
Ġpreser ved
Ġcomb ats
Ġdise ases
Ġcompe ls
Ġattack ed
Ġcry ing
Ġfra me
Ġscho ols
ĠWH O
Ġcomfort able
Ġste al
Ġprivile ged
ĠX X
Ġtest im
Ġindepend ence
Ġutter ance
Ġdet ails
Ġdrink ing
Ġrul er
esc rib
Ġfoolish ness
Ġpen ance
Ġven om
Ġcrimin als
Ġdirect ly
Ġselfcont empt
het ical
Ġtender ness
Ġwarm th
Ġaston ished
Ġfort une
Ġcondemn s
Ġaffirm ative
Ġur ges
ĠUp on
Ġclean liness
Ġperspect ives
Ġdig est
Ġexagger ation
Ġremind ed
Ġsensitive ness
ĠTrans valuation
Be yond
Ġvig orous
Ġench ant
Ġprofess ion
ĠHapp y
Ġquant ity
Ġconsid ering
Ġproc reation
Ġsecre cy
Ġfulf il
Ġpois oned
Ġrecomm end
Ġdisinterest ed
Ġaband oned
Ġexpedi ent
Ġdiscer ning
Ġdeliber ately
Ġsurround ings
Ġawaken ing
Ġsynt hesis
Ġimmor alists
Ġenra ptured
Ġmatur ity
Ġadmin ist
Ġprime val
rup ulous
Ġsche me
Ġintegr ity
ĠCarly le
Ġlifet ask
Ġselfden ial
Ġclo ak
Ġeverlast ing
Ġinterm edi
Ġinherit ance
Ġbutter f
Ġrestrict ed
ĠEgy pt
A U
A BLE
O OK
T o
b ers
b ack
d ess
i ate
l ogue
m ar
o a
p ict
r ut
s uch
t ition
u i
v y
v ings
Ã ¤
Ġ &
Ġt ant
Ġt elling
li nd
li mit
Ġa pt
Ġa head
in arily
Ġw aking
Ġs ne
Ġs alt
Ġs ister
is en
at us
Ġm at
Ġm as
Ġm ute
Ġb on
Ġh us
Ġc aught
Ġp ick
Ġp ages
an cing
ot y
ot ing
Ġd ial
st ri
st one
ar ck
qu er
ve lled
Ġg ay
ent ric
Ġas leep
Ġhe d
Ġhe rit
Ġl osing
Ġan Ã¦
ra ctive
od es
Ġli kes
Ġde cept
pe red
ro spect
Ġse at
Ġme mb
Ġex h
Ġex pend
Ġex change
all el
Ġv icious
ĠW OR
ĠW elt
Ġal lied
Ġdo c
Ġso ber
ate th
Ġk ine
Ġk iss
ĠG l
ĠS H
ĠS on
ĠS aint
Ġsh ot
Ġint ol
Ġpre te
Ġper cept
Ġpo se
Ġim perium
ĠO R
Ġfe ast
Ġfe ars
Ġsp ont
Ġab road
Ġun ion
Ġun aw
iv en
iv ocal
Ġle vity
ĠP E
ĠP HIL
Ġdis or
ĠM ost
ĠM aster
Ġfa b
Ġr out
Ġmor alities
ire ct
Ġtr anqu
Ġpr ick
Ġcont ri
ĠL ater
ĠL ittle
ĠL atin
Ġam iable
Ġind escrib
Ġworld ly
ok es
Ġact ed
Ġart ifice
Ġpl en
Ġad just
Ġad equ
Ġad apted
Ġacc ent
Ġra ises
Ġatt ractive
Ġtra ced
Ġhum our
Ġthr ust
Ġinc on
Ġhapp iest
Ġthought ful
Ġappe t
Ġpart ies
Ġbr own
Ġcond u
Ġmod erate
Ġser ves
Ġref utation
Ġfar ther
Ġro lling
Ġneed ful
Ġdisc omfort
Ġgl ass
Ġins ide
Ġcult s
Ġwork ers
av ish
Ġcreat ors
Ġprof it
Ġass imil
Ġadv ise
Ġwar ning
ph ilosop
Ġrep r
Ġfre ed
Ġrespect ed
ret ion
Ġrest ing
Ġrest ra
Ġphys icians
Ġdoub ted
Ġmodern ity
Ġdest ructive
Ġdream ing
Ġdep ra
Ġcontin ues
Ġfore sts
go ing
Ġprev al
Ġsat iety
Ġnatural ness
Ġsimp li
Ġpract ices
ail ed
ĠSt ill
Ġcare s
Ġve x
Ġve iled
ĠSocr atism
Ġir res
Ġreve rent
Ġbene fic
Ġhelp ing
Ġsw ay
Ġsw ine
Ġmot ley
Ġcommun ities
Ġstrugg ling
its ch
ING S
alis es
Ġult ra
Ġhabit ual
aught er
Ġprov ide
Ġcast s
ĠKant ian
Ġsk et
Ġund erest
Ġneighbour hood
Ġdog mat
Ġdog mas
ĠTR UTH
Ġlow ly
Ġproof s
Ġsit uations
Ġviol ently
ĠInd ia
Ġpreser vative
Ġcomb ated
Ġoccasion al
Ġdestroy er
Ġtreat ment
Ġarist ocracy
ĠÃ¦sthetic s
Ġdecl ares
Ġantit hetical
Ġstud ent
Ġcontradict s
Ġsole ly
Ġdi ver
ĠBE LIE
omm on
Ġannihil ate
ĠON ES
ĠDe ath
Ġgif ted
Ġrul ed
ĠBuddh istic
Ġmeant ime
Ġdesign ate
Ġwalk ing
Ġascend ancy
Ġecst asies
Ġenc ourage
Ġmort als
Ġfals ification
Ġgentle ness
Ġ188 8
Ġwand er
Ġwand ering
Ġpos it
head s
Ġmock ery
Ġbliss ful
Ġanarch ist
Ġacquire s
Ġexhib its
Ġremem bered
Ġuncertain ty
Ġinvestig ation
Ġconcern s
Ġrepudi ated
Ġtheat rical
ĠCON S
arian ism
Ġcate gory
Ġadop ted
Ġtransfig uration
Ġoptim istic
Ġassert ion
Ġvictor ies
arant ul
Ġexerc ised
Ġhes itating
ixt ure
Ġlux ur
Ġreb irth
Ġoverfl ow
Ġvictim s
Ġperpet ually
ĠTrans lated
Ġselfd est
Ġoccup ied
Ġinev itably
Ġunle arn
Ġunle arned
Ġunhapp iness
Ġmisunderstand ings
Ġbrut al
Ġpregn ant
Ġpregn ancy
Ġheir s
Ġpron ounced
Ġeloqu ence
ĠAccord ing
Ġhier archy
Ġembod ied
ĠGO OD
Ġanalog ous
Ġdili gence
mbl ance
Ġmur der
Ġequival ent
Ġalc oh
Ġmasc uline
Ġincred ible
RIST IAN
Ġsuprem acy
Ġdowng oing
Ġinquis itive
Ġunple asant
Ġformid able
Ġherit age
Ġmemb ers
C ES
C OM
I OUS
T hus
c ont
d ing
e k
f ound
h oly
i en
i ant
m ay
m oral
m aster
n ation
r id
v able
v als
w ind
ne gation
re th
Ġw ing
Ġw ra
Ġs ages
Ġm ud
Ġb urn
Ġb lend
Ġh alt
Ġh uge
Ġc ities
Ġf ict
Ġin human
or g
or ial
ot er
Ġd ice
se th
om ed
Ġre cip
Ġg ir
Ġg erm
Ġl ure
Ġl umin
id ently
ch t
Ġwe akened
Ġli t
Ġli ar
Ġde w
est ab
Ġmo ving
Ġme llow
Ġex em
ĠW ar
ĠW oe
ak er
il es
il ation
il ess
Ġwho les
fe rences
Ġso f
Ġso ar
Ġwor n
ĠG ive
ĠS l
ĠH or
ĠH ither
ĠH IM
ĠH IGH
Ġint ense
Ġint imate
ĠC AN
ĠB ism
Ġpro ver
Ġpro hib
Ġar ous
Ġar isen
Ġevery day
Ġun us
Ġun sc
Ġun av
ĠE TERN
au ld
ĠTh ink
ĠTh ird
Ġdis be
Ġch rist
ĠF RI
ĠM r
ĠM ark
ĠM EN
ĠM oz
ort s
Ġag ony
Ġr ay
Ġr ises
Ġam use
Ġmay est
Ġmay be
Ġnow here
ĠWh ich
ie th
ang ing
Ġide alistic
Ġad ore
Ġimp lies
Ġsou thern
ens ions
Ġgr ass
Ġgr anting
Ġself respect
Ġsub d
Ġend less
Ġend urable
end hal
Ġtra ces
Ġinc or
Ġsuff ices
Ġrec ent
Ġmod el
ĠY EA
ĠWagner ite
tern ally
Ġem er
Ġem barrass
ĠTHE E
Ġref uge
Ġru ins
Ġro ar
Ġcomp r
ib n
Ġins idious
Ġtw ice
AL ITY
Ġsc ru
Ġpur ple
Ġlet ter
Ġpra ises
ocr at
Ġple asing
Ġquestion ing
Ġfl own
Ġfl ows
Ġfl ash
Ġinde cent
Ġappear ing
Ġill ogical
Ġcle vere
Ġgod dess
Ġsens ible
ĠU t
Ġcor ps
Ġfre esp
Ġresult ing
Ġresult ed
Ġele ct
Ġsuper fici
Ġbre eding
Ġpoet ical
Ġsupp osition
Ġstreng then
Ġunc on
Ġspeci ally
ha el
Ġfore father
Ġdom ination
Ġconv uls
Ġprom ote
Ġrecogn ises
ĠSt endhal
Ġdoct ors
Ġve get
Ġir ration
AR ATH
ours es
Ġcre ations
Ġrepresent ative
Ġfat alism
Ġinj ure
Ġri val
Ġprov ision
Ġhistor ian
Ġkeep s
Ġsubli mity
Ġexp ense
Ġformul ated
Ġforg iveness
Ġforg iven
Ġanti Sem
Ġshame less
Ġhyp ocrit
Ġune goistic
Ġly rist
Ġweakness es
Ġviol ation
Ġbo x
Ġlay ing
Ġfail ures
Ġmir ac
Ġep he
Ġbar gain
Ġshad ows
Ġsedu ce
Ġdelic acy
Ġcompe l
Ġattack s
Ġdesc ent
Ġleg is
Ġho liest
Ġscho oling
Ġfight s
Ġunf av
Ġsweet ness
Ġstandard s
Ġdiscover ing
Ġaut ob
Ġdialect ic
Ġannihil ated
Ġland sc
Ġvit a
Ġexplan ations
Ġexper iments
gor ies
Ġtyrann ical
Ġasc ribed
Ġenc oura
Ġang uish
OS OPH
Ġfals ity
Ġintox icating
Ġsurpr ised
Ġsurpr ising
Ġappre ciation
Ġstorm s
ĠRoman um
ĠIm per
Ġredu ce
atisf action
Ġexhib ited
Ġfruit ful
Ġemancip ated
Ġmarty rs
Ġoccur s
Ġaffirm ation
Ġsanct ified
Ġdeser ves
Ġglad ly
Ġfair ly
Ġenlight ened
Ġpred ile
Ġphilolog ists
Ġopportun ities
Ġsorrow ful
Ġlone liness
UST RA
Ġdepart ment
Ġuncond itioned
Ġobst acles
Ġirre spons
Ġpresum ptuous
Ġadvoc ates
Ġwitness es
Ġclum s
Ġsovereign ty
Ġweap on
Ġsurv ival
Ġbase ness
Ġstro ke
Ġstret ch
Ġpreach ing
Ġunhapp y
Ġquant um
Ġbid s
Ġfol lies
Ġoverc oming
Ġselfde ception
Ġsplend our
Ġretur ned
Ġdrunken ness
Ġexec ut
Ġparadox ical
Ġfurn ish
ĠGen oa
Ġthank ful
Ġappreci ate
Ġexcl aim
GH T
Ġworshi pped
ĠOri ental
Ġindust ry
Ġaccur ately
Ġprophe ts
Ġcyn icism
Ġnihili stic
Ġassist ance
Ġtow n
Ġlat est
Ġpup ils
Ġoutbur sts
Ġcommit ted
Ġexclud ed
Ġrigor ous
Ġimpud ent
Ġrepent ance
Ġgle am
Ġincons ist
Ġwond ered
Ġfi ery
Ġesp rit
Ġreconcili ation
Ġdetriment al
Ġfren zy
Ġvind ict
ĠEV IL
Ġorganiz ation
Ġbourge ois
Ġchron ic
ĠRap hael
Ġelab or
Ġsacerd otal
ĠSept ember
Ġtestim ony
Ġhus b
Ġprete xt
ĠPE OP
ĠPHIL OSOPH
Ġlumin ous
ĠBism arck
Ġfreesp irit
ARATH USTRA
A CE
H e
I F
P ER
c or
c oming
c auld
g u
g one
h ouse
j oy
l am
l ands
m ic
n a
o er
o ves
p ing
u um
u per
u able
u ary
v enth
Î ±
Ġ Î
Ġt ent
Ġt aming
Ġt arantul
he ment
he tic
he fou
in al
in ner
in isc
re f
Ġw al
Ġw ave
nd ing
it ure
it ute
Ġm athe
Ġb oy
Ġh ouses
Ġc ogn
Ġf iction
Ġf athom
es ome
Ġth read
an ing
an ches
Ġd up
Ġd ares
Ġd uration
ed ies
ar ise
ar ians
Ġbe held
al uable
Ġg ather
Ġg rie
ut ch
ĠI ND
Ġl ent
Ġl ake
id em
ra b
Ġst ake
Ġst iff
Ġcon ced
Ġli ng
Ġon ward
ĠA B
ĠA PP
Ġde fe
ri age
pe tr
ain st
Ġse izes
Ġex ert
ad y
ad ing
Ġv ic
ill s
ĠW and
ak s
us ing
am orph
ci an
Ġdo ors
very thing
ĠG EN
ĠS y
ĠS ub
Ġsh un
Ġev ident
os al
os ity
and a
ĠH u
Ġpre cise
Ġpre cip
ĠC ould
Ġper petr
ĠB es
ĠB OOK
Ġpo nder
ĠO B
ĠO W
ĠO wing
Ġcom prehensible
Ġsp are
Ġsp ark
ide lity
Ġup held
ĠN I
Ġun ve
Ġun ra
Ġun limit
ĠE S
ĠE ver
ĠE th
per s
ag or
au d
au nt
ĠP O
ĠP l
ĠP ART
Ġdis qu
Ġch ain
ĠF r
ĠF our
Ġj ub
Ġfa re
Ġag reed
ap es
Ġr um
Ġr ide
Ġr uth
Ġr het
ound s
art es
Ġcan st
Ġsome body
Ġcont r
Ġout c
Ġind irect
ĠD el
ĠD ivine
Ġen h
Ġart ful
ĠIt alian
Ġspe ed
oc ation
oc hefou
Ġpl ung
Ġob s
Ġob li
Ġover power
Ġbelie ver
Ġatt ach
Ġatt ached
Ġhum b
Ġrem n
Ġdist rib
Ġinc ident
Ġaf tere
Ġaf resh
Ġdec ent
Ġrec reation
ade qu
Ġear liest
Ġbr anch
ry an
ĠJ e
ĠY OUR
ĠWagner ites
aw ing
Ġent angled
te ous
iet ies
Ġbl ows
Ġhist rion
Ġbefore hand
Ġinv aluable
Ġro aring
Ġro yal
Ġpri or
ĠV AL
Ġmis led
ress es
Ġread iness
Ġlight ly
Ġsc or
Ġgra m
Ġsin fulness
edi ent
Ġfound ations
ere rs
ew are
Ġant in
ĠU nd
Ġsign ification
Ġexam ples
Ġbegin nings
AN G
ĠIs les
Ġden ying
Ġfalse ness
Ġdream t
Ġspeci alist
Ġcontin uation
Ġdevelop s
Ġdevelop ing
Ġcirc ular
Ġcomple ted
Ġsun s
Ġprom pted
Ġlead ers
unt il
Ġche m
OU N
Ġbelong ed
Ġcare er
Ġve hement
Ġask ing
Ġsecond ary
Ġcommun ication
ane ous
Ġwrit ers
Ġfur ious
Ġconsider ations
Ġbur nt
Ġrun ning
ĠAl ways
ĠAl most
Ġphysiolog ists
Ġhero ism
Ġgenera lis
Ġcount ed
Ġego istic
Ġdistinct ly
Ġphilosoph ies
Ġtriumph s
Ġswe at
Ġhor rible
Ġhast y
Ġunivers ally
Ġsit uation
Ġyouth ful
Ġproud ly
Ġeff ici
Ġcomb ination
umb ling
Ġtalk ed
ĠPr im
ĠSh all
Ġi i
Ġelement ary
Ġbehold s
IG N
oun ces
oun cing
Ġdepend ence
Ġ19 0
IR IT
Ġrepe ated
ĠNOT E
Ġdesir ing
ĠLe ibn
Ġaccomp lished
Ġglor ify
Ġdet est
Ġrul ers
Ġemb race
Ġdri ve
Ġdri ves
IV E
Ġwalk ed
Ġinex haust
Ġpret ty
Ġfoot st
Ġfr ank
Ġconvin cing
ĠMOR E
Ġmark ed
Ġpermit s
Ġconsist ency
Ġobe ying
Ġbarbar ic
tru e
Ġhung ry
ĠHellen ism
Ġeager ness
Ġintention ally
Ġpresupp ose
Ġantagon istic
Ġmood s
Ġhang s
ĠCH RISTIAN
Ġloft iness
Ġtransfig ured
Ġadmir able
Ġpresum ption
Ġincap acity
Ġmaxim s
Ġmaxim um
ros ity
Ġinspire s
Ġrejo iced
Ġrejo icing
Ġstro kes
ĠMay be
Ġselfd is
Ġalter ation
Ġrecollect ion
Ġpenetr ating
Ġcool ness
Ġinqu ire
ĠGr anted
ĠSP IRIT
Ġnovel ty
VII I
Ġepoch s
Ġunnatural ness
Ġincarn ate
Ġdrag on
Ġcorrect ly
Ġfount ain
ĠInt o
Ġpresc ribed
Ġrig id
Ġabsor bed
Ġarrange ment
Ġunhe ard
Ġarbitr arily
Ġarbitr ariness
ĠProtest antism
Ġluck y
ĠHA PP
ĠRuss ian
Ġexclus ively
Ġsevent eenth
Ġselfcon f
LAT OR
uffici ent
Ġdesider ata
Ġborrow ed
Ġlar ger
Ġprem ature
Ġdisappe ar
Ġdesper ate
Ġindign ant
Ġselfsacri fice
Ġbegg ar
Ġvalid ity
Ġlun atic
Ġintu ition
Ġcontempor aries
Ġepile pt
WARD S
ĠTEMP O
ĠGene alogy
ĠEc ce
ĠTRANS LATOR
insp iring
Ġmou ths
ĠDesc artes
Ġconspic uous
Ġmas quer
Ġgir ls
ĠHither to
Ġunsc rupulous
ĠMoz art
Ġunlimit ed
ochefou cauld
Ġaftere ffect
' d
' m
H ow
I X
M E
U ES
W ill
a us
b en
c hest
d est
d ides
d ipus
e ks
f ast
i k
i ge
m y
m ust
p se
p oll
r t
t ation
t wixt
u er
u ance
u cy
v irtue
y c
z es
z ed
Ã ¨
Ġ á
Ġ il
Ġt read
Ġa ug
Ġa ye
he art
Ġo ra
in ci
re ate
Ġw ake
Ġs al
Ġs ings
Ġs ang
Ġs ons
Ġs educ
er ce
er nel
Ġm it
Ġm ale
Ġm umm
Ġb ull
Ġb orne
Ġc ore
Ġf ul
Ġf ired
Ġf ier
Ġf oul
Ġp antom
Ġth w
Ġin ord
Ġin adequ
ou der
ot hes
ot ics
Ġd row
st ill
st his
ic us
ic ks
ar ity
al f
al as
Ġn ice
as ion
as hing
Ġg all
Ġg ross
Ġg lim
ent iment
ĠT rist
Ġhe arer
Ġfor gets
Ġl ud
ur al
Ġan ge
ra ble
Ġst uff
Ġst aff
ch n
ch us
Ġsu ck
ĠA ss
ul ch
ri al
ri ly
ri end
pe ction
Ġse ason
Ġse ize
ad ow
Ġv est
Ġv oid
us c
ci le
Ġor de
Ġdo er
op o
op ha
Ġk ernel
ĠS O
ĠS um
Ġsh y
Ġsh ook
ali se
et ween
Ġno ok
ard ed
Ġpre em
Ġpre acher
ĠC ONT
Ġthere upon
Ġper il
Ġper me
ac ities
Ġpo ly
Ġlo c
Ġim pet
ath y
ĠO ver
Ġar ouse
Ġsp ur
Ġsp ared
Ġsp asm
Ġup hold
Ġab o
Ġab ys
Ġab undant
Ġun like
ĠE le
ĠE VER
Ġle nd
ĠP ri
ĠP sych
ĠP OW
ĠP RA
ĠP assion
ĠTh oughts
ĠTh ucy
Ġdis rep
Ġch asm
nder s
ĠF O
ĠF ounder
ĠM ine
ort ing
Ġag ed
cc ess
Ġcont est
Ġph ant
Ġout er
Ġact uated
ĠIn n
ult ies
ism s
ite th
Ġpl ed
Ġpl us
Ġpl un
Ġpl enty
Ġad herent
ĠR ochefoucauld
cess ors
Ġsay est
Ġsel ves
Ġsa ves
Ġjust ifies
Ġstr anger
Ġra pt
Ġsub s
Ġcl osing
Ġcl oser
Ġatt ract
Ġgo est
Ġtra its
Ġthr ong
Ġdist aste
Ġaf fection
Ġhapp ily
Ġsuff oc
Ġwell known
Ġsy ll
Ġrec ently
Ġge nes
ade th
Ġbr anches
Ġhuman it
Ġent ity
Ġref usal
Ġbl ush
Ġext ends
Ġte le
Ġte chn
Ġro g
Ġro of
Ġcomp atible
Ġsim pl
fic ation
Ġsc ul
Ġorigin ates
Ġpur ch
Ġgra in
Ġlet s
OR Y
aut iful
Ġgu ile
Ġinde f
Ġcou ch
Ġview ed
Ġback world
Ġrep lied
Ġsoci alistic
Ġant id
Ġsens ual
be c
Ġoppos ites
Ġearth qu
RE D
Ġlive ly
Ġpossess ing
Ġsuper human
Ġbre aketh
Ġrest ored
Ġcontra ct
Ġden atur
Ġdest ined
ĠAt t
Ġfalse ly
man n
Ġdom estic
Ġdesp ising
Ġshort sight
Ġmar ried
Ġexpl os
Ġexpl ains
ĠSt ra
LI G
Ġche ck
Ġcur tain
Ġpure st
Ġsing ing
Ġmet amorph
ĠAn gel
Ġset tled
Ġexc ites
Ġexc itation
Ġexc iting
Ġcaus a
Ġstri fe
Ġcrit ics
Ġbur ied
Ġrun neth
Ġgenius es
Ġwa x
Ġrepresent ing
Ġnum erous
Ġver itable
Ġtend s
IC AL
IC ISM
Ġhonest ly
Ġcra fty
Ġserv ants
az z
Ġbless ings
Ġadm ired
Ġcold er
Ġinvent ors
Ġund e
Ġrare r
oura bly
Ġhast e
Ġyoung er
Ġpublic ation
Ġwit hered
ĠNihili st
Ġheav ens
Ġdevil s
Ġdomin ate
Ġfan cies
ĠIN T
Ġevol ving
xt ap
Ġeduc ational
Ġmir acles
Ġrevol ve
Ġcharm s
CE PT
Ġlist ening
Ġlist ened
Ġcomb ined
Ġliber al
know ledge
Ġho arse
ĠWH ERE
Ġhid ing
Ġstra in
Ġground s
Ġdecl ar
Ġsum mit
ALL Y
Ġfac ulties
Ġaut om
Ġstud ied
oh uman
Ġdialect ician
Ġdet ail
Ġvent ured
ĠPh arise
Ġmon ths
Ġfast er
Ġren ounced
Ġprote cted
Ġpit iable
Ġarri ves
Ġpret end
Ġpret ensions
Ġord ers
Ġesc aped
Ġabst raction
Ġtouch ing
ĠHer bert
yr r
Ġingen uity
Ġrob ust
Ġanarch ists
Ġbuild ing
Ġindul gent
Ġtoler ation
Ġadmit ted
Ġdespair ing
Ġprefer red
Ġrad ically
Ġattrib uted
Ġattrib utes
Ġcelebr ate
Ġsanct ity
Ġrepudi ation
Ġrepudi ate
ĠPre cisely
Ġcate gories
Ġdig estion
Ġuncond ition
Ġobst acle
Ġconfess ion
ATION S
Ġexerc ising
Ġpurs ue
ĠArist opha
Ġaccompan ying
Ġaud acity
Ġaud acious
ĠIT S
Ġdeb t
Ġsuppress ion
iver ing
Ġindu ce
Ġaccess ible
Ġcompassion ate
Ġmaid ens
Ġfol k
Ġflour ishes
Ġrepugn ance
AC K
Ġinqu ir
Ġtroub les
Ġretur ning
Ġdedu ction
Ġbew are
Ġgar b
Ġincarn ation
Ġparas ite
Ġdeliber ate
Ġtou ches
Ġarrog ance
ĠEd uc
ĠAccord ingly
aine th
Ġmil k
ĠOri ent
ĠRelig ion
Ġconsec rated
Ġnarc otic
Ġstrang est
Ġmusc les
Ġwat ers
Ġselfm astery
inst inct
Ġmischie f
Ġwast ed
Ġquali fied
Ġconsumm ation
Ġfet ters
ilo chus
ĠJoy ful
Ġblasphem y
Ġming led
Ġunint ellig
Ġinexp licable
Ġnause a
ĠAlexand rine
Ġdisd ain
Ġsimult aneously
Ġiss ue
Ġvag ue
ĠPruss ian
Ġjour ney
Ġtransfer red
ĠArch ilochus
Ġenchant ment
Ġbutterf ly
Ġunaw ares
Ġplen itude
Ġirres ist
Ġbenefic ent
Ġunderest imate
Ġselfdest ruction
Ġfict itious
Ġincor por
Ġforefather s
Ġirration ality
Ġmirac ulous
Ġunfav ourable
Ġhusb and
Ġdisqu iet
Ġremn ant
Ġfootst eps
Ġful ness
ĠTrist an
Ġlud ic
ĠPOW ER
ĠThucy dides
Ġgenes is
' re
A GE
F or
L A
L et
N OT
T A
T here
T hat
a ver
b ing
b ted
c reat
e ur
e ven
f ried
h ard
h ave
i ates
n o
p en
p ot
r in
s aid
u ner
u gg
u alism
v ious
w ould
z ing
Å Ĵ
Î ¹
Ġ ÅĴ
ne ath
li ved
Ġa kin
in i
in ism
re gard
Ġw id
Ġw il
Ġs hed
Ġs ombre
is is
is ions
it er
it us
it ates
Ġm urd
Ġm asks
on our
Ġb ent
Ġb ul
Ġb iography
Ġh it
Ġh oc
Ġc ard
Ġc ell
Ġf rog
Ġp a
Ġp ier
Ġp ardon
Ġth ief
Ġth irty
Ġin k
Ġin cess
or ing
an ct
an our
an throp
Ġd amp
st ru
ing er
ic he
ar ious
Ġe g
Ġe bb
qu ality
Ġbe f
Ġbe lit
Ġwh irl
Ġit and
Ġre lie
Ġre wards
Ġre vers
Ġre ins
Ġre estab
Ġg id
ĠT en
ĠT ur
ĠT ol
Ġas se
Ġas hes
Ġas ks
ĠI V
Ġhe m
ir p
ir ce
Ġl am
ur g
ur ous
ur ther
ur ches
ra de
Ġnot iced
Ġst ay
Ġst able
Ġst ick
Ġst alk
Ġcon so
ĠA ut
ĠA pp
ĠA mer
Ġde me
Ġde lus
ul ations
ri ety
ro sc
Ġme ane
all en
Ġone ness
Ġal t
am let
Ġor chest
ĠS ir
ĠS ELF
Ġsh aken
Ġev angelical
um ing
um ber
ĠH ist
ĠH amlet
Ġint est
Ġpre occ
ĠC he
ĠC ate
ĠC ulture
ĠC irce
Ġmy ths
ant e
Ġper version
Ġne ur
Ġne ck
ĠB Ã¢
ru pted
Ġim itated
ĠO TH
ĠO UT
Ġwill eth
Ġcom ment
Ġsp it
Ġup ro
Ġup ward
ĠN AT
ĠN az
Ġab used
Ġab rupt
Ġun p
Ġun it
Ġun se
ag ing
ag ainst
ĠP ER
ĠP OS
Ġdis miss
Ġfa ire
Ġr att
ound ing
ud ed
Ġcont ain
ĠL ight
Ġind ic
Ġind isc
Ġind icated
Ġlong s
ĠD ist
ĠD anger
Ġcons ol
Ġlike ness
Ġen ge
Ġen ables
Ġen fee
Ġres urrection
Ġpl ut
Ġform ing
Ġimp licit
Ġspirit ually
pl aces
olog ists
Ġap es
Ġcl er
Ġgo ver
ach ing
Ġnew ly
the ism
Ġrem edies
Ġdist ances
Ġinc ur
Ġdec ree
Ġdec rep
Ġrec ourse
Ġbr ass
old ing
Ġcomm erce
Ġhuman ly
ĠJ an
aw s
Ġlast ing
Ġent ers
Ġser ving
Ġref resh
Ġte ar
Ġpri vation
Ġapp ar
Ġapp lication
Ġcomp oser
Ġsm oke
Ġmis c
Ġins in
Ġins ult
Ġwork man
Ġgener ous
Ġsc ent
Ġsc are
Ġbest owing
ocr ats
Ġtrans ition
Ġstre et
Ġadv ances
Ġinde bted
Ġfri vol
Ġill usions
Ġconst ruction
Ġrel ate
be aring
Ġdiv ining
ĠU S
gg le
Ġdem ons
ĠAs ia
mit ted
Ġele g
Ġconce als
Ġbeh aviour
Ġfo es
sp ring
Ġgive th
pres ent
Ġdown ward
Ġdown fall
Ġdev ote
Ġdev oid
orn s
ting ly
Ġwish ing
Ġwr ought
Ġless er
Ġdesp isers
Ġconv ention
Ġsun ny
Ġmar ks
Ġoff ers
unt ed
Ġsent ences
Ġco op
pend ous
Ġcur sed
Ġ18 3
Ġdivine ly
Ġcap acities
Ġve ins
Ġpun ished
Ġinflu enced
Ġmoment ary
Ġsil ently
Ġprodu cing
ĠRe gard
Ġcommun icate
Ġwa ited
Ġ6 0
Ġsound ed
Ġvis it
Ġterri fying
Ġver b
Ġdisp osal
Ġbra nd
Ġattempt ed
Ġserv ices
Ġri ver
Ġsystem at
Ġascetic s
Ġnight s
ma x
Ġvol ume
Ġsusp ense
Ġdeterm ination
Ġdeterm ining
Ġsle e
Ġopen ly
Ġbro ok
Ġmetaphys ic
Ġforth with
Ġhast ily
Ġdestro ys
ric ate
Ġresp ond
Ġoper ation
Ġbound ary
Ġbit tere
Ġtyr ants
ĠEnglish man
Ġlist ener
ĠFrench man
Ġthirst y
Ġnar r
ĠCon f
tim e
ĠUn ity
ĠX LI
Ġaccept ance
Ġtest ing
Ġsol ved
Ġcarry ing
uff ering
Ġpoison ing
ĠBE COM
Ġmon th
Ġfly ing
Ġdecay ing
Ġexper t
Ġroad s
Ġsevere ly
Ġcalm ly
Ġecst atic
Ġsuggest s
Ġsuggest ion
OS E
Ġmaintain s
Ġrhy me
Ġappre hend
Ġvulgar ity
Ġgaz ed
Ġbarbar ian
Ġbarbar ism
Ġbig ots
Ġlust re
Ġfellow men
cl ass
Ġopt ics
Ġeth ic
Ġselfcont rad
Ġintrodu ce
Ġintrodu ction
Ġrese mbles
Ġimpati ently
Ġloath some
Ġtal ents
Ġselect ed
Ġindul gence
Ġreflect s
Ġreflect ed
Ġoccur red
Ġoccur rence
Ġbenef its
Ġenter pr
Ġtor rent
ĠSU B
Ġnons ens
Ġbetray ed
Ġfanatic s
Ġloft ier
Ġcli max
Ġhes itation
Ġhes itate
Ġris en
Ġpurs uit
Ġdrun k
Ġreb el
Ġcritic ise
Ġran cour
Ġfif ty
Ġwide ly
Ġdam nation
Ġfault s
Ġconquer ors
Ġsurv ive
Ġexuber ance
Ġecc entric
Ġanchor ites
Ġimpe ls
ĠPR O
Ġpenetr ate
Ġmaid en
Ġallto oHuman
Ġkne e
Ġprepar atory
Ġpois ons
Ġflour ish
Ġfasc inating
ĠSP E
Ġpersist ent
Ġexpedi ents
Ġfer v
Ġdiscl ose
Ġprot racted
Ġphantom s
Ġundert ake
ĠIde a
Ġarrog ant
Ġfrag ments
Ġeloqu ent
Ġdro ps
Ġunhe althy
Ġoverlook ed
Ġimprove ment
Ġspiritu alisation
Ġsafe ty
Ġathe ism
Ġju xtap
Ġmalign ant
Ġvir gin
ĠAthen ian
ĠAthen ians
Ġmultip licity
Ġfost ered
Ġstu pe
Ġstu pendous
Ġproject ed
Ġenn ui
Ġconvalesc ent
ĠInst ead
Ġinfli cted
Ġdegrad ation
Ġbuff oon
ĠUnt o
ĠIM P
Ġprede cessors
Ġlege nds
ĠProv idence
Ġcul min
Ġsequ ence
Ġprolong ed
Ġdisill usion
Ġneut ra
Ġaggress ive
Ġtrod den
Ġcomplic ated
Ġtant amount
Ġdecept ive
Ġdisor der
Ġtranqu il
Ġindescrib able
Ġincon ce
oter ic
Ġarous ed
Ġunav oid
Ġclevere st
Ġcorps es
Ġautob iography
Ġpredile ction
ĠPEOP LE
Ġmathe matic
Ġperpetr ated
ĠOW N
Ġhistrion ic
Ġmasquer ade
Ġora c
Ġfired og
Ġscul pt
Ġantid ote
yrr ho
Ġuncondition ally
Ġludic rous
uner al
ĠÅĴ dipus
Ġgid d
ĠAmer ic
Ġdeme anour
Ġpreocc up
ĠBÃ¢ le
Ġbittere st
' ve
C ESS
E EL
G O
I DE
I FFER
K ingdom
L ED
M an
P H
R ON
T R
V EN
W ell
a ult
b ow
b ility
c heth
c oloured
f oot
g ive
g ment
h as
h ical
i pe
i als
i ber
i astic
l ation
l ock
m ight
m inate
o ge
o oth
p li
p es
p ass
r as
s a
s is
t ling
t les
u nes
u its
w illed
w isdom
x ity
x imate
y se
z a
Ã ª
Î ½
Ġ âĢĵâĢĵ
Ġt ig
li able
Ġw ol
Ġw ield
Ġs ighed
Ġof ficial
Ġm ic
Ġm ess
Ġm art
en ch
en za
Ġb ark
Ġb owed
Ġb ait
Ġc it
Ġc ling
Ġf is
Ġf ought
Ġf uneral
Ġp p
Ġp ant
Ġp oses
Ġth resh
Ġth reate
Ġin hab
an a
an ation
Ġto ol
Ġd ies
Ġd ys
Ġd ile
Ġd ub
Ġd yn
ing ers
le g
Ġis land
al ter
as ingly
Ġre ven
Ġre gener
Ġre prehensible
im es
im uli
Ġg ild
Ġg ains
Ġg ames
Ġg rud
ent ive
ct ing
ĠT ow
ĠT itan
Ġas keth
Ġas piration
ĠI ll
ĠI DE
Ġu l
Ġhe arers
Ġhe arken
Ġl ately
th ose
Ġan te
Ġst am
Ġst imuli
Ġcon ven
Ġsu ited
Ġall usion
ĠA W
Ġde us
Ġde pl
ri er
Ġse mblance
Ġse venth
Ġv ap
Ġy onder
Ġal oud
Ġman liness
ter y
ak est
am er
am med
Ġor n
Ġdo eth
Ġk in
ĠG ERM
ĠS pe
ĠS cept
ĠS we
ĠS imil
ĠS ieg
Ġsh if
Ġsh attered
Ġev idently
ĠH a
ĠC ent
ĠC reat
ĠC ru
ĠC OULD
Ġper verted
Ġne ther
ĠB l
ĠB rut
ĠB eware
ĠB etween
Ġpo lic
Ġlo ad
Ġlo yal
Ġpro ving
em pl
Ġsp ort
Ġup b
iv ation
ag li
ag er
ĠP et
ĠP res
ĠP rogress
ĠP yrrho
Ġus age
Ġch ose
Ġch apter
Ġch allen
ment ioned
ĠF l
ĠF EAR
ĠF EEL
Ġj un
ĠM at
ĠM odern
Ġr ust
Ġr otten
art s
Ġmor ali
Ġsome one
ore al
Ġtr icks
Ġcont ag
ĠL EAR
Ġph ases
Ġam p
Ġout rage
Ġind icate
ĠD ost
ĠD av
ĠD IST
ĠD Ã¼
ok ing
ĠIn ter
ĠHe ine
ĠWh om
el ess
Ġca vern
Ġpl ans
Ġform ation
Ġad ul
ĠR itsch
ab ble
Ġsel ff
pl ac
Ġself ab
Ġself knowledge
int o
Ġcl own
Ġtra ged
Ġtra de
the ir
Ġrem inisc
Ġthr ows
oth s
Ġsuff iced
other s
Ġbet wixt
Ġnecess ities
Ġwhere fore
Ġseem ing
ĠJ ohn
ip ot
ip ed
Ġaw ait
Ġunt ruth
ĠTHE M
ĠTHE Y
ific ations
Ġent rance
te en
Ġref uses
Ġext irp
Ġte acheth
Ġdisc oura
Ġapp oint
Ġcomp osition
Ġindivid u
Ġreason ably
Ġinf l
Ġinf irm
Ġmis interpre
Ġins ip
Ġbad ness
Ġsc ript
Ġorigin ality
Ġpain t
Ġgra ves
Ġlet ting
Ġsin ners
Ġbelief s
Ġple ases
Ġple asurable
ere th
Ġfl ower
Ġass es
Ġass urance
Ġgu ise
Ġadv isable
atic s
IN AL
Ġsur vey
Ġback b
Ġback s
Ġrep ute
Ġrel ating
ĠU P
Ġpsych ical
Ġcor n
ĠBe hold
Ġlaw g
Ġlaw book
err ing
Ġeffect ed
ĠSch le
ase ment
ia h
Ġdown wards
lit an
Ġdra ught
Ġrest ed
Ġnor th
Ġ5 8
Ġ5 9
Ġunc ommon
Ġimag inable
Ġdream er
Ġspeci e
Ġdef iance
Ġworth less
Ġfull er
Ġlead er
Ġcr ush
Ġcr isis
Ġdoubt less
Ġinterpre ts
Ġret rogress
lis hes
Ġprop ens
Ġprop ositions
Ġaff ords
Ġimport un
Ġrequire ment
Ġche ap
OU T
Ġbelong ing
iss im
Ġexc use
Ġcal am
Ġhy g
Ġid yl
ale th
Ġsw im
Ġsw ift
Ġfav oured
Ġpath ological
Ġmot to
cip line
ĠAl though
ĠNo body
Ġnob les
Ġ6 2
Ġfam ili
Ġacqu aint
Ġdisp ute
Ġbra ins
Ġbra vest
Ġserv ile
Ġprov ides
Ġprov ince
Ġprov okes
ĠSu ff
Ġmetaph or
Ġtem por
Ġdece it
Ġexp osition
Ġexp osed
Ġsle pt
Ġdistinct ness
Ġdistinct ions
Ġrare st
Ġinvol ve
Ġsuccess fully
hens ion
Ġassum ing
Ġswe pt
Ġhor rors
IL D
IL ITY
Ġdegener ating
Ġtur neth
Ġmad house
Ġshame ful
Ġsimil es
Ġdestro ying
Ġpoli ce
Ġdiss atisfaction
Ġheav ily
Ġheav iest
Ã¦sthe tic
Ġdomin ated
Ġhate ful
Ġann oy
Ġgrand eur
Ġsepar ating
Ġrevol utions
ĠEnglish men
Ġvar ied
Ġvar iations
Ġvar ieties
Ġshad es
Ġtransform ing
Ġtreat s
Ġtreat ise
Ġgrad ual
EL L
Ġamount s
Ġcross ed
Ġsentiment ality
Ġtort ures
ĠPe ter
Ġlu c
Ġunf athom
ĠX L
Ġantit heses
Ġsucceed s
Ġelev ating
Ġtest ed
Ġsol ar
mp ed
Ġdi am
Ġglor ification
Ġvent ures
Ġpress es
Ġpress ed
Ġmult if
Ġperform ing
Ġpost hum
Ġemb ra
Ġemb el
Ġexpect ation
Ġimpress ions
Ġdri ving
Ġscept ic
Ġscept ical
Ġscept ics
Ġcivilis ed
Ġna ive
atch ing
Ġasc ribe
Ġperish ing
Ġimpro b
Ġimpro v
Ġasso ciation
Ġforbid s
Ġgentle men
OL OG
Ġconsist ed
Ġobe ys
Ġbig ot
Ġ188 1
Ġ188 6
Ġprincip ally
Ġpos itions
ĠÃ ł
Ġcour ts
Ġhencefor ward
Ġredu ction
Ġfle w
Ġaston ishing
ĠQ U
Ġthereto fore
Ġbenef actor
Ġlones om
Ġdemonst ration
Ġdemonst rate
Ġbold ly
Ġpersu aded
Ġinvestig ator
Ġur ge
Ġur ged
Ġsubmiss ive
ĠPre face
OP E
Ġpred est
Ġpred isp
ĠCON C
Ġendeavour ing
UT Y
gl or
Ġyield ing
tere th
Ġmild ness
Ġremind s
Ġstop ped
Ġprerequis ites
Ġport ent
Ġran ks
Ġwel come
Ġaffli cted
Ġfant asy
ĠSc he
uit ous
Ġfil thy
Ġdefect s
Ġspec im
Ġstret ched
ĠdÃ©cad ent
Ġthro ne
Ġthro at
Ġsurm ise
ĠSoci alists
Ġdemon iac
Ġrevolution ary
Christian ity
Ġhunt ing
Ġfasc ination
Ġguess ed
ĠParis ian
Ġcorrespond s
ĠZ ARATHUSTRA
Ġenig matical
Ġwanton ness
Ġcosm ic
Ġreject ed
ĠÃĨsch yle
Ġprodig ious
Ġtou ched
Ġunbe lief
Ġselfe x
Ġwarri ors
Ġdwell eth
Ġpin ions
Ġinsc ription
ĠAR T
Ġsold iers
ĠBrah ms
Ġoffend ed
ĠCom edy
Ġpropag anda
Ġbind s
Ġstat ue
Ġwithdraw n
ocrit us
Ġimpover ishment
Ġration ality
Ġoverth row
Ġoppress ion
ĠEr ror
Ġoverwhel ming
Ġnewspaper s
Ġgru esome
Ġresol ved
Ġhyster ical
gre g
Ġdeterior ation
Ġinfli ction
ĠBless ed
Ġdiscont ent
Ġpenal ty
Ġsquand ered
Ġdischar ged
Ġfors aken
Ġconvers ation
ĠCA US
Ġadvers ary
Ġadorn ment
Ġswall ow
SI BLE
Ġpermiss ible
Ġpoore r
Ġplane t
Ġimpr is
Ġdiscove rer
ĠVict or
Ġflas hes
Ġted ious
ĠGre cian
ĠSem itic
Ġgrou ps
Ġassured ly
Ġsaty ric
Ġforci bly
Ġmend acious
Ġjo in
ĠVen ice
Ġflut tering
Ġdivor ced
Ġdial ogue
ĠanÃ¦ mic
rospect ive
Ġexpend iture
Ġintol erable
Ġdepra vity
Ġrecip ro
Ġexem pli
ĠHor ace
Ġprover b
ĠFRI END
Ġamuse ment
ĠImper ative
ĠBes ides
Ġinexhaust ible
Ġselfdis cipline
ĠHAPP INESS
Ġpantom ime
Ġange ls
opo litan
Ġabys mal
Ġplun ge
Ġadherent s
Ġdeclar ation
ĠAut umn
Ġintest ines
ĠCate gorical
Ġplut ocracy
Ġfrivol ous
Ġthresh old
Ġthreate ned
ĠSieg fried
ĠBrut us
Ġpolic y
Ġjun cture
ĠLEAR N
ĠDav id
Ġidyl lic
Ġtempor arily
A P
B OUR
C OND
D ionys
I ES
O ST
R IT
S ENT
b ell
b lind
c o
e h
e en
e ys
e xt
g od
g reat
h ind
i as
i one
k er
l ain
l ause
n or
n ay
o vers
o vation
p irit
p ost
r ice
r ating
r ont
r oud
r atum
s ky
t ur
t ort
u f
w orm
w arf
y th
Î »
Ï ģ
Ġt ight
Ġt ail
Ġt une
Ġt ainted
li am
Ġa udi
Ġo st
in age
in ately
in rich
re m
re ls
Ġw ither
Ġw recked
Ġs ir
at ical
at ile
it ous
it ism
it ants
Ġm ix
en ith
Ġc el
Ġc amp
Ġc attle
Ġf old
Ġf idelity
Ġp aying
Ġp ushed
Ġin se
Ġin ference
or ge
or gan
or get
an ic
Ġto il
ou reth
Ġd ar
Ġd ivid
ing ing
ic les
Ġe gg
qu ished
le e
Ġn im
Ġwh ip
ly ss
Ġre ss
Ġre alism
Ġre lieve
Ġre liable
Ġg ang
Ġg lit
ent ious
ut ure
ĠT ell
ĠI so
ĠI mp
Ġhe al
Ġfor wards
Ġl ain
Ġl ured
Ġl ands
Ġl avish
ld e
th ings
Ġan gel
Ġst ore
Ġst ren
ch ild
Ġwe igh
Ġcon cili
Ġli ars
Ġli ft
ist ry
Ġsu st
Ġsu ng
Ġde ities
Ġde alt
Ġde fici
ul ously
est ro
ro lled
ro ken
Ġme at
Ġv ill
Ġv ac
ill y
ĠW il
ĠW omen
ĠW ords
Ġy oke
Ġat av
ge nera
Ġman aged
ess ing
Ġso othing
op s
ĠG alian
ĠS ur
ĠS ils
Ġsh ock
et te
et aph
um ann
ĠH ind
ĠH err
ĠH IST
ĠH ush
Ġno blem
Ġno isy
Ġno stri
ĠC or
ĠC ar
ĠC ase
ĠC REAT
Ġper force
ac cess
reat h
ig ne
ĠB er
ĠB iz
Ġlo qu
ru cted
ĠO VER
Ġar che
ĠN eed
Ġun st
Ġun ass
ĠE D
ĠE p
Ġle aps
Ġle adeth
ĠP ain
ĠP ort
ĠP ASS
ĠTh ough
Ġdis aster
Ġch ains
Ġch ances
Ġch air
ĠF A
ĠF ate
ĠF IR
ĠF ancy
ĠF alse
ĠF urther
Ġj oke
Ġj ourn
ĠM ens
Ġfa rew
Ġag itated
Ġr ang
Ġr ider
art istic
Ġcan n
Ġinst ructive
ĠL E
ĠL ong
ĠL IV
Ġph ase
Ġpe ac
Ġind olence
Ġlong ed
Ġqu ivering
ĠD on
ĠD oth
Ġact iv
Ġen for
Ġspe cul
ĠHe l
ĠHe inrich
lie vers
el ve
Ġres our
Ġres olution
Ġca ves
Ġpl ough
Ġform al
Ġimp ure
ĠR ed
ĠR ES
cess es
Ġacc omm
Ġsou th
Ġsa ils
Ġjust if
ict ed
Ġself ren
Ġself glor
Ġra cial
Ġreg ret
Ġend ow
Ġtra vell
the ned
Ġrem aineth
ĠTH INGS
ove ment
we re
we th
Ġhapp ier
Ġwell s
Ġthought lessness
Ġappe aled
Ġpart ial
Ġrec overed
ject ion
Ġdif f
Ġseem ingly
oy ant
Ġem pir
Ġbl own
Ġbl oss
Ġchar ge
Ġchar ity
Ġext end
Ġext ended
Ġext ensive
Ġte ne
Ġinv ents
ER Y
ĠV i
ĠV OL
Ġwis er
ten ing
ors es
Ġimm em
Ġimm odest
Ġday light
Ġsm iling
Ġsm iled
Ġsm ooth
Ġins olence
ĠThere upon
Ġlight er
Ġsc ope
Ġpain fully
OR S
sequ ent
Ġtrans val
Ġtrans mitted
Ġfl u
Ġfl ames
Ġconf ine
Ġconf ined
Ġop ens
Ġpar ce
IN K
Ġrep lies
Ġtake th
Ġdiv est
ĠU lyss
Ġac id
Ġfre er
Ġsign ifies
Ġequ ity
Ġchild ishness
Ġtri v
Ġdra mat
Ġbel ongeth
ĠDionys os
Ġrest ore
Ġproblem atic
Ġfear less
Ġut ters
Ġimag ines
Ġdream ed
ub b
Ġes oteric
Ġfore ig
go ism
rib ly
Ġshe ll
Ġoff spring
Ġprom inence
Ġdangerous ly
ĠNot es
Ġco inc
ĠSt ates
Ġche cked
sthe se
Ġpure r
ĠAn s
Ġ18 4
Ġdivine s
Ġve hem
Ġpun ct
Ġexc ited
Ġrevenge fulness
Ġhy mn
Ġcar ri
Ġprodu cts
Ġcru ell
Ġhelp ful
Ġlangu ages
Ġwa iteth
Ġrepresent atives
Ġ6 1
Ġ6 3
Ġ6 7
Ġvis ions
Ġhope less
Ġacqu is
Ġdisp ensed
IC I
Ġnight w
Ġsure st
Ġcast ration
Ġstrange ly
ED Y
Ġenjoy ments
Ġvol can
ert ained
Ġhistor ic
Ġhistor ically
Ġ7 3
Ġsk ill
Ġsk il
Ġund one
Ġherd s
Ġherd sman
Ġselfc om
Ġair s
Ġswe ep
Ġforg ot
Ġvan ish
Ġvan ished
Ġwind ow
Ġmyst ical
Ġdraw ing
Ġbo ard
Ġast ute
Ġbound less
Ġlab orious
ĠInd ians
Ġep os
Ġep idem
Ġbar ren
Ġestab lishing
Ġextre mes
Ġpreser ves
ĠFrench men
Ġdistingu ishing
Ġsedu ced
Ġperce ives
Ġgloom iness
Ġattack ing
ĠCon versely
Ġsacrific ing
Ġfather land
Ġterm in
ĠWH Y
ĠPro p
Ġmeet ing
Ġcomfort ing
Ġmer c
Ġwrong ly
athe red
Ġhop ing
Ġste ep
Ġunf air
Ġbrother s
Ġgrasp ing
Ġsweet est
IR D
Ġrepe tition
Ġstud ies
Ġguard ed
Ġcontradict ed
Ġthird ly
Ġdialect ical
Ġindepend ently
Ġdi vers
Ġdet ect
Ġmon k
Ġauthor ities
Ġcred ulous
Ġmem ber
Ġpost ulate
Ġfalsehood s
Ġdance th
Ġsuperst itions
Ġdan ced
Ġresent ful
Ġsubst ratum
Ġfem ales
Ġcalm ness
Ġer a
Ġearnest ly
Ġmaintain ing
Ġsurpr ises
Ġsav i
Ġempl oys
ĠLike wise
Ġcompan ion
OL D
Ġstart s
Ġstart ing
Ġobsc urity
Ġbarbar ous
Ġbarbar ians
Ġconstra ined
Ġprincip ium
Ġrese arch
Ġstimul ated
ĠJud Ã¦
Ġcour teous
Ġwretched ness
ĠNE ED
ĠNE IGH
Ġrob ber
ĠĠĠĠĠĠĠĠĠĠĠĠĠĠĠĠ ĠĠĠĠĠĠ
Ġnarrow ness
Ġunre st
Ġvers us
Ġindul ged
Th is
uc id
Ġtoler ance
Ġdepress ing
Ġbrid ges
Ġcontent ment
Ġrepudi ates
Ġmask ed
Ġsn ake
Ġric hest
Ġphilolog ical
Ġtransfig uring
Ġyield s
Ġassert ions
Ġclever ness
Ġtong ues
Ġsqu are
Ġobtain s
Ġirrit ation
Ġirrit ability
Ġsharp ly
Ġquar ters
Ġport ions
Ġdepri ve
Ġprec ision
Ġconj ure
Ġaccompan ied
ye a
Ġed ition
Ġtimid ity
Ġrecon cile
Ġsus pend
ĠSupp ose
Ġrejo ices
Ġvig our
Ġlad en
ĠAN T
Ġcompl ain
Ġdefect ive
Ġemph atically
Ġacknowled ging
Ġsen ile
Ġcomprehens ive
Ġindu ced
Ġaccum ulation
Ġtreasure s
Ġproc reat
Ġfulf illed
Ġartific es
Ġrecomm ended
Ġsuperab undant
Ġidi otic
Ġfasc inated
Ġaband on
Ġdish on
Ġromantic ists
Ġreact ing
ĠZ e
Ġbew ild
ĠGospe l
Ġenig ma
Ġtravel ling
Ġdiscl osed
Ġparas ites
Ġexplo it
Ġanticip ate
Ġz enith
Ġgate way
Ġpreced es
Ġflatter ing
Ġpoem s
ĠEd ition
Ġselfe v
Ġinvalid s
Ġunclean liness
Ġprompt s
Ġinsc ribed
Ġdro ve
ĠCOM P
Ġentertain ment
Ġimmor alist
Ġtrib un
Ġsubt lest
Ġaspire s
ĠHA VE
Ġexclus ive
Ġsli p
Ġlat ent
Ġpersec ution
ĠTHERE FORE
Ġinsati able
Ġeffe min
Ġnarc otics
Ġachieve ment
Ġbond s
Ġstead y
ĠAT T
ĠImm or
Ġtorment ed
Ġemphas ise
Ġmislead ing
Ġhyster ia
Ġinfect ed
Ġhall uc
Ġstamp ed
Ġcorp oreal
Ġunwilling ly
Ġlaz y
ĠDem ocritus
Ġobserv ations
Ġpolite ness
Ġbored om
ĠVIRT UE
Ġpull ed
Ġweep ing
Ġunreason able
Ġhosp it
Ġcas ual
ĠSpeak s
Ġagit ators
RES S
Ġcraw l
Ġfortun ate
Ġfortun ately
Ġpredomin ance
Ġball ast
Ġpam ph
Ġviv ise
Ġsore ly
Ġartic le
Ġrighte ousness
Ġdisintegr ation
Ġvall ey
Ġgovern ment
Ġcruc ify
Ġunspeak ably
Ġprecaut ion
Ġarchitect ure
Ġprosper ity
Ġpang s
Ġhaught y
ĠSOU L
ĠMad ame
Ġprofession al
Ġadminist ration
Ġadequ ate
Ġrepr odu
ĠETERN ITY
Ġdisbe lief
Ġchrist ened
Ġscru ples
Ġephe mer
Ġvindict ive
Ġunra vel
Ġhumb ug
Ġprior i
Ġchem ical
ĠPrim ordial
Ġinadequ ate
Ġglim pse
ĠSum mer
Ġperil ous
Ġperme ated
ĠEVER Y
Ġdisrep utable
Ġsubs ist
Ġdistaste ful
Ġearthqu ake
Ġshortsight ed
ĠStra uss
ĠAristopha nes
Ġinquir y
ĠTur in
Ġlam bs
Ġdelus ions
Ġenfee ble
Ġferv our
Ġjuxtap osition
Ġdisillusion ment
Ġmic rosc
ĠRitsch l
Ġselff orget
Ġinsip id
Ġbackb one
Ġunfathom able
Ġlonesom est
ĠÃĨschyle an
Ġimpris oned
Dionys ian
tort ure
ĠIso lde
ĠGalian i
etaph ys
Ġnostri ls
access ible
ĠBiz et
ĠFIR ST
Ġfarew ell
Ġaccomm od
ĠUlyss es
Ġvehem ence
ĠNEIGH BOUR
A B
A PP
D o
E ur
H ell
S t
V ES
X IA
Y S
a ner
c hen
d ed
d ers
e ches
f y
f ess
f our
f ies
f ted
f reedom
h ring
i ency
l aw
n amed
p ow
p ain
p ity
p ulch
s alvation
t t
t w
u le
u zz
u ccess
w rit
w arm
z t
li ant
Ġa verse
he it
in ces
in ning
re qu
re ng
Ġw iz
Ġw iped
Ġs ap
Ġs erm
er ating
at tain
it or
it ations
Ġm im
Ġm udd
on ly
on ance
en cing
Ġb en
Ġb and
Ġb ree
Ġb ade
Ġb ash
Ġb apt
Ġc ured
Ġc overed
Ġc ode
Ġc ourses
Ġf ert
Ġf etter
Ġf umes
es cend
Ġp ays
Ġp ace
Ġp ane
Ġp aces
Ġin fection
Ġin sec
Ġin accessible
or a
an y
Ġto oth
Ġto wer
Ġd as
Ġd ain
Ġd ate
Ġd rum
st e
st h
st ones
ll e
ic ists
ar g
ar ance
ar able
ar ism
Ġe greg
qu est
al y
Ġn amed
ce tic
Ġre nd
Ġre ct
Ġre aw
Ġre form
Ġre alises
im m
Ġg ates
Ġg ently
Ġg rop
Ġg iver
Ġg athered
ut ing
ĠT art
ĠT rue
Ġas pired
Ġas yl
Ġhe els
Ġfor fe
Ġl ac
Ġl ords
Ġl ouder
ur ring
th iness
ra ined
Ġnot ed
Ġst er
Ġst if
Ġst ult
Ġst ub
Ġst ability
Ġst ored
Ġwe b
od ies
Ġwith stand
Ġli ked
ist em
ist ical
Ġsu it
ĠA men
ĠA rian
ĠA rab
Ġse nd
Ġse ed
Ġse al
Ġse ttle
ad s
Ġv es
Ġv ulture
ĠW illing
Ġy aw
Ġal s
Ġal liance
Ġman tle
ak able
if ull
ure ly
am ps
Ġso aring
op he
Ġk not
ĠG e
ĠS ong
ĠS aw
ĠS abb
Ġsh op
Ġsh ore
Ġsh rie
Ġev ild
et ing
os om
ĠH onest
ast rop
Ġno on
Ġno ct
Ġpre rog
Ġpre face
ĠC e
ĠC l
ĠC omm
Ġper f
Ġper ished
reat ed
Ġne st
ig antic
ĠB ac
ĠB ack
Ġlo vest
Ġlo vable
Ġpro li
ru ption
Ġim b
ĠO cc
ĠO XIA
Ġar rest
Ġfe ign
Ġsp urious
ĠN U
ĠN a
ĠN one
ĠN ice
Ġab om
Ġab ortion
Ġun German
Ġun acc
ĠE ach
ĠE UR
per or
ĠP fort
ĠP ole
ĠP yth
ĠTh ings
Ġdis li
Ġdis regard
Ġch ival
Ġch urches
ĠF ar
ĠF undament
ĠF ried
ĠF REE
ĠF riend
ĠF uture
Ġj est
ĠM ist
ĠM ess
ĠM ag
ĠM el
ĠM ep
ĠM oh
ĠM US
ĠM asters
ĠM AKE
Ġag re
Ġr ays
ore m
ore ans
ire s
Ġcont ext
ĠL I
ĠL iving
ĠL VII
ĠL AST
Ġph r
Ġam orous
og ues
Ġpe er
Ġout set
Ġind olent
ĠD u
ĠD ing
ĠD oric
ĠD ANG
ĠD IFFER
ass es
ĠHe ar
Ġow er
Ġpower less
Ġca ress
oc y
ang ible
Ġover s
Ġimp osing
Ġphil anthrop
ĠR em
ab ilities
Ġsay ings
un c
ple te
Ġjust ifying
ved ig
Ġstr ay
Ġstr angers
hen ce
Ġgr otes
Ġself ish
Ġra mp
Ġreg ions
Ġsub sequent
aps es
Ġcould st
Ġtra ck
oll y
ord ered
ile th
the w
Ġrem ove
ĠTH Y
Ġinc itement
read ing
Ġrec omp
Ġbet imes
peri ence
Ġhere tic
Ġhere after
ĠFor give
sc ribed
ĠJ u
aw ay
Ġaw a
Ġem bit
ber g
Ġref used
Ġru b
Ġru de
Ġconc ent
Ġext ingu
Ġfind eth
Ġdisc rim
Ġdisc overs
Ġpri zed
Ġintellect ually
Ġsm ug
Ġinf lex
Ġtw ist
Ġtw ain
Ġher mit
Ġrelig iously
Ġperson alities
Ġwork men
Ġinter p
Ġinter val
Ġgener ated
av our
Ġorigin ator
Ġpain ter
Ġpain ted
Ġpain ters
ative ly
Ġgra vedig
Ġlet ters
OR T
Ġexpress ing
Ġexpress ly
Ġmight iest
Ġfoll ower
Ġfl ock
Ġstre ets
Ġprof ounder
Ġadv ice
Ġwar mer
Ġwar rant
Ġsl umber
Ġconf ront
ph ic
Ġill t
Ġill will
Ġcle arer
Ġpar ody
Ġpar allel
Ġview ing
Ġrep ast
Ġrel ent
Ġrel uct
Ġgod ly
be it
ĠU lt
Ġel ucid
ĠBe lief
Ġpsycholog ically
Ġsuper b
Ġbre asts
Ġbeh aves
Ġbeh alf
Ġobject ively
Ġrequ is
Ġmast ering
Ġstreng thened
AN K
AN ITY
AN CES
Ġdoub ly
Ġmodern s
ĠIs lam
velop ed
Ġdef ine
Ġcontin uously
Ġcontin uance
Ġfore run
Ġpassion ately
Ġfull ness
de ned
Ġsun set
Ġshe l
Ġshe er
Ġexpl ore
Ġprom inent
Ġco b
Ġco ff
ĠSt u
ĠSt rong
OU ND
Ġcap ric
Ġcap ital
Ġpun ishing
Ġreve ll
Ġhy brid
Ġdelight s
Ġter ribly
Ġhelp s
Ġpast ime
Ġcommun al
Ġwrit er
Ġconsider ate
Ġprim a
Ġbur sts
Ġprocess ion
ĠNow adays
Ġenj o
Ġphysiolog ist
Ġcame l
Ġappro aches
Ġappro xim
Ġappro ximate
Ġ6 5
Ġsound eth
Ġterri fied
Ġgrow eth
Ġhear ty
Ġhabit uated
Ġobser ver
Ġdisp ose
Ġdisp ens
IC T
Ġcra ve
Ġcra ck
Ġcra vings
Ġcoun term
Ġpop p
Ġfall eth
Ġcast ing
wor thiness
Ġtem ples
ĠPer icles
Ġsle nder
Ġsuccess ion
Ġselfc onsciousness
Ġexception ally
Ġmetaphys icians
Ġav ow
ĠSe ason
Ġhal cy
Ġanti Christian
Ġattain ment
Ġpublic ly
Ġprob ability
Ġsit teth
Ġheav iness
Ġdevil ry
ĠRom antic
Ġgrand m
OT H
Ġbo oty
Ġ8 9
Ġast rol
ĠIN TER
Ġevol ve
Ġcol oured
Ġlab ours
Ġ9 6
Ġcontempl ativ
Ġep istem
lin k
Ġpreser ving
Ġtransform ations
ENT LY
Ġliber t
app ing
Ġtreat ing
Ġgrad ations
cer ity
Ġcompe t
Ġblind ly
Ġwonder fully
Ġleg al
Ġsacrific ial
Ġdark er
Ġsleep ing
Ġfra gr
ĠWH ICH
ĠPro logue
Ġcomfort ed
TH AT
Ġmer ch
Ġpolitic ians
Ġ19 1
Ġoblig ations
Ġroot ed
Ġelev ates
Ġmed ical
Ġmed itation
ĠHell ene
Ġenthusi asts
Ġstrict est
ĠBE A
Ġprep aring
ĠPh il
Ġimpress ed
Ġcontrast s
ob edience
Ġresist ed
ĠPar ad
Ġwear ied
Ġsevere st
Ġmaj est
Ġenc oun
Ġer otic
Ġang rily
Ġtransl ate
Ġtrust ing
Ġconsist ing
Ġobsc ur
ĠRE C
ĠRE LIG
Ġfellow feeling
cl oud
Ġstimul ating
Ġmother s
ĠĠĠĠĠĠĠĠĠĠĠĠĠĠĠĠ ĠĠĠĠĠĠĠĠ
Ġbuild s
Ġlaug heth
Ġhur ry
fortun ately
Ġspread ing
Ġcho oses
Ġpresupp osition
Ġbold ness
Ġfit ting
Ġadmit s
Ġslight ly
Ġscorn ful
CH E
Ġblack est
Ġinfer i
Ġcollect ed
Ġcollect ion
Ġstraight forward
Ġcalcul ation
Ġcalcul ate
Ġciviliz ations
ĠSU CH
Ġestim ation
Ġparad ise
ĠMORAL S
Ġpat ernal
oman ia
ĠCH ILD
ĠCH AP
Ġdescend ing
Ġdescend ed
anim ous
anim ity
Ġbright er
ĠEm peror
Ġlevel ling
Ġweight s
Ġconj uring
Ġconj unction
Ġaccompan y
Ġwealth y
ĠWould st
Ġappropri ation
Be hold
whe ther
Ġvig or
Ġorg iastic
Ġdawn s
Ġspo ils
Ġcaut iously
Ġregular ly
Ġoccup ation
Ġsuspect ed
hist ophe
ĠST R
Ġoverc ame
Ġidi ot
Ġidi ocy
pr odu
Ġhint s
Ġdepre ciation
Ġpersist ently
Ġsmell s
Ġsuccumb ed
inth ians
imp ro
Ġcomprehend ed
Ġdedu ced
Ġdisplay ed
ĠDarwin ism
Ġimperson ality
Ġz u
rest rial
Ġsink ing
Ġsigh ing
Ġfill s
Ġfurn ishes
Ġimpart s
Ġimpart ial
Ġcalumn iated
Ġappreci ated
Ġsuscept ible
Ġunbe arable
Ġafford ed
CI ENCE
Ġpron ounce
ĠBrah m
Ġpomp ous
Ġdeem ed
ĠSE E
Ġsynt hetic
Ġcounterfe iting
ex ist
Ġmil li
Ġinit iated
Ġdict um
Ġimpover ished
Ġaccur ate
ĠProtest ant
Ġthin keth
Ġelim ination
ĠRuss ia
Ġcultiv ation
Ġembod iment
Ġdwarf s
Ġdimin ish
Ġdisappoint ment
Ġbread th
aliz ed
Ġeffe minate
Ġspecific ally
Ġlur king
Ġvir ile
Ġantip odes
cher y
Ġpagan ism
ĠOther s
Ġoutbur st
Ġhall owed
Ġalarm ing
Ġdesider atum
Ġcorp se
Ġsor rows
Ġloud ly
Ġlaz iness
Ġunderm ine
Ġhumili ation
Ġindividuation is
Ġtemp est
ĠSecond ly
Ġconject ure
Ġapost le
Ġdiscern ment
Ġfreethink ers
ĠUnt il
Ġpunish ments
Ġceremon ies
Ġcovet ous
Ġcovet ousness
Ġfield s
Ġdaw ned
ĠCR IT
Ġpoll uted
Ġswall owed
Ġingenuous ness
Ġexult ation
Ġobtr usive
Ġrighte ous
Ġutilit arian
Ġburdens ome
Ye a
Ġomn ipot
Ġmal ady
Ġintens ity
Ġextinct ion
Ġtrif ling
Ġinnov ations
Ġmagnanim ous
Ġmagnanim ity
Ġallevi ation
Ġdishonest y
ĠTeut ons
xi om
ĠSou thern
ĠPur itan
Ġworldhist oric
Ġcommence ment
Ġfulfil ment
Ġcontri ved
Ġpreval ence
Ġvex ation
Ġsket ch
Ġposit iv
Ġalcoh ol
Ġwholes ome
ĠHIGH ER
Ġunus ual
Ġsuperfici ality
Ġuncon qu
Ġconvuls ions
Ġprovision al
Ġelabor ate
ĠHu go
agor as
ĠFr anc
ĠFour th
Ġobs ess
ĠLeibn itz
Ġá ¼
Ġfier ce
Ġdrow ned
bec ause
Ġunintellig ible
Ġcard inal
stru ggle
Ġrelie ved
ĠChe er
Ġindic ations
Ġconsol ations
ĠJan uary
Ġselfcontrad iction
Ġnonsens ical
might y
Ġcit iz
ĠTow ards
Ġul terior
Ġante ced
Ġorn ament
empl ation
Ġupb raid
ĠMat thew
Ġretrogress ion
Ġfamili es
Ġportent ous
Ġaudi ence
Ġcel est
Ġress entiment
Ġimmem orial
Ġtriv ial
ĠAns wer
Ġcarri eth
Ġselfcom plac
Ġselfev ident
Ġephemer al
Ġenfeeble ment
Ġselfforget fulness
Ġwiz ard
attain able
Ġasyl um
Ġstub born
ifull y
ĠEUR OPE
ĠPfort a
ĠFried rich
ĠMep histophe
ĠMoh ammed
ĠMUS IC
ĠDANG ER
Ġgrotes que
Ġcontemplativ a
ĠCHAP TER
A h
A poll
F ACE
G ree
H ere
K E
L ife
N ietzsche
O V
P ECT
S CHE
T O
T Y
T LE
U B
U CH
U DE
W h
Z SCHE
a ur
b o
b less
c at
c ence
c ers
c ons
d ict
e z
e es
e ep
f est
f lu
f action
f aced
g est
g ust
g red
i ating
i ative
i atic
i Ã¦
m ot
m est
m ali
m ell
m asters
o ber
o iew
o of
o ners
p ter
r iction
s l
s al
s pecially
t est
u ating
v a
v oc
v ah
v angelical
w it
w ord
w recked
y ou
Ã ¹
Ï Ģ
Ï Ħ
Ï Į
li ament
Ġa y
Ġa xiom
Ġo mit
in x
in ities
in keth
re ne
re ak
Ġw ider
Ġs ie
at ig
at hed
at ry
it a
it ans
Ġm aste
Ġm ourn
Ġm ixture
on ing
en ic
en joy
Ġb red
Ġb ath
Ġh ills
Ġh orses
Ġc her
Ġc ess
Ġc and
Ġc ock
Ġc Åĵ
Ġc yc
Ġf ictions
es y
Ġp light
Ġp air
Ġth awing
Ġin oc
Ġin formation
Ġin gred
or ish
Ġto ils
Ġd irt
Ġd ress
Ġd irty
st al
st ell
ll eth
ed ly
ic ial
ar iousness
Ġe in
Ġbe a
Ġbe er
Ġbe am
Ġbe fall
se ud
se ts
Ġn ur
Ġn ich
Ġwh im
Ġit the
Ġit that
ce ne
ce asingly
Ġre ar
Ġre pt
Ġre now
Ġre alist
Ġre alistic
Ġre cesses
im um
Ġg ri
Ġg igantic
ut est
ut sch
ĠT ill
ĠT ann
ĠT ables
ĠT ime
ĠT AU
Ġas under
Ġl en
Ġl es
Ġl ures
Ġl apse
Ġl ongeth
Ġha ven
Ġha unt
th ought
th rough
Ġan on
Ġst y
Ġst ation
Ġst ock
Ġst airs
ch back
ch pot
Ġwe pt
Ġwe ird
Ġcon vey
Ġwith al
Ġli nk
ist ers
Ġall ured
ĠA ct
ĠA ge
ĠA CT
ĠA bs
ĠA ryan
ĠA theism
Ġde i
Ġde genera
pe ople
pe neth
Ġmo le
ro ps
Ġse cts
Ġse pulch
Ġse rene
Ġex quis
ad em
Ġv ine
Ġv ib
ill es
Ġat one
Ġal oof
ge lian
Ġman and
Ġman ia
if ix
us er
us heth
us iveness
Ġwho soever
am fort
ci v
Ġor thod
Ġso j
op ard
Ġwor ry
Ġhim and
Ġby e
ĠG ra
ĠG RA
ĠG ener
ĠS in
ĠS ud
ĠS oul
ĠS ONG
ĠS IGN
ĠS urely
Ġsh ri
Ġsh udd
Ġsh ield
Ġsh oot
Ġsh roud
ali a
Ġwas h
et ies
um ped
ĠH ard
ĠH ER
ĠH ON
Ġno nd
Ġpre lude
ĠC a
ĠC f
ĠC le
ĠC al
ĠC onsciousness
pt ions
ant a
ant he
Ġper vers
Ġper verse
ac ulate
ig s
pp ers
ine th
ĠB Y
ĠB ach
ĠB org
ath at
ĠO eh
Ġcom ic
Ġcom pressed
Ġfe ed
ide al
Ġup side
Ġab ort
Ġun ut
Ġun ch
Ġun hes
Ġun po
Ġun attainable
Ġun ceasingly
ĠE ither
Ġle ech
Ġle aving
ag ering
Ġbec k
au gh
ĠP le
ĠP al
ĠP ope
ĠP agan
ĠTh anks
Ġdis own
Ġdis fig
Ġdis mal
Ġch an
Ġch aste
Ġch ristian
ĠF ra
ĠF ie
ĠF ortun
ĠF lau
ĠF INAL
Ġhow l
Ġhow ling
ĠM a
ĠM ir
ĠM ith
ĠM il
ĠM ont
ĠM OD
ĠM UCH
Ġfa ci
ame th
Ġag ent
Ġag ency
Ġag itation
Ġr ings
Ġr haps
art ing
Ġmost ly
so f
ĠCh ar
ĠCh amfort
Ġpr inted
Ġcont ents
Ġcont ention
ĠL A
ĠL ou
ĠL ack
ĠL ift
ĠL augh
Ġam ple
Ġout let
Ġqu i
ond ri
ili st
ĠD es
ĠD ie
ĠD isc
ĠD esp
ĠD ithyramb
ĠD utch
ĠD ante
Ġact uality
Ġcons pir
ass ed
ĠIn c
ĠIt aly
Ġspe nd
Ġunder lying
ie ne
Ġres igned
Ġca pture
oc us
ang ling
Ġpl ag
Ġpl aus
erm orality
Ġob edient
Ġimp ass
Ġimp rud
Ġstill est
ĠR ight
ĠR ep
ĠR IGHT
ab out
Ġfirst lings
ars ight
pl om
ens itive
Ġstr ata
Ġgr an
Ġgr as
Ġself aff
Ġself love
Ġra iling
Ġra ging
Ġcl air
Ġcl othes
ount ered
Ġatt en
right e
Ġtra ff
Ġtra cks
Ġrem arks
Ġthink est
Ġthr owing
ĠTH OSE
ĠTH INK
Ġinc omp
Ġdec ides
Ġsy n
Ġbr ute
Ġbr ayed
Ġcond escend
Ġcomm ences
ĠJ une
Ġem aci
ced ented
Ġunt rue
Ġfar ce
Ġbl ust
Ġbl ond
Ġchar itable
Ġro pe
Ġpri ze
ĠV or
ĠV irt
ĠV anity
Ġcomp ose
Ġcomp uls
not hing
Ġgl aring
Ġinf at
Ġinf lated
Ġins olent
Ġtw elve
Ġwork ed
Ġsc re
Ġsc ra
Ġsc off
Ġsc attered
Ġorigin s
Ġpur ification
Ġpur ify
Ġsin cerity
Ġexpress ive
Ġfl ux
Ġass ign
Ġass igned
Ġgu id
Ġgu ides
Ġwar n
Ġsl ain
Ġconf er
ph ony
Ġill constituted
Ġcle ave
Ġpar ables
Ġsoci alism
Ġsens ibility
be autiful
Ġcharacter ises
Ġequ ivocal
mit ies
Ġpossess ions
Ġconce ives
Ġconce aling
ĠSch umann
Ġrequ iring
Ġexam ined
Ġfin ished
Ġlau d
lit ude
Ġdre w
Ġdre gs
Ġrest rain
Ġuse fulness
EN ESS
ĠAt tic
Ġconscious ly
Ġimag ining
Ġjoy fully
Ġfore t
Ġfore sight
Ġworth lessness
Ġclass ification
Ġfull est
Ġdesp icable
lu ck
nem y
Ġoff ice
Ġcr ushed
henomen on
Ġret ali
Ġret ained
Ġret rog
Ġco ord
Ġrecogn ising
Ġrecogn ize
ĠSt range
Ġphenomen al
OU RA
ati o
ĠAn im
Ġ18 5
Ġ18 9
Ġcap rice
Ġve ils
Ġcaus ation
Ġbene ficial
AR RI
Ġsw ind
Ġsw arm
Ġsw amps
Ġplay thing
Ġplay ful
Ġgre ed
Ġbu y
Ġcre ed
Ġcre pt
Ġmaster piece
Ġblood y
Ġrepresent ations
ET ZSCHE
Ġ6 4
Ġ6 6
Ġ6 8
Ġ6 9
Ġmid day
ĠAp ost
Ġtre sp
Ġobser ves
Ġnum bers
Ġver t
Ġtend ed
Ġcircum scribed
Ġinj ures
Ġinj uring
Ġinj uries
Ġattempt ing
Ġsystem atic
Ġcount s
Ġimper ious
Ġadd ing
gr at
Ġstrange ness
Ġorgan ising
Ġ7 0
Ġ7 1
Ġ7 2
Ġ7 4
Ġ7 5
Ġ7 7
Ġ7 8
Ġexp and
Ġexp ensive
gy rist
Ġspect acles
Ġdog matic
Ġherd ing
Ġmel odies
Ġcommand er
Ġwise ly
Ġattain able
uli n
Ġstates men
Ġwit ch
Ġwit ches
ĠNihili sts
Ġvan ishes
Ġvan quished
Ġdiss u
Ġdiss onance
Ġwind ows
Ġcounter arg
Ġfate ful
Ġdead ening
Ġgrand child
Ġoper ated
Ġoper atic
ĠAr ound
Ġfan atical
ĠTO WARDS
Ġcol or
Ġlab or
Ġsepar ation
Ġ9 9
ann y
Ġeduc ating
Ġadvantage ous
ĠÃ¦sthe tes
Ġbreat hing
Ġexer ted
Ġ10 3
Ġ10 7
Ġign om
Ġexact ed
Ġextre mest
Ġvar ieg
Ġneg lig
Ġtrad es
Ġtrad itions
Ġliber ation
Ġliber ality
Ġgrat ified
The y
app re
Ġhundred s
Ġarist ocrats
Ġdesc ribes
Ġleg it
Ġallow able
pir ing
Ġexcess es
Ġterm ed
OW N
Ġfig ur
ĠPro blem
ĠPro found
Ġabsurd ly
Ġclaim ed
IG IN
Ġdepend ed
Ġtest s
Ġsol ve
Ġdesir ous
Ġdesir ability
Ġdi verse
Ġglor ified
Ġutter ances
Ġdet ached
Ġsuffere th
Ġsaint ly
ĠArt ists
IST IC
Ġmarri agering
Ġpit iless
Ġdisgu ises
Ġdiscip lin
Ġextraord inarily
Ġasc ent
Ġpret entious
Ġenc ro
Ġenc ountered
Ġmin ority
Ġuns atisfied
Ġabst inence
ĠJes uit
Ġgaz es
Ġstart ed
Ġconsist ent
Ġselfs ame
Ġwand ered
Ġmisfort unes
Ġrender ing
Ġemancip ator
Ġintention al
Ġslave morality
Ġspread s
Ġcho osing
Ġadvent ures
Ġmater i
Ġfit ness
Ġtoler ant
Ġinvestig ations
Ġbrid ged
Ġadvance ment
Ġsanct ify
Ġindisp utable
Ġdeser ts
Ġglad ness
Ġinfer red
Ġdel ay
Ġestim ated
ĠVol uptuous
Ġdepart ure
Ġpat ron
Ġdefend s
Ġdefend ing
Ġtransfig ure
ho vah
Ġban ish
Ġcli ff
anim al
Ġsqu int
Ġmild er
Ġobtain ing
Ġirrit able
Ġdistur bed
Ġfamiliar ity
Ġship s
Ġship wrecked
Ġchief ly
Ġesteem ed
Ġsolemn ly
Ġexplain ing
Ġvener ated
ĠAb out
poch ondri
Ġappropri ated
Ġrhythm ical
Ġrefine ments
Ġfellows uffering
Ġpictures que
ĠIT SELF
Ġdeb au
Ġhom es
Ġhom age
Ġthreat en
Ġench anted
Ġench anting
AM E
amb ers
Ġconscient iousness
Ġprofess ors
Ġsymbolic al
ĠSoci ety
pie ces
some thing
Ġwhis pered
Ġimpe lled
ĠPRE FACE
Ġbrut ality
Ġsix th
Ġallto ohuman
Ġshut ting
Ġgard ens
Ġdepre c
ĠPhilosop hers
Ġromantic ist
Ġhot chpot
ĠSoph ists
Ġorganism s
Ġcorrespond ing
Ġdisturb ance
Ġhered ity
Ġenig mas
Ġexplo ited
Ġawe inspiring
Ġcosm os
Ġcosm opolitan
Ġthri lls
Ġpreced ed
Ġundert aking
Ġundert aken
Ġcalumn y
ĠAd m
Ġleap ing
Ġfrag ment
Ġfrag ile
Ġdwell s
Ġredeem ing
ĠSE COND
ĠCom te
Ġinit iative
Ġdict ated
Ġstat ues
Ġindust rious
Ġimpot ent
Ġsubt ler
ĠRelig ious
Ġelim inate
ĠWhe never
ĠCons cience
ĠCons ider
Ġoppress ive
Ġcultiv ated
Ġdimin ution
Ġdisappoint ed
Ġdisappoint ments
SE QU
see king
Ġmusc ular
Ġpatri otic
Ġwag er
Ġcat astrop
Ġfro st
Ġgru nt
ĠOther wise
ĠKNOW LED
Ġidle ness
zz a
ĠInst inct
Ġdegrad ed
Ġwhisper ing
ey ed
Ġsor ce
Ġdesper ation
Ġtransp arent
Ġsupple ment
Ġsincere ly
Ġsurmount ed
ĠVIRT UES
Ġfounder s
Ġdiscont ented
Ġfreethink er
Ġcraft iness
ativ o
Ġga iety
Ġung rate
Ġsolid arity
ĠComp ared
Ġindig estion
Ġadvers aries
Ġreco il
Ġasser ts
Ġpredomin ant
Ġpermiss ion
Ġpoore st
Ġdispar age
Ġartic les
Ġdiscove rers
Ġcripp les
range ment
Ġsect arian
Ġvall eys
Ġunqu estion
Ġeng aged
Ġsubjug ated
Ġcomparative ly
Ġunspeak able
Ġprecaut ions
Ġdepreci ate
Ġparalys ed
Ġic y
Ġtire some
Ġbiolog y
Ġbiolog ical
Ġhun chback
Ġunpre cedented
Ġresolute ly
Ġrelax ation
Ġvenom ous
Ġintermedi ate
ĠEgypt ian
pict ure
Ġexh ort
Ġdoc ument
ĠOR IGIN
Ġappet ite
Ġassimil ation
Ġrestra int
Ġencourage ment
Ġprohib ited
Ġstrengthen ing
Ġhypocrit es
Ġlegis lat
Ġlandsc ape
Ġirrespons ibility
Ġexclaim ed
gu ard
Ġtarantul a
Ġwal ks
Ġconced ed
ĠNI HIL
Ġjub ilation
Ġruth lessly
Ġenh ance
Ġobli ter
ĠJe hovah
Ġantin atural
Ġvehement ly
Ġunheard of
Ġepilept ic
Ġaug ment
Ġseduc er
Ġmit ig
Ġorde red
Ġpreem inence
Ġabo lished
Ġphant asm
Ġsuffoc ated
Ġsimpl est
Ġindef atig
ĠAtt empt
ĠPharise es
Ġmurd erer
Ġbul w
Ġincess antly
ĠPOS SIBLE
ĠRegard ed
Ġneutra lity
Ġinconce ivable
Ġmathematic s
Ġinhab itants
Ġdys pe
Ġdile tt
Ġgild ed
Ġgrud ge
ĠSwe et
Ġadul tery
Ġpropens ity
Ġhyg iene
Ġimprob able
Ġpredest ined
ione ers
Ġnim ble
Ġstren uous
Ġatav ism
Ġselfren unciation
Ġselfglor ification
ĠProp osition
Ġsuspend ed
ĠImmor alist
Eur ope
Ġsap ient
Ġserm on
Ġpane gyrist
Ġegreg ious
Ġves sel
Ġrelent less
Ġcob we
ĠStu art
Ġcapric ious
Ġcounterm ovement
Ġgrandm other
ĠBEA UTY
ĠParad ise
ĠBrahm ins
ĠCRIT ICISM
ĠFranc is
Ġcitiz en
Apoll onian
oiew sky
stell ung
ĠAbs olute
Ġdegenera cy
Ġsepulch res
Ġexquis ite
Ġorthod ox
ĠGener al
Ġshudd ers
Ġpervers ity
ĠBorg ia
ĠOeh ler
Ġabort ive
Ġunhes itating
ĠFortun ately
Ġrhaps od
Ġconspir acy
Ġselfaff irm
Ġemaci ated
Ġretrog rade
Ġvarieg ated
ĠVoluptuous ness
Ġhotchpot ch
ĠKNOWLED GE
A l
D ITION
E verything
G o
I E
I P
J ew
K IND
M A
N ER
O f
R e
S ch
S ES
S EL
T ED
U ND
a e
a ired
a seless
a ille
a igne
b u
b read
b ably
b rew
b oreans
c ast
c onscious
d es
e go
f red
f irst
f alse
g al
g ers
g ently
h ued
i ose
k ish
l ag
m id
m ony
n orm
o ise
o ism
o cious
p ure
p aths
s ing
t ra
v in
w ords
x ter
y es
Î µ
Ġ x
Ġ ich
Ġ Ã¦
Ġ rib
ne re
Ġt ar
Ġt all
Ġt ie
Ġt ab
Ġt ack
Ġt ale
Ġt rop
li ve
li ttle
line s
Ġa ust
Ġa fore
Ġa venge
Ġa ught
Ġa esthe
he y
he us
he ng
Ġo m
Ġo ri
Ġo ption
Ġo vere
Ġthe ft
in av
re te
re ck
re aching
Ġw reath
Ġs atur
Ġs its
Ġs ank
Ġs link
is iac
Ġm and
Ġm ire
Ġm ien
on ne
on ge
en ot
Ġb ust
Ġb ru
Ġb ars
Ġb are
Ġb osom
Ġc ad
Ġc ord
Ġc ats
Ġf ury
Ġf aint
Ġp an
Ġp as
Ġp ine
Ġp au
Ġp ush
Ġp uzz
Ġp seud
Ġp ioneers
Ġin au
Ġin version
Ġin verted
Ġin ternally
an cer
Ġto ut
Ġto mb
Ġto ols
ou ched
Ġd ans
Ġd ances
Ġd azz
st ro
st retched
ic er
ic le
ic um
ar ning
ar bar
qu et
Ġbe nd
Ġis le
al so
Ġn om
Ġn od
Ġwh ir
as iness
as cul
im on
ct ures
ct ober
ĠT W
ver ily
ĠI F
Ġl ane
ur b
Ġst ol
Ġst ink
Ġwe eds
Ġwe ighed
Ġcon n
Ġcon version
od ge
Ġli able
Ġsu ll
Ġsu itable
ĠA g
Ġde xter
ul ent
ul og
ul ses
ri ft
ro b
Ġme al
Ġme as
Ġme adow
Ġex ig
Ġex term
ad ine
Ġv ivid
ĠW ah
ĠW AY
ĠW ANT
Ġal mighty
ge re
Ġman ys
Ġman hood
Ġman usc
Ġman uf
il ogue
us ical
ty pe
ci enza
Ġor bit
Ġdo est
Ġdo ses
Ġdo omed
Ġso ph
ol es
ol ate
ĠG ent
ĠG OD
ĠS er
ĠS ac
ĠS ph
ĠS ax
Ġsh red
Ġsh ines
Ġsh attering
ali ans
ali fied
et us
et ry
os it
and inav
ĠH and
ĠH OM
ĠH ume
ĠH onour
ast ically
Ġint imately
Ġno ises
ĠC ol
ĠC ause
ĠC ourage
ĠC OUN
ĠC agli
Ġper ple
ig od
ĠB ale
Ġpo le
Ġpo lis
Ġlo cal
Ġpro logue
em ents
ru it
Ġim itating
ĠO M
ĠO ff
ĠO PP
ĠO pen
ĠO ctober
Ġwill less
Ġcom rad
Ġcom mentary
Ġfe at
Ġfe ud
Ġsp aring
Ġsp arks
ide an
Ġup set
ĠN ight
ĠN atur
Ġab olish
Ġab negation
Ġab asement
Ġab norm
Ġun sh
Ġun for
Ġun par
Ġun think
Ġun brid
Ġun philosop
Ġun alter
ĠE ND
ĠE xt
ĠE volution
ĠE GO
ĠE goism
ĠE specially
per boreans
ag re
ĠP ure
ĠP op
ĠP ied
ĠP ia
ĠP ITY
ĠP olish
ĠP ERS
ĠP RI
ĠTh an
ke it
ke neth
Ġus ing
Ġch oke
Ġch airs
ĠF re
ĠF lee
ĠM IS
ĠM iss
ĠM AY
Ġfa ut
ort ment
Ġag ric
Ġr attle
Ġcan aille
ĠCh in
ĠCh ance
ĠCh amber
ĠCh ina
Ġlife time
Ġtr um
pre ad
Ġhad st
Ġpr ow
ĠL ive
ĠL one
Ġam ends
Ġpe ren
Ġout stretched
Ġqu e
Ġqu int
ĠD own
ĠD EM
ĠD ream
ĠD OWN
Ġcons ult
Ġcons ens
ff ace
ĠIn asmuch
ĠIt alians
ĠHe brew
Ġunder go
Ġunder gone
ish able
Ġres ists
Ġpower fully
Ġca ge
uth or
erm ost
Ġad o
Ġad here
Ġad verse
Ġover full
ĠR H
cess ary
Ġshould er
Ġshould st
ink ling
ost ro
Ġstr ayed
Ġsee th
Ġgr ind
olog ist
Ġself torture
Ġdoes n
Ġfact ors
aps ed
Ġend ures
Ġcl amber
Ġatt end
oll en
ord ained
the arted
Ġdist rict
ĠTH IRD
Ġinc isive
Ġaf ar
we ary
Ġdec or
Ġthought less
Ġthought fully
Ġpart iality
other wise
Ġrec lu
Ġrec itative
Ġrec uper
Ġhand ed
Ġhand ful
Ġdif ferences
Ġwhere of
eth at
Ġmod ify
Ġmod icum
press ible
Ġpresent iment
ĠWagner ism
rit ory
ick ness
Ġem ig
Ġem body
Ġem ascul
Ġheart ily
Ġent ails
Ġref lex
Ġru ng
Ġru bb
Ġbl unt
Ġspeak est
Ġchar i
Ġro ve
Ġro am
Ġro ving
Ġro ses
Ġdisc red
Ġdisc ourage
Ġdisc retion
ĠV ERY
Ġapp lause
Ġimm inent
Ġgl oves
Ġindivid ually
Ġindivid uality
Ġinf am
Ġrelig ios
Ġwom b
Ġinter vals
Ġinter rupted
Ġsc ourge
Ġpain ts
Ġpur ged
Ġpur ified
Ġpur ifying
edi um
Ġdesire th
Ġfl owers
Ġfl avour
Ġass ent
Ġwar ned
Ġconf ident
Ġconf iding
Ġconf lag
Ġcou ple
Ġill e
Ġtwo fold
IN CT
Ġrep ay
Ġsoci eties
Ġsens u
Ġsens uous
Ġweak est
Ġdiv ision
ĠU g
Ġac adem
urn al
Ġdem ocrat
Ġdem igod
Ġsign ify
ĠAs cetic
AT ED
Ġones ided
Ġconce ited
Ġbre ed
ĠK ing
ĠK APP
Ġnatur alists
Ġchild like
Ġexam ination
Ġmast ermorality
ĠOne s
Ġwoman ly
Ġdev our
Ġbel ated
Ġrespect ing
Ġrespect ability
Ġcause th
Ġrest riction
Ġnor m
Ġbegin neth
Ġhard y
Ġdest itute
Ġfut ures
velop ment
Ġdef y
Ġdef ines
Ġdep icted
Ġke e
Ġdevelop ments
Ġprev ents
Ġsat iated
Ġconv ulsion
rib ing
Ġinn ovation
Ġhealth ier
Ġcr ass
Ġhonour ing
Ġinterpre ter
Ġret ire
Ġco ined
Ġprop ortions
Ġprop riety
LI GHT
Ġche ated
OU GH
Ġsing er
Ġsing ly
Ġperiod ical
Ġcare less
Ġ18 0
Ġ18 1
iment ary
Ġpun ishes
Ġreve red
ĠEvery body
Ġinflu ential
Ġhy pochondri
Ġter ritory
ĠWill e
Ġsw ell
Ġsw ords
Ġcrit ique
Ġfav ourably
Ġcommun icated
Ġconsider ably
Ġlangu ish
Ġbur rowing
Ġsuperi ors
Ġwa its
Ġwa iling
ET Y
Ġappro ve
Ġappro ved
Ġappro ached
Ġappro val
Ġsound ing
ĠAp art
Ġfat ally
Ġtre mbled
Ġhabit uation
Ġobser ving
Ġdisp ositions
aught ers
Ġsymb olis
Ġconcl udes
Ġgenera li
Ġri vals
Ġmanifest ly
Ġaim ed
Ġmag ical
Ġimper cept
Ġimper fection
Ġinnoc ently
Ġprov oke
Ġprov oked
Ġadd s
PS IL
ED I
wor ks
Ġadm ixture
Ġthorough ness
Ġine rad
Ġine quality
ĠWhere as
Ġhome less
Ġ7 6
Ġ7 9
Ġdece ives
Ġdece iving
val ues
Ġsle eper
Ġphilosoph ising
Ġsuccess es
Ġselfc rit
Ġselfc onscious
Ġcircumst ance
Ġsuspic ions
ĠSe a
Ġoccas ioned
Ġlow ered
Ġdegener ated
Ġbreak er
Ġplac ing
Ġcheer fully
Ġpublic ans
Ġmad man
Ġwit ty
Ġune nd
Ġune arth
Ġune asiness
Ġdiss ol
Ġann ounce
Ġgrand iose
Ġoper ating
Ġbo ast
Ġ8 0
Ġ8 1
Ġ8 2
Ġ8 4
Ġ8 6
Ġ8 8
Ġast ron
Ġast ounding
Ġmyth ology
Ġcol on
Ġsepar ately
ters burg
Ġ9 0
Ġ9 2
Ġcrim es
Ġmir rors
Ġrevol ts
Ġrevol ting
Ġchange able
Ġener v
fl o
Ġexact s
LE CT
Ġvar iance
Ġ11 8
Ġ11 9
ENT S
Ġthirst ed
Ġcondem ning
Ġhalf m
Ġhalf way
Ġdelic ately
Ġgrat ify
Ġarist ocrat
Ġho le
Ġho vers
Ġdie th
EL Y
Ġfra us
Ġpet ri
Ġfig s
ĠPro fess
Ġ12 1
Ġ12 9
UR P
miss ion
Ġder ives
Ġdisgust ing
TH E
Ġmer rier
Ġyear n
Ġconstitut ing
Ġconstitut ions
Ġhap peneth
Ġarg ue
ĠPe tersburg
Ġpeculi arly
Ġcoll e
Ġvision aries
Ġste aleth
Ġunf ailing
ihil ation
ĠX IV
Ġ13 4
Ġ13 6
Ġliter al
Ġlogic ian
Ġstandpoint s
Ġdiscover ies
Ġaccept s
Ġaccept ing
Ġmed itate
Ġmed itated
Ġsol ace
Ġ14 1
Ġguard ians
ĠHell e
Ġdi ab
Ġdi version
Ġdi plom
ĠBE FORE
ĠLe ben
Ġprep ares
Ġdet ach
ĠPh ys
ĠPh ilist
Ġmon ument
ract ical
ĠDe c
Ġperform s
Ġauthor itative
ĠBuddh ist
Ġpost ulated
Ġpost ulates
Ġemb ark
Ġproceed ed
ĠLi ber
IST S
Ġdan cers
Ġfoolish ly
Ġmarri ages
Ġmorbid ness
Ġrom ance
Ġarri Ã¨
Ġinex or
Ġascend ed
Ġspring ing
Ġtyrann ise
Ġtyrann ised
Ġpret ended
Ġenc irc
Ġimpro ved
Ġmin or
Ġcost ly
Ġfr at
Ġord inarily
Ġrhy mes
Ġsav our
Ġincom plete
Ġappre hension
OL IT
Ġsad ly
Ġtrust ed
ĠRE M
Ġselfs ufficient
Ġdirect ing
Ġmechan ics
ĠEurip idean
Ġarr ows
Ġconstra in
Ġpopul ation
Ġintrodu ces
Ġrese mbling
Ġstimul ants
Ġkn ack
AS ON
ĠIm ag
ĠNE CESS
Ġnarrow est
Ġfle eting
Ġunre al
Ġtal ks
Ġselect s
Ġvers atile
Ġtot ality
Ġreach ing
Ġtoler able
Ġrece ives
Ġdign ified
Ġdepress ed
Ġfest ive
Ġcontent ed
Ġprevent ed
Ġfair ness
Ġestim able
Ġterr ors
Ch rist
Ġhang ing
Ġhang man
gl ad
gl ass
Ġconfess or
Ġcut ting
Ġreali ze
Ġstop s
play ers
Ġsland ers
Ġindifferent ly
Ġport ra
ros pection
Ġreb els
Ġweight y
Ġprec urs
Ġconj ured
Ġunw it
Ġeconom ic
ster Nietzsche
ĠLo heng
Ġtimid ly
Ġmiddle class
Ġaud ible
Ġdam ned
ĠSc andinav
Ġring sthe
Ġident ity
Ġexperiment al
ĠEx pl
ĠMAN KIND
Ġsurv ives
Ġhom ines
Ġalle ged
ĠWITH OUT
Ġcompl aining
AM ENT
Ġisol ate
Ġincalcul ably
Ġprofess or
Ġsymbolic ally
ĠQu ite
Ġrecollect ions
ĠSoci alism
Ġcourt esy
con sequently
Ġmach ina
ĠAL PH
ĠPRE SENT
Ġdecided ly
Ġcomprom ising
Ġfol ks
Ġflour ished
Ġidi ots
Ġbal m
Ġarm y
Ġaband onment
Ġunm oved
imil ar
Ġexplo itation
Ġanticip ated
Ġsink s
Ġthri lling
Ġgest ure
ĠGen ius
Ġprot oty
Ġobt use
Ġiron ical
off ensive
ĠIde alism
ĠEX P
Ġpresc ribe
Ġguarant ees
Ġparal ysis
Ġrig idity
Ġpersuade th
Ġconfound ing
Ġexcl usion
Ġhoriz ons
Ġflee ing
Ġoffend s
Ġcere mony
ĠSto icism
ĠSto ics
Ġentertain ing
Ġroom s
Ġpropag ated
Ġimperfect ly
Ġadventure rs
Ġhind ers
Ġhind ered
Ġworshi pping
Ġspiritu alised
Ġsafe ly
spirit ed
Ġhier atic
Ġcri eth
Ġelim inated
Ġathe ist
ĠHuman ity
gra nd
lo ving
Ġbrief ly
sto i
aliz ation
Ġblunder ing
Ġinsati ate
Ġeffe te
Ġmalign ity
hum our
see ing
Ġstead fast
ĠDis gust
Ġoverwhel m
ĠAugust ine
Ġwin ters
Ġfro zen
Ġfost er
ĠCatholic ism
Ġenn ob
Ġresol utions
Ġconvalesc ence
Ġadmin ister
Ġneglect ed
uffici ency
Ġpermanent ly
Ġalarm ed
Ġunb roken
Ġamaz ing
Ġacute ly
Ġrigor ously
Ġlar gest
Ġstir red
ĠOb ject
ĠPers on
ĠDIS C
Ġimpud ence
Ġhumili ating
Ġtemp ter
UN T
cra ft
Ġped ant
Ġsto op
Ġsto ical
ĠRes ult
Ġgrim aces
Ġrecall s
Ġ186 5
Ġunequ al
Ġunequ ivocal
Ġselfsacri fic
Ġdischar ges
Ġmachine ry
Ġcas u
Ġpill ar
Ġdaw ning
Ġdithyramb ic
Ġung od
Ġprede term
ĠCA P
Ġpoll ution
Ġlege nd
ĠFe ar
Ġpris oner
Ġpris oners
ĠDES I
Ġasser ted
Ġcaricature s
Ġproclaim ed
Ġobtr usiveness
Ġparticip ate
Ġgreet ing
Ġsublim est
Ġsublim ated
Ġdissip ation
Ġdisintegr ating
Ġheat hen
Ġprost ration
Ġflat tere
Ġsaty rs
Ġbrood ing
Ġharmon ious
Ġpalp able
Ġpalp ably
iqu ette
Ġoffic er
Ġhaught iness
Ġagon ies
Ġempt iness
Ġrefres hing
Ġepit ome
AU GH
allel ed
Ġspont aneously
Ġadjust ment
Ġpreval ent
ĠHIM SELF
Ġembarrass ed
Ġcompr ised
Ġrival ry
Ġlegis lation
Ġlandsc apes
Ġclums ily
Ġclums iness
Ġinconsist ency
ĠWand erer
Ġplung ed
Ġoverpower ing
Ġincident ally
Ġgram mar
Ġgeneralis ation
Ġeffici ency
Ġfrank ly
ĠCHRISTIAN ITY
Ġselfconf idence
Ġinord inately
asion ally
Ġgall ant
Ġimpet uous
Ġspasm s
ĠInn oc
Ġrapt urous
Ġsyll og
Ġtele ology
Ġtechn ical
Ġrog uish
Ġroof s
Ġbackworld smen
Ġexplos ive
Ġmetamorph osis
Ġirresist ibly
Ġwid est
Ġwil ful
Ġreestab lish
ĠTol stoi
Ġmeane th
ĠHist ory
ĠOTH ER
ĠNAT UR
ĠNaz areth
Ġcler gy
Ġrefresh ment
Ġappar atus
Ġverb al
Ġbrand ed
Ġnarr ower
ĠSPE AK
Ġmart ial
Ġfis her
Ġdyn am
Ġconven ient
ĠAW AY
Ġvap our
ĠGERM AN
ĠCent ury
Ġnether world
Ġrotten ness
ĠDost oiewsky
ĠDÃ¼ hring
Ġtraged ies
Ġreminisc ent
Ġdiscoura ged
Ġlawg iver
Ġacquaint ances
ĠSuff ering
Ġluc idity
Ġmultif ariousness
ĠCONC ERN
ĠFRIEND S
Ġost ent
Ġinse parable
Ġdar kened
ĠHIST ORY
ĠBer lin
Ġloqu acity
Ġunass uming
Ġtene ts
Ġflu id
Ġparce l
Ġdramat ist
ubb ub
Ġnightw atch
Ġmerc iless
Ġdishon ourable
ĠZe us
Ġeffemin acy
Ġhospit ality
Ġaccommod ate
pow ered
uccess ful
Ġmim ic
Ġinsec urity
Ġdain ty
Ġgrop ing
ĠTart uff
Ġyaw ning
Ġnoct urnal
Ġprerog ative
ĠOcc asionally
Ġchival ric
ĠFundament al
Ġagre ement
Ġphr ases
Ġrecomp ense
Ġhalcy on
Ġcompet ent
Ġinferi ority
Ġvigor ously
ĠSEE K
Ġmilli ons
Ġunconqu erable
Ġcelest ial
Ġselfcomplac ency
ĠMephistophe les
ÏĮ ÏĤ
Ġmaste red
Ġcess ation
Ġnich t
Ġrept ile
Ġsoj ourn
ĠPagan ism
ĠFlau bert
ĠMith ras
ĠMont aigne
ĠLou is
Ġgran ite
Ġtraff ic
Ġincomp atible
ĠVor stellung
Ġguid ance
ĠApost le
Ġdebau chery
Ġcatastrop he
SEL VES
Ġaust ere
Ġaesthe tic
Ġinau g
Ġmanys ided
Ġmanusc ript
Ġmanuf act
ĠSph inx
ĠCagli ostro
Ġabnorm al
Ġunpar alleled
Ġunbrid led
ĠChamber lain
Ġperen n
Ġconsens us
Ġreclu se
ĠKAPP A
PSIL ON
Ġinerad icable
Ġastron om
ĠLoheng rin
ĠALPH A
Ġprototy pe
A way
A ryan
B ILITY
D OM
E P
F IN
G MENT
H IP
I s
J ECT
L e
L o
L ES
L US
M y
M orality
N o
N ot
N ay
O E
O n
O VE
P EN
Q UE
R AT
T S
T wixt
T ruth
U C
U X
V ERS
W oe
a el
a ved
b i
b t
b ach
b oth
b etter
c ill
c ity
c old
c ry
c ular
c row
c iful
c iled
d ays
d own
d isp
e ter
e very
f in
f ence
f ield
f utable
h ig
i pp
i ator
i ants
k ers
k ens
l oqu
m ph
m ark
n ch
n igh
o ers
o seless
p a
p it
p ath
r ise
r ations
r ates
r ought
r ically
r anged
s ation
s pection
t ion
t ian
t able
t ons
t hens
u ci
u ate
u ates
v ention
v oyant
w ed
z ation
Î ¸
Ġ ness
Ġ ip
Ġ vel
Ġt um
Ġt amed
Ġt edium
Ġa ven
Ġa light
Ġa ux
Ġthe or
in her
in um
in ates
in acy
re et
Ġw ives
Ġw ages
Ġw atch
Ġw rest
Ġs cient
is ome
is zt
nd om
er ies
at is
at red
at ers
Ġof fe
Ġof te
it t
it le
it um
it ory
Ġm aw
on us
on ze
en ri
en burg
Ġb aw
Ġb att
Ġb ones
Ġh ound
Ġh orns
Ġh ubbub
Ġc og
Ġc ip
Ġc ows
Ġf ist
Ġf ade
Ġf ug
Ġf ishing
Ġf lings
Ġp ow
Ġp ul
Ġp us
Ġp ard
Ġp ud
Ġp ause
Ġp ens
Ġp atter
Ġp ip
Ġp uff
Ġp ares
Ġp ushing
Ġp yra
Ġp uer
Ġth ie
Ġth irt
Ġin wards
Ġin offensive
or ter
or ned
an ish
Ġto es
Ġto ur
Ġto ad
ot t
ot ted
Ġd ash
Ġd ressed
Ġd aughters
ic o
ic is
ar ia
ar iable
Ġe ty
Ġe ating
Ġe up
Ġe ulog
Ġbe arer
Ġbe lls
Ġbe little
le ge
le ap
om b
om it
om es
om as
om ent
al li
Ġn ig
Ġn ail
ve h
ve t
ve rence
as hed
as ons
ce ler
Ġre ch
Ġre nt
Ġre lic
Ġre ception
Ġre place
Ġre alisation
Ġre inst
Ġre igns
Ġg li
Ġg au
Ġg list
Ġg iants
ĠT Y
ĠT aste
ĠT rust
ĠT IM
ĠT aine
ĠT itans
Ġu pp
Ġhe ter
Ġhe aving
ir a
Ġl as
Ġl ame
Ġl ap
ay ers
id ly
id ers
id uum
ss o
ss ohn
Ġst umble
ch illes
Ġwe eks
od ed
od ic
Ġli n
Ġli ed
Ġli qu
Ġli vest
ist en
ist inct
Ġsu g
Ġsu i
Ġsu l
Ġsu itably
Ġon sl
ĠA ri
ĠA ng
ĠA chilles
Ġde als
Ġde ification
Ġde formed
ul a
ul ative
ri g
pe ts
pe lled
est ruct
ro ll
ĠThe ogn
Ġse ar
Ġse ction
Ġme als
Ġme lt
Ġme gal
Ġme agre
ad m
ad ly
ad ers
Ġv ist
Ġv am
Ġv ile
Ġv ault
ill ery
ĠW ISH
ĠW AG
Ġy awn
Ġal ms
ĠĠĠĠ ĠĠĠĠĠ
ĠĠĠĠ ĠĠĠĠĠĠ
us p
am ant
am oured
ness ed
ess ence
Ġor ators
Ġdo ves
Ġdo ings
Ġso oner
Ġby ways
Ġk en
ĠG ast
ĠG over
ĠG rand
ĠS Y
ĠS m
ĠS and
ĠS ix
ĠS peci
ĠS avi
ĠS AC
ĠS LA
Ġev ade
et ic
et her
um en
os o
and er
ĠH o
ĠH our
ĠH ail
ĠH EAR
ĠH UM
ĠH atred
ĠH enri
Ġint ricate
Ġint rospective
Ġint angible
Ġint rospection
nt o
Ġpre ference
Ġpre hist
Ġthem and
ĠC ors
ĠC ode
ĠC orne
pt im
ig heth
pp ery
ine r
ĠB L
ĠB ite
ĠB lind
ind eed
em n
em ly
ru ly
Ġim pre
Ġim be
ĠO pp
ĠO per
ĠO ptim
Ġar ouses
Ġfe ats
Ġfe licity
Ġsp an
Ġsp un
Ġsp ots
Ġsp ittle
Ġsp akest
Ġup sets
ĠN ietz
ĠN OW
Ġab ject
Ġab err
Ġab ilities
Ġab ode
Ġun fe
Ġun ite
Ġun worthiness
Ġun animous
ĠE T
ĠE ros
ĠE FF
ĠE pict
ĠE mped
per y
per sed
Ġle nds
ag g
ĠP AR
ĠP oss
ĠTh ing
ĠTh omas
ke l
ke y
Ġdis m
Ġdis hes
Ġdis inher
Ġdis persed
Ġch amber
Ġch ambers
ĠF o
ĠF ell
ĠF RE
ĠF lying
Ġj ing
Ġj ump
ĠM in
ĠM is
ĠM ill
ĠM end
ĠM AST
ĠM oment
Ġfa it
Ġgreat grand
ap ters
Ġr at
Ġr ot
Ġr Ã©
Ġr ites
Ġmor alisation
Ġsome how
Ġlife will
Ġpr ying
Ġcont inent
ĠL AM
ĠL VI
ĠL ACK
ĠL iszt
Ġtim eless
Ġam our
og ic
Ġpe ck
Ġind icates
ili ous
ili sed
ĠD en
ĠD ra
ĠD oub
ĠD RE
ĠD OU
Ġmen ace
one th
Ġen li
Ġen ric
Ġen list
Ġart work
ult ur
Ġspe nds
Ġspe eches
ĠHe alth
ĠHe gelian
Ġow l
Ġunder ground
el ty
el ssohn
Ġres ides
oc o
oc ity
Ġpl at
Ġpl ent
Ġpl under
Ġide alising
Ġover rich
Ġover powered
ĠR et
ĠR oss
ĠR Ã©e
un ity
ell ar
pl ayer
Ġjust ly
Ġyour s
Ġgr umble
olog ically
Ġself est
Ġself ann
Ġra ged
Ġra ising
Ġra gs
Ġra ndom
Ġreg ulations
ign ified
Ġsub ser
Ġap othe
Ġend ed
Ġend urance
Ġcl ay
Ġcl othing
Ġatt ent
Ġatt est
Ġatt aches
Ġatt racted
Ġatt ested
Ġgo b
Ġtra cing
Ġtra velled
ren ity
Ġthr ice
Ġdist ortion
ĠTH US
atter s
Ġinc idents
we ar
Ġdec re
Ġdec ency
Ġdec ked
Ġdec iding
Ġdec isions
Ġhapp ening
Ġwell nigh
Ġrec urring
Ġhand le
ĠWe re
ĠWe ak
Ġbr onze
act ory
Ġdif fers
sh are
sh oot
Ġcomm onest
sc hen
Ġpresent ing
for th
ĠJ ah
ĠY E
oy al
Ġaw oke
Ġem ulation
Ġunt ried
ute ous
Ġent ra
te ned
Ġref ut
Ġref ract
Ġru d
Ġbl amed
Ġconc o
Ġinv ite
Ġinv ariable
Ġro ped
Ġdisc ourses
ĠV ed
ĠV ene
Ġapp ertain
Ġcomp li
Ġcomp ares
Ġmany hued
vel ation
Ġimm e
Ġimm od
Ġimm ature
Ġgl ows
Ġgl aci
ON Y
Ġintellect ualism
ib arbar
Ġinf requ
Ġinf alli
Ġins ens
Ġins uff
Ġins pirations
ern ity
ĠThere by
Ġwork er
Ġinter rupt
Ġlight est
Ġlight nings
Ġsc ore
Ġsc aff
av ig
ative ness
Ġgra v
Ġgra de
Ġgra pes
Ġlear neth
Ġtru er
ange red
aut y
Ġtrans gress
Ġtrans ient
Ġabove mentioned
Ġfl ute
Ġfl ung
Ġfl uct
Ġfl aming
ĠNietzsche an
Ġass ail
Ġgu ided
Ġadv ised
Ġsl ack
Ġsl avish
Ġconf ers
Ġvalues that
Ġanim osity
Ġill humour
Ġconst ruct
Ġpar ade
Ġsoci able
Ġsoci ology
Ġant is
Ġbeaut ifully
Ġsens ibilities
be ars
Ġac celer
Ġcor oll
Ġcharacter ise
ĠBe neath
ĠBe hind
sm elling
ĠAs iatic
mit ting
Ġsuper cili
Ġeffect ively
Ġbre ach
Ġfo aming
Ġput ref
Ġrequ ite
Ġexam ining
Ġsmall ness
ia iser
Ġdev ices
Ġname less
Ġrest lessness
Ġrest oration
Ġgen ii
Ġdoub ting
Ġest ranged
Ġden ounced
Ġunc anny
Ġpurp oseless
IT TLE
Ġnoble ness
ub lic
ha user
Ġjoy fulness
Ġdef ies
Ġaccount s
Ġcirc uitous
Ġcomple mentary
Ġsacri lege
Ġexcept ed
Ġdesp iser
Ġshort ly
Ġconv ent
Ġmar ch
Ġmar ry
Ġprom ising
Ġprom isc
Ġprom oted
Ġlead en
Ġdangerous ness
under standing
Ġcr ushing
Ġsent ient
Ġret reat
pend ence
LI C
Ġche w
Ġche ek
par ably
ĠMan fred
ĠSo litude
ĠAn cient
iss er
Ġve t
Ġve to
Ġpun y
Ġcal lings
ĠEvery one
Ġmoment ous
Ġcaus ing
Ġcaus al
Ġhy pers
Ġdelight ed
AR S
Ġstri ven
ĠRe venge
Ġhar p
ser ve
Ġsw ing
Ġplay things
Ġstrugg led
Ġgre edy
Ġbu zz
Ġprim al
Ġprim arily
Ġbur row
Ġseek er
ĠNow here
ĠNo ble
Ġbli nk
Ġsound ly
ĠAp pe
Ġfat alistic
Ġhear kened
Ġobser vers
Ġacqu ies
Ġver dict
ONT IDE
Ġdisp osing
Ġinj unction
Ġhands ome
Ġauth ors
Ġconcl uded
Ġbra zen
Ġmist ress
Ġserv itude
Ġsystem atically
gr own
ma id
Ġorgan ised
Ġenjoy ing
Ġvol unt
Ġvol umes
Ġine xt
ĠPer iod
ĠEng adine
Ġinvent ing
val ue
Ġsk ins
Ġund ignified
haust ed
Ġscientific ally
wh ither
Ġciv il
Ġinvol ving
Ġherd smen
Ġherd instinct
Ġformul as
Ġtriumph antly
Ġav ails
Ġassum ptions
Ġsatisf ying
oura nd
Ġcommand ers
Ġdegener ates
Ġyoung est
Ġpeace fully
Ġanti que
Ġattain ing
Ġshame lessly
arent s
arent ly
ric ably
Ġune vangelical
Ġet iquette
Ġly re
Ġly rical
Ġforget ful
Ġann ounced
Ġann ounces
Ġgrand est
Ġbo ys
Ġ8 5
Ġ8 7
Ġmedi Ã¦
Ġ9 3
Ġcontempl ated
Ġeduc ate
Ġep ig
Ġrevol ted
with out
br is
br ance
Ġestab lishes
Ġ10 1
Ġ10 2
Ġ10 4
Ġ10 5
Ġ10 6
Ġlist ens
Ġexact ing
Ġsolit udes
Ġtransform s
Ġcomb ating
umb urg
Ġ11 0
Ġ11 1
Ġ11 2
Ġ11 3
Ġ11 7
Ġthirst ing
Ġsedu ces
app ro
Ġconqu ering
Ġcompe tition
Ġslow ness
Ġcry stal
Ġreturn s
Ġeag les
Ġschol arly
Ġpet t
Ġspite ful
Ġ12 0
Ġ12 2
UR N
Ġmonst rosity
Ġder ision
Ġder ivation
Ġabsurd um
TH ING
Ġmer cy
Ġmer its
Ġlower s
Ġarg ued
ĠPe ace
Ġthousand fold
Ġstra w
Ġstra ining
Ġpati ently
Ġste alth
Ġste althy
Ġunf olding
Ġdecl aring
Ġgenuine ly
IG MA
ron ius
Ġsum m
ĠUn fortunately
Ġfac ed
Ġnon free
Ġlimit ation
Ġlimit ations
Ġ13 2
Ġ13 9
Ġfru ct
ĠAm id
Ġ17 6
Ġ17 9
Ġaut onom
Ġexce l
Ġ14 4
Ġpeculiar ity
oh l
ĠGood ness
Ġ16 5
mp athy
ĠLe ave
Ġfash ioned
Ġglor ifies
Ġmon ot
ĠON LY
Ġdrink s
Ġcorre cted
Ġshadow y
ĠBuddh ists
Ġland ed
Ġemb ry
esc ent
esc ript
Ġprote cts
Ġmagn itude
Ġmagn ifying
Ġbreath less
IV ING
ĠNothing ness
Ġdisgu ising
Ġwear isome
Ġsubst ant
Ġsubst ances
Ġard ently
Ġbitter ly
Ġasc ribes
Ġimpro ving
Ġfoot ing
Ġer ad
Ġmin st
Ġuns uccessful
Ġtransl ations
Ġesc apes
OS ES
Ġfals ifying
Ġ23 7
Ġanal y
Ġanal ogy
Ġsav ours
Ġinclud es
ĠFOR M
Ġvulgar ised
Ġfright fully
Ġgaz ing
ĠRE VEN
Ġ26 0
Ġselfs ufficiency
RA M
Ġ27 0
Ġfellow creat
Ġstorm y
Ġkingdom s
Ġarr anging
Ġconstra ins
Ġstimul ant
Ġaccident ally
Ġmountain c
bur den
head ed
ĠIm peri
just ice
Ġaspect s
Ġdiscipline d
Ġleng thy
ĠQ UE
Ġvers ed
Ġhur led
Ġdue l
Ġenorm ously
Ġla isser
Ġantagon ist
Ġantagon ists
Ġaffirm s
Ġbold est
Ġpersu as
Ġlightning fl
Ġinvestig ated
Ġinvestig ators
ĠSee k
Ġrelationship s
Ġsanct ioned
Ġstraight way
ĠnaÃ¯ f
Ġreward ed
Ġreck less
Ġcalcul able
Ġten acious
Ġtor ments
ĠSU FFER
ĠSU PER
ĠCON CE
Ġclean ly
Ġbetray eth
Ġfirm ness
Ġconsum e
Ġconsum ing
Ġconsum ed
Ġrapid ity
Ġdepart ed
Ġadmire rs
Ġdefend ed
ĠCH AR
Ġdescend ants
Ġcoarse ness
gl om
Ġyield ed
cad ence
Ġcut s
Ġ32 3
Ġserp ents
Ġirre futable
Ġirrit ated
Ġsharp est
Ġbeg u
Ġseas ons
Ġris ks
Ġpurs ues
Ġpurs ued
Ġsland erers
happ iness
RI F
Ġtit les
Ġmob ile
Ġdepri ves
Ġmirror ing
Ġpay ment
Ġsupport ed
Ġvener ate
Ġconj ures
Ġed ifice
ĠNor thern
Ġpray ers
Ġaffli ctions
Ġrhythm ic
ript ions
ĠSc ript
Ġamid st
ĠDE ATH
Ġwrath ful
Ġthreat ens
Ġcompl ais
Ġspo iled
Ġregular ity
Ã¼ t
lid ing
Ġgrate fully
Ġoccup y
Ġunex pl
ĠQu ix
ĠQu estion
att ained
Ġsuspect s
Ġindu ces
Ġquant ities
Ġfatig ued
con ce
Ġcop ies
ĠST ILL
Ġimpe l
Ġcurrent s
hand ed
Ġrecomm ends
Ġsecure ly
ĠGr Ã¦
ĠSP AKE
Ġunm ist
Ġunm ask
Ġreact ions
imp ly
imp osed
Ġretur neth
Ġdisturb ing
Ġcomprehend s
Ġidiosyncr asies
Ġbew it
Ġgain ing
Ġsubmit s
Ġtravel s
Ġincarn ated
Ġdrag ons
Ġcounten ances
Ġanticip ation
Ġfurn ished
Ġthri ll
Ġreject s
Ġreject ion
ĠOlymp us
ĠOlymp ians
Ġdiscer ner
Ġsurround ing
Ġprodig ality
AST E
ĠIde al
acri fice
Ġrig our
Ġskept ical
Ġexcl ude
Ġarrange ments
Ġpositive ly
ĠBrah man
Ġfix es
Ġfix ing
Ġdeem s
ĠSto ic
ĠSto ical
ĠCOM M
Ġtrib es
AND ER
Ġpropag ate
Ġhind er
Ġinit ial
Ġstat us
Ġimpover ishes
Ġprophe tic
ID D
ois se
Ġcyn ical
Ġnihili sm
Ġathe ists
ĠCont inent
ĠNO BLE
ĠNO ONTIDE
Ġunself ishness
Ġoverth rown
Ġcultiv ate
Ġdimin ished
mind edness
Ġtow ers
Ġsem ibarbar
aliz ing
Ġpersec ute
Ġblunder s
Ġambig uity
Ã¶ r
Ġbond age
Ġpup il
Ġlur k
Ġlur ks
Ġstead ily
Ġavail ed
Ġsenseless ness
Ġshrewd ness
Åĵ d
Ġwag s
Ġwag ing
Ġcat ches
Ġdili gent
Ġleisure ly
Ġdeterior ated
ĠLook ing
Ġamaz ement
Ġaccus er
Ġaccus ation
Ġaccus ers
Ġselfre liant
Ġflood s
Ġexclud es
Ġclimb ing
FUL NESS
ĠPers ians
Ġunderm ined
Ġrain bow
Ġdiscuss ed
Ġdiscuss ion
Ġmarvel s
Ġobserv ance
hal f
Ġbell ows
Ġindign antly
Ġconser vation
Ġconser vative
Ġthence forward
Ġapost les
Ġincons ider
Ġconfirm ed
Ġconfirm ation
Ġceremon ial
Ġtact ics
Ġhosp ital
Ġga ily
ĠIM M
ĠSil en
Ġpris ons
Ġphrase ology
Ġsail ors
Ġreco vers
Ġharb our
Ġdisgrace ful
Ġcraw led
Ġintim id
Ġintim ated
Ġutilit arianism
Ġkeen ness
Ġcripp le
Ġted iousness
Ġpertain s
Ġdisse mbling
ĠFather s
Ġcapt ain
Ġgrou p
Ġsubjug ation
Ġdiscord ant
Ġinflict s
Ġillum ined
Ġtrif le
Ġidol atry
Ġharmon ies
Ġhypnot ic
Ġpenit ent
Ġparalys ing
Ġoffic ers
Ġhun ter
Ġforci ble
Ġunpre jud
Ġoutward ly
Ġsubord ination
Ġgene alogy
Ġgene rosity
Ġflo ating
Ġutili se
Ġintermedi ary
ĠWOR LD
ĠGl oom
Ġpercept ions
Ġpercept ible
Ġrout e
Ġappet ites
Ġsimpli fied
Ġvex ed
Ġluxur iance
Ġwing ed
Ġwra pped
Ġblend ing
Ġwholes ale
Ġworn out
ĠSl av
Ġunus ually
ĠThird ly
ĠUt op
ĠUt ilit
Ġprovision ally
ĠantiSem itic
Ġhypocrit ical
Ġencoura ged
Ġirrespons ible
Ġexecut io
ĠPHILOSOPH Y
Ġwal keth
Ġgrie ved
Ġling ering
ĠAPP EAR
Ġexert ion
ĠSy mpathy
Ġponder ous
ĠNI ETZSCHE
ĠES P
ĠEth ic
ĠEth ics
ĠPO ET
Ġoutc asts
Ġdistrib ute
Ġgram matical
Ġeffici ent
Ġaftereffect s
Ġinord inate
ĠCONT EMP
Ġloc ality
ĠPri ests
Ġattract s
Ġhumanit arian
Ġrog ue
Ġdenatur alisation
Ġrevolve th
Ġhiding places
Ġtroubles ome
Ġirresist ible
Ġincorpor ation
Ġincorpor ated
hard t
Ġpier cing
Ġbelit tling
Ġasse mbled
Ġconso le
ĠApp arently
Ġorchest ra
Ġunse emly
Ġfaire r
Ġratt ling
Ġindisc retion
Ġimplicit ly
Ġincur ably
Ġdecrep it
Ġdecrep itude
Ġmisc alcul
Ġeleg ance
Ġsystemat ised
Ġslee peth
Ġrespond s
Ġenterpr ise
Ġrebel li
Ġunavoid able
Ġunavoid ably
Ġorac le
Ġorac les
Ġgidd y
Ġgidd iness
ĠAmeric a
foot ed
oge neous
Ġtig er
Ġwol ves
Ġdub ious
Ġreven ges
ĠIll ness
ĠIDE AL
ĠScept ics
ĠSimil arly
ĠCru elty
Ġload bearing
ĠPet ronius
Ġchallen ge
ĠFl ore
ĠFEEL ING
Ġmorali c
Ġcontag ious
ĠInter pre
Ġcavern s
Ġselfab negation
Ġinfirm ity
Ġscript ures
Ġdiam ond
Ġposthum ously
Ġpredisp osition
ĠSche lling
Ġspecim en
Ġdemoniac al
Ġcamp a
estro y
ĠWil liam
Ġjourn alist
Ġpeac ock
Ġactiv ities
Ġresour ces
Ġjustif iable
Ġempir ic
Ġforeig ners
Ġcruell y
Ġacquis ition
Ġastute ness
Ġsavi our
Ġtribun al
Ġpamph lets
Ġvivise ction
ĠEVERY THING
Hell enic
four ths
reng th
Ġfert ile
ĠGe orge
ĠSabb ath
ĠHonest y
ĠNa umburg
Ġdisli kes
ĠFriend ship
ĠDing e
ĠDIFFER ENT
Ġphilanthrop y
Ġramp ant
Ġawa ited
Ġconcent rated
Ġrequis ite
Ġforerun ners
Ġshel ter
Ġcoff ins
Ġpopp ies
Ġmerch ant
ĠPhil ology
Ġmajest y
ĠCHILD REN
produ ctive
Ġobsess ed
Ġasylum s
Ġinoc ulated
Ġbea uteous
Ġgri p
utsch land
ĠTann hauser
Ġlen iency
ifix ion
Ġnond escript
igs berg
ĠPle asure
ĠFra u
Ġfaci lit
arsight ed
Ġgras ps
Ġrailing s
Ġclair voyant
Ġblond e
Ġcompuls ory
Ġforet aste
Ġgrandchild ren
Ġdisciplin ary
Ġungrate ful
ĠNIHIL ISM
Ġenhance ment
Ġdyspe pt
Ġrhapsod ist
Ġselfaffirm ation
bread th
Ġbru ised
Ġstol en
Ġconn oisse
Ġsull en
Ġdexter ity
Ġcomrad es
ĠPia zza
Ġquint essence
fface ment
Ġacadem ic
Ġkee nest
Ġhypochondri ac
Ġselfcrit icism
Ġunend urable
ĠProfess or
Ġcolle ag
ĠHelle nes
Ġinexor ably
Christ ians
Ġunwit tingly
Ġobtuse ness
ĠCONCERN ING
disp osed
Ġpud end
Ġpyra mid
Ġthie ves
Ġety m
Ġeup hem
Ġrech rist
Ġupp ermost
Ġonsl aught
Ġmegal omania
ĠWAG NER
ĠSpeci es
ĠSAC RIF
ĠCors ic
ĠCorne ille
ĠEFF ECT
ĠEpict etus
ĠEmped ocles
Ġdisinher ited
ĠMend elssohn
Ġselfann ihilation
ĠVene tian
Ġinfrequ ently
Ġinsuff erable
Ġinext ricably
ĠREVEN GE
A RE
A DE
B L
C or
D A
E F
F rom
F aith
F OUND
G N
G ive
I ENCE
J UD
K S
N othing
O F
O Y
O h
P RE
P LE
R R
R oman
R INE
S h
S ong
S aviour
T IL
V ING
V ENT
W E
W H
Y ING
Z e
a cies
a uthor
b ol
b el
b sp
b irth
b ox
c a
c il
c ould
c ogn
c ross
c omp
c hers
d is
d em
d ling
e f
e v
e li
e au
e ners
e ternal
e pendence
f en
g her
g am
g ged
h r
h ot
h ad
h ath
i am
i erm
i ple
i ents
i pped
j ax
l ad
l oc
m ous
m ine
m ish
m ount
m ber
m aking
m odern
n ment
n ob
n igsberg
o en
o ch
p ose
p age
p sy
p ract
p ardon
p heus
p arents
r ans
r odu
s en
s se
s ub
s uck
s oul
t re
t is
t aking
v an
v us
v iv
v ile
w ant
x e
x is
x ist
x ts
y mn
z ure
Ï ħ
Ġ Ã©
Ġ ze
Ġ ÏĢ
Ģ Î
ne um
ne red
ne ls
ne lle
Ġt on
Ġt ing
Ġt ut
Ġt ard
Ġt ide
Ġt iny
Ġt resses
Ġt amer
Ġt unc
li ter
li mb
Ġa e
he l
he ss
he alth
Ġo x
Ġo il
Ġo min
Ġthe sis
in f
re al
re lig
re asing
re itsch
Ġw ard
Ġw ret
Ġw its
Ġw ert
Ġw ipe
Ġs ate
Ġs illy
Ġs igheth
is i
is est
is ans
er ly
er ves
at ched
at ivity
Ġof fici
it ual
it ors
Ġm es
Ġm ish
on te
en able
en ched
Ġb rist
Ġb ab
Ġb ile
Ġb ought
Ġb ites
Ġb aths
Ġb ias
Ġh ue
Ġh orn
Ġh ides
Ġh ushed
Ġh ounds
Ġc u
Ġc hest
Ġc upid
Ġc lings
Ġf li
Ġf ir
Ġf art
Ġf ili
Ġf lit
Ġf aded
Ġp ig
Ġp ia
Ġp osing
Ġp anting
Ġth ist
Ġth orn
Ġin ve
Ġin im
Ġin tern
Ġin app
Ġin formed
or c
or ig
or ance
or ating
Ġto ug
ou ls
ot hed
ot icism
Ġd in
Ġd ed
Ġd ru
Ġd uality
Ġd agger
Ġd rown
st im
st ock
ing ency
ed e
ed iter
ic est
ar l
ar o
Ġe ther
Ġe ud
Ġe un
qu ar
Ġbe get
Ġbe aming
Ġbe think
se ven
al gam
Ġn u
Ġn ought
Ġn igher
Ġn iaiser
Ġwh ist
Ġwh iz
as ants
ce it
ce ived
Ġre le
Ġre ign
Ġre ech
Ġre vil
Ġre version
Ġre aped
Ġre interpre
Ġre leg
im ar
Ġg ond
Ġg un
Ġg ird
Ġg ait
Ġg aud
Ġg urg
Ġg ymn
ent ativo
ut ors
ĠT ac
ĠT reitsch
ver ance
ĠI L
ĠI ce
ĠI gn
Ġu d
Ġu nem
Ġhe el
Ġhe aps
Ġfor cing
ir ation
ir ped
Ġl ag
Ġl ass
Ġl ull
Ġl av
Ġl ung
Ġha il
Ġha ze
Ġha llow
ur is
ur ate
ur pass
th inketh
ay a
id iously
gh th
Ġan throp
ich te
ra m
ra ise
Ġnot orious
Ġst ip
Ġst ilo
Ġst unted
Ġst ellar
Ġwe t
Ġwe ed
Ġwe bs
Ġcon ver
Ġcon ge
Ġcon cess
Ġcon verse
Ġcon grat
Ġwith stood
Ġwith hold
Ġli z
Ġli ck
Ġli mp
Ġli cent
Ġsu lt
Ġsu its
ĠA C
ĠA F
ĠA P
ĠA v
ĠA jax
Ġde jection
ri est
pe ace
est ern
Ġmo ist
ro om
ro vers
ro ph
ro ix
Ġse q
Ġse er
Ġse ll
Ġse vered
Ġse renity
Ġme the
Ġme ek
Ġme thinketh
Ġex tern
Ġex otic
Ġex ternally
ust rious
ad ne
Ġv ot
Ġv ow
Ġv ali
Ġv ary
Ġv int
Ġv oy
Ġv ents
Ġv ows
Ġv ale
ĠW ise
ĠW rit
ĠW OM
ĠW OULD
ĠW OE
ĠW ANDER
ge red
Ġman age
Ġman ages
ak y
ak ers
ure l
us ory
us ively
us ioned
am ination
ty r
ome thing
Ġor ator
Ġdo se
Ġdo om
Ġdo gg
Ġso b
Ġso ared
Ġso othe
op ern
op henomenon
Ġwor me
Ġwor ms
ol a
ol er
Ġby paths
Ġk ick
Ġk illing
ĠG old
ĠG az
ĠG rad
ĠG OLD
ĠS A
ĠS or
ĠS ing
ĠS ay
ĠS ens
ĠS te
ĠS ER
ĠS ING
ĠS cienza
ĠS IGMA
our t
ali ze
et rically
os ure
os os
and ora
and half
ĠH ome
ĠH ope
ĠH igher
Ġint rig
Ġno ve
Ġno ond
Ġpre mon
ĠC ro
ĠC ond
ĠC el
ĠC onst
ĠC oun
ĠC yn
ĠC OL
ĠC opern
Ġthere after
pt ive
ant ation
Ġper t
Ġper usal
ac qu
ac hest
ac roix
Ġne c
Ġne cks
pp res
ĠB u
ĠB ed
ĠB al
ĠB ur
ĠB est
ĠB ab
ĠB right
ĠB ern
ĠB run
ind ar
ind ul
Ġpro let
Ġim pend
Ġim itative
ĠO ed
ĠO LD
ood ed
Ġar med
Ġwill power
Ġcom for
Ġsp l
Ġsp out
Ġsp acious
ner y
ĠN on
ĠN ation
ĠN atural
Ġun ne
Ġun hing
Ġun not
Ġun pro
Ġun holy
Ġun Ã¦sthetic
Ġun productive
ĠE v
ĠE qu
ĠE ss
ĠE ST
ĠE arth
per ing
per son
iv ably
ag n
ag ery
ĠP ass
ĠP ATH
ĠP andora
ĠP indar
ĠTh or
ĠTh ither
ke warm
Ġdis l
Ġdis pl
Ġdis may
Ġdis ench
Ġdis obedience
Ġch ase
ĠF ly
ĠF ull
ĠF irm
ĠF UT
ĠF ee
ĠF LAT
ĠF onte
Ġj ew
ĠM ake
ĠM ight
ĠM ach
ĠM ere
ĠM rs
ĠM use
ĠM ERE
ĠM INE
ĠM iche
ĠM OST
ĠM etaphys
Ġfa iling
ort ant
ans ion
Ġr ushes
Ġr itual
ud ov
Ġmor row
Ġmor alising
Ġknow ers
ĠCh ange
ĠCh irped
Ġlife a
Ġlife long
Ġlife instinct
Ġinst ruction
Ġpr aying
Ġcont end
Ġcont rolled
Ġcont ingency
ĠL ast
ĠL UD
ĠL essing
ĠL AUGH
ĠL isten
ĠL ITTLE
Ġam or
Ġam using
Ġam algam
Ġpe ers
Ġpe asants
Ġout bre
Ġout lived
Ġind iss
Ġind icating
Ġind estruct
Ġworld mali
Ġgood they
ili sh
ĠD as
ĠD EN
ĠD ET
ĠD OM
Ġmen ager
Ġen um
Ġen amoured
Ġart ibus
ĠIn f
ĠIn s
ult ures
ult ured
Ġspe ck
ĠHe arken
Ġunder to
el come
Ġres ort
oc lean
Ġpl ot
Ġpl ains
Ġform ally
Ġform less
Ġval our
Ġide alised
Ġad oration
Ġimp ious
Ġimp lied
Ġimp unity
Ġstill er
ĠR a
ĠR o
ĠR he
ĠR ing
ĠR ET
ĠR OM
Ġpres seth
Ġfirst ly
Ġfirst named
un less
Ġspirit ed
ars on
Ġsa ving
ost erous
Ġstr ing
Ġlove ly
Ġself less
Ġself over
Ġself poll
Ġself enjoy
ep ing
Ġra ppres
Ġreg ion
Ġreg ulating
Ġsub mer
Ġsub urb
int ellect
Ġend angered
Ġcl oses
Ġcl aws
Ġatt raction
Ġvirt Ã¹
Ġgo ose
Ġtra mp
Ġnew er
are ne
ord e
Ġdist ract
Ġdist ortions
Ġdist racted
ĠTH ANK
Ġinc ense
Ġinc omm
Ġinc lude
Ġinc entive
Ġkind red
Ġkind led
Ġdec k
Ġdec ade
ĠGerman ic
Ġpart ially
Ġpart isans
Ġrec urs
ĠWe ary
Ġbr ow
act er
old s
les n
sh ave
Ġmod ified
Ġstand still
ĠJ UD
ĠY esterday
ĠY onder
aw ed
Ġaw fulness
ied er
Ġent h
Ġent ities
Ġent ailed
Ġent ertained
Ġref erring
Ġbl az
Ġbl ushes
tic s
Ġchar ged
Ġext ol
Ġext ension
Ġte em
Ġro c
Ġro lls
Ġneed ing
Ġdisc onne
ĠV ers
ĠV ice
ĠV ICT
Ġapp lau
ten burg
Ġcomp ass
Ġcomp aring
Ġsec ured
Ġimm utable
Ġimm aculate
Ġgl o
Ġreason ableness
Ġsm ack
Ġinf ant
Ġins piring
Ġtw ent
Ġperson ages
und ered
Ġinter fere
Ġinter ior
Ġinter lude
ck hardt
Ġlight en
Ġgener ates
Ġsym phony
Ġsc r
Ġsc ents
Ġsc ared
Ġsc rut
av age
Ġpain ting
Ġlear ner
Ġpoint ing
Ġbest ows
OR AL
OR ALITY
Ġfound ing
Ġpra xi
ange th
me asure
Ġfl ag
Ġfl owed
Ġass fest
Ġgu iding
Ġadv ancing
Ġwar fare
Ġinde c
Ġsl ugg
Ġfree zes
Ġconf ines
Ġanim ation
Ġanim ated
Ġill usory
Ġconst ructed
Ġmean ings
Ġcle aves
Ġcle arest
Ġop iate
Ġpar l
Ġpar liament
Ġfriend liness
Ġsoci alists
Ġrel atives
Ġrel ativity
Ġant ire
Ġbeaut ies
Ġbeaut ified
Ġsens us
Ġsens ualism
Ġweak en
Ġweak ling
Ġweak lings
Ġweak willed
be ck
be lieve
be arers
Ġef ful
Ġdiv ested
Ġdiv inities
Ġac me
Ġel usive
ĠAll to
Ġpsych ic
urn s
Ġcor por
Ġdem olis
ĠBe gg
ĠBe lieve
ĠBe autiful
ĠBe auty
Ġequ ation
Ġhon oureth
Ġpossess ors
Ġsuper flu
ĠSch ol
ĠK Ã¶
ĠK eep
Ġnatur alism
Ġbelieve th
Ġtaste ful
ia vel
Ġdown right
lit ies
Ġdev ice
Ġdev oured
Ġdev iations
Ġdev ilish
Ġrespect ful
Ġrespect ively
Ġdre ary
Ġsac ros
Ġnor thern
Ġphys icists
Ġstreng thens
Ġest rangement
Ġhard ening
Ġhard ened
Ġfut urity
Ġunc outh
aken ing
Ġimag in
Ġdream ers
Ġdream world
Ġcent ral
ha ired
Ġwr oth
Ġdep ortment
Ġcontin uing
Ġfore b
Ġdom ine
Ġless on
ĠWith in
Ġworth ier
Ġworth iest
Ġstru ctures
Ġclass ic
Ġclass ified
go at
Ġabsolute ness
Ġcomple ment
Ġcomple tion
Ġdesp otism
Ġdesp aired
Ġshort est
rib ution
Ġsun light
Ġmar ble
Ġoff shoot
Ġprom otes
Ġprom oting
ater ial
Ġcr ises
Ġinterpre ters
Ġret rospective
lis ed
Ġpract icable
po ss
po ison
Ġco in
Ġco ast
Ġco vers
Ġco inage
Ġprop osed
ĠSt arting
ĠSt rength
ĠĠĠĠĠĠĠĠ ĠĠĠĠ
nes sthe
Ġaff ixed
Ġrequire th
Ġche eks
Ġpartic le
ĠSo on
ĠSo oths
ĠAn arch
Ġcap it
ustom ed
Ġexc used
Ġreve re
Ġsil k
Ġlatter day
Ġprodu ctions
where as
Ġter restrial
ĠRe ady
Ġcontempt uously
Ġid y
Ġpast oral
Ġsw o
Ġsw elling
angu age
ĠOr pheus
Ġcondition al
Ġmot ions
Ġcommun ic
Ġcommun ion
Ġcommun icating
Ġcommun icable
Ġcommun icates
ane ity
Ġperfect ed
Ġsubject ed
Ġcomplete ness
Ġlangu ishing
Ġbur neth
Ġmaster ly
Ġmaster pieces
Ġseek est
ĠAl c
ĠAl beit
Ġblood suck
orm s
Ġce aseless
Ġcontrad istinct
Ġnob ly
Ġappro ves
Ġappro acheth
Ġbli n
Ġmid way
Ġult im
Ġvis ual
Ġvis ited
Ġhope ful
Ġtre acher
Ġhear keneth
Ġhabit ually
itut es
Ġver ge
Ġtend ing
Ġcircum vent
Ġcircum spection
Ã© v
Ã© es
Ġhero ines
get table
IC K
IC RON
Ġsudden ness
Ġconcl usively
Ġcra z
Ġcra ves
Ġpub lish
rust ful
Ġmanifest ing
ST AND
Ġcount ing
Ġimper t
Ġimper atives
Ġprov inces
Ġadd u
Ġlaugh s
Ġfew est
Ġadm iss
mer ited
Ġred isc
ĠWhere fore
Ġsubtle ties
Ġremain der
ĠSp anish
Ġcold est
vere r
Ġdece ivers
Ġexp ose
Ġinvent or
Ġopen hearted
Ġneighbour love
Ġfine ry
Ġdistinct ive
ung er
Ġspr out
Ġthree fourths
Ġenv ied
Ġforg iving
Ġhal o
Ġhal ted
ĠTR AG
Ġstage players
Ġstage player
gar land
Ġpeace able
Ġbreak up
ĠYou ng
ony mous
ident ally
Ġcounter act
Ġdomin ates
Ġexhaust s
OT NOT
Ġbo ister
ĠAr g
Ġ8 3
ĠTO O
Ġmyth op
Ġfain thearted
Ġcol umn
Ġ9 1
Ġ9 4
Ġ9 5
Ġ9 7
Ġ9 8
ĠInd ependence
Ġproud est
Ġcontempl ating
Ġeduc ates
Ġpict ured
Ġbit ten
Ġbreat hed
Ġbreat hes
Ġwild est
Ġwild ness
Ġ10 0
Ġ10 8
Ġ10 9
Ġign ored
Ġlist s
Ġeff ic
Ġeff erves
Ġdeli rium
Ġintellig ibility
Ġcomb inations
Ġneg ations
Ġrise th
Ġ11 4
Ġ11 5
Ġ11 6
Ġtrad ers
Ġhour hand
Ġthirst eth
Ġmodest ly
Ġhalf s
Ġhalf andhalf
Ġstupid ities
Ġperce iving
lud es
Ġgrad ation
Ġcompe lling
Ġwonder s
ĠPr in
ĠPr ince
Ġho b
Ġho ary
Ġfather lands
Ġdark en
ĠSh ame
Ġfra med
Ġworks h
Ġcross ing
ĠWH OM
Ġprejud iced
Ġprejud icial
ĠPro ven
ĠPro bably
Ġround about
Ġ12 3
Ġ12 4
Ġ12 5
Ġ12 6
Ġ12 7
Ġ12 8
TH ONY
Ġlower ing
Ġpolitic ian
Ġbehold er
Ġwrong do
Ġcoll apses
Ġstra ined
Ġstra ins
Ġlu kewarm
Ġste am
Ġste el
Ġste aling
Ġste pping
Ġste eds
Ġgenuine ness
Ġsum mon
Ġsum ming
Ġservice able
Ġsweet ly
oun cer
Ġnon freedom
Ġ13 0
Ġ13 1
Ġ13 3
Ġ13 5
Ġ13 7
Ġ13 8
Ġ19 5
Ġ19 9
Ġoblig atory
ray ed
ĠAm or
Ġ17 4
Ġ17 5
Ġ17 7
Ġ17 8
Ġcloud ed
Ġtest ifies
Ġaut ocratic
Ġmed ley
Ġmed itations
Ġ14 0
Ġ14 2
Ġ14 3
Ġ14 7
Ġguard s
Ġguard ian
Ġment ally
Ġsignific ant
Ġenthusi astically
gain st
Ġ16 0
Ġ16 1
Ġ16 4
Ġ16 7
Ġdi ary
ĠLe on
ĠLe arn
ĠLe opard
Ġprep osterous
Ġner ve
Ġner vus
Ġglor ifying
Ġformula e
Ġ15 6
Ġ15 7
Ġmon uments
Ġmon astery
Ġpress ing
ĠDe cadence
ĠDe utschland
Ġfun ny
Ġsex uality
Ġcred ibility
Ġcred ited
Ġpost p
Ġexpect ant
Ġexpect ations
Ġimpress ive
Ġamb ush
Ġdecay ed
Ġren ounces
Ġresist ing
Ġmorbid ity
ĠLuther an
Ġdesign ates
Ġarri val
Ġ21 6
Ġsubst itute
Ġinex pressible
Ġasc ertained
Ġasc ribing
Ġimpro ves
Ġfoot brid
Ġmin imum
Ġmort ally
Ġfr antic
Ġfals ifies
Ġ23 1
Ġsav agery
Ġincom parably
ĠJes uits
ĠHer der
ĠHer acle
Ġsimple tons
Ġgentle man
CT RINE
Ġfright en
Ġdw elt
Ġstart led
Ġ22 6
Ġ26 9
US E
Ġwater fall
Ġlust ing
Ġlust ful
Ġ27 2
preser ving
Ġ188 3
Ġ188 9
Ġingen uously
Ġeth n
Ġtempt ations
Ġrese mblance
Ġkn ock
ĠMY SELF
Ġavoid s
IM S
IM IT
Ġmountain rid
AS E
Ġprud ently
Ġ25 7
Ġbliss fully
Ġfle x
ĠSome times
Ġsave th
Ġ29 3
Ġ29 5
Ġmasters hip
Ġnote book
Ġfruit fulness
Ġsce nery
Ġfort ress
Ġfort uitous
Ġremem bers
Ġreflect ions
Ġemploy ment
uc hess
Ġla urel
Ġshar pened
Ġadvent urous
Ġdemonst rable
Ġaffirm ed
Ġassoci ating
eem er
Ġbold er
Ġtoler ate
Ġtoler ated
Ġtoler ably
Ġrece iving
ĠAmong st
Ġur ging
Ġur gent
Ġscorn s
pri est
Ġdeser ved
Ġprevent ing
ITH ER
Ġciviliz ed
Ġtor ch
Ġsn ares
Ġsn iff
ĠTra gic
Ġanx iously
Ġpred icates
ĠCON SEQU
Ġlone liest
Ġmiss ing
Ġcease th
ĠMe ans
Ġadmire r
bre aking
Ġflight s
Ġexagger ations
Ġdescend s
Ġadop ts
Ġaffect ation
Ġaffect ions
Ġoptim um
ho liness
Ġban ner
Ġobst inacy
Ġ34 4
Ġmild est
Ġpal m
Ġpal ate
Ġirrit ations
Ġrhyth ms
UL G
Ġeight een
Ġsearch ing
Ġquar rel
Ġquar rels
Ġpresum e
Ġremote ness
Ġtit anic
Ġhouse hold
Ġport al
ĠAph s
Ġtemper ature
Ġpleasant ly
Ġunw ar
Ġgrace ful
Ġeconom ical
Ġaccompan ies
Ġfif teen
Ġrecon ciled
Ġcolour ing
ĠJuda ic
Ġfant asies
cili ty
Ġring ing
Ġfriendship s
Ġident ify
Ġancest ry
Ġsuppress ing
Ġsurpass ing
Ġhom inum
Ġlad y
Ġstro ve
ĠAN THONY
Ġsoft ly
Ġcompl aint
Ġcompl aints
Ġ38 2
ĠSpirit ual
Ġnine ty
Ġexceed s
Ġstret ching
Ġstream s
Ġacknowled ges
ĠdÃ©cad ents
Ġthro ats
Ġthunder cloud
Ġthunder bol
Ġaltern ately
Ġaltern atives
Ġinterrog ative
Ġbrave ly
Ġtast ed
Ġmach ines
ĠPRE JUD
Ġpenetr ated
Ġcomprom ises
Ġturning point
Ġsix teenth
Ġhunt sman
Ġfulf ils
Ġartific ially
Ġoverc ast
iog raph
ĠThrough out
Ġselfde fence
Ġpersist ence
Ġexpedi ency
imp ulses
Ġfresh ness
Ġdisturb ances
Ġfer vent
Ġfer ocious
ĠLO OK
ĠDarwin ian
Ġsubmit ting
Ġdiscl oses
Ġexplo iting
Ġ187 2
Ġanticip ates
then ing
Ġhide ous
Ġrev ive
Ġrev ival
Ġrev ulsion
ĠInt ellect
ĠGen oes
Ġpreced e
Ġprot ophenomenon
Ġdiscer ners
Ġflatter y
Ġcalumn iate
Ġextravag ance
Ġextravag ances
Ġtou gh
Ġunbe lievers
ĠEX T
ĠEX IST
Ġplan ned
Ġpresc riptions
Ġselfe ffacement
Ġguarant eed
Ġparal yse
Ġprompt ings
Ġafford ing
Ġbrilli ancy
Ġplebeian ism
Ġredeem er
Ġredeem ed
CI ENT
EA CH
Ġinsc ribe
Ġpermane nce
Ġinsist ed
Ġabsor ption
Ġabsor bs
Ġconfound s
Ġhypocr ite
Ġmilit arism
Ġcree peth
Ġtrib ute
Ġbind ing
Ġmoon light
ĠCan st
ĠRelig ions
ĠProtest ants
Ġslander ous
Ġshepherd s
Ġthin ner
Ġnihili st
Ġhaz ards
Ġconsec rate
ĠCont empt
ĠCont emplation
Ġration alism
Ġoverth rows
Ġoppress ing
Ġconstitution al
gra m
rel ations
Ġdry ness
Ġnotice able
Ġsem i
ĠEr rors
Ġju gg
Ġovert ake
Ġovert aketh
ĠPromethe an
Ġsevent y
Ġblow eth
Ġantip athy
Ġsingular ly
Ġselfcon quest
Ġanalog ies
Ġpatri ot
Ġpatri ots
Ġpatri otism
Ġemphas is
Ġnutr iment
ĠAugust e
Åĵ n
Ġwin ning
Ġmatur ing
Ġdu ly
Ġshout ed
Ġproject s
Ġdisadvant ages
Ġglow eth
Ġconvalesc ents
Ġmur m
Ġmature d
Ġinfect ious
Ġstern ness
Ġdealing s
Ġunb ounded
ĠEN G
ĠEN EM
Ġshallow p
Ġmischie vous
Ġacute ness
Ġclimb ed
Ġwhisper s
Ġble ed
Ġble eding
Ġpaper s
ĠPers ian
Ġdisappe ars
Ġtransp orted
Ġsupple mentary
Ġbuff o
Ġobserv ances
Ġunexpected ly
Ġsurmount ing
QU I
cra ck
Ġbell w
Ġlament ation
Ġsto icism
Ġalc hem
ĠMar ia
ĠMar riage
Ġroll eth
Ġinsurrection ary
Ġcraft iest
Ġaddress es
Ġblasphem ers
Ġparagraph s
Ġcook ing
Ġbegg ars
Ġatom s
ĠSil ence
ĠHy perboreans
Ġasser ting
Ġharb ours
Ġharb inger
ĠProv ided
Ġvolition al
Ġreconcili ations
Ġcreep ing
Ġaphorism s
rod den
Ġwood s
Ġpam pering
ĠSw ab
Ġimpl anted
Ġblock head
Ġblock heads
Ġflas hed
Ġgrandfather s
truth s
Ġepile psy
Ġcounterfeit er
bl ow
Ġmould ed
Ġharsh ness
Ġfever ish
Ġunqu alified
ĠPo ets
Ġdisse mble
Ġdisill usioned
Ġcontrib ution
Ġcapt iv
Ġherald s
Ġinnov ator
Ġpenit ential
ĠAD DITION
ĠSou ls
Ġshrink ing
Ġshudder ing
Ġneut ral
Ġjo ined
ĠMo orish
ĠMo ira
Ġclock bell
Ġgene al
Ġrefres hed
Ġutili sed
Ġmystic a
Ġmat ernal
Ġdial ogues
Ġhed onism
ĠWOR D
Ġdoc uments
ĠGl adly
ĠSH OULD
Ġintol er
Ġspont aneity
Ġadequ ately
Ġcondu ces
Ġresting place
Ġsimpli fication
Ġreverent ly
Ġdogmat ist
Ġdogmat ists
ĠBELIE F
ĠBELIE VE
Ġwander ings
ĠCONS CIENCE
Ġhesitating ly
Ġunlearn s
cht ig
Ġsof tening
Ġsof tened
ĠETERN AL
Ġsubd iv
Ġemer ge
Ġembarrass ment
Ġcompr ise
Ġscru ple
Ġencoura ges
Ġgleam s
Ġinconsist ent
Ġfreespirit ed
Ġtarantul as
Ġgather ing
ĠIND ULG
Ġling er
ĠAB OVE
ĠGEN ER
Ġshun s
agor ia
Ġrum inating
Ġruth less
Ġrhet or
Ġrhet oric
Ġcontr aries
Ġindirect ly
ĠDel phic
ĠDel acroix
Ġspeed ily
Ġobs cene
ĠVAL UE
ĠVAL UES
OUN T
ĠLeibn iz
Ġselfconf ident
Ġthw arted
Ġstuff ed
Ġpreem inent
ĠEle atics
ĠPRA ISE
ĠFO OTNOT
ĠInn umerable
Ġpled ge
Ġrapt ures
Ġsimpl er
Ġpurch ase
Ġpurch ased
Ġindef inite
Ġbackworld s
CEPT ION
Ġautom atism
ĠEduc ation
ĠEduc ator
Ġcell ar
Ġink ling
Ġeg otism
Ġrevers ed
Ġmeane st
ĠOTH ERS
ĠNaz arene
Ġratt lesn
ĠDanger ous
Ġgover ned
Ġgover ning
Ġinsin uated
Ġeleg ant
Ġcoop eration
Ġ183 0
ĠBECOM ING
ĠPRO FOUND
Ġculmin ated
ĠAmeric an
Ġwol f
Ġregener ation
Ġdepl ored
Ġshif ted
ĠCreat or
Ġloyal ty
Ġrust ic
Ġamp ly
Ġextirp ate
ĠSchle ierm
issim a
Ġcalam ity
Ġnobles se
Ġdiam etrically
Ġembra ces
Ġspecim ens
Ġforsaken ness
ĠCAUS E
Ġrecipro cal
Ġrecipro city
Ġexempli fied
warf ing
organ ic
Ġdivid ed
Ġegg s
Ġglit tering
Ġweigh ing
Ġconcili atory
Ġdefici ency
Ġdefici encies
Ġvill ain
Ġshock ing
ĠHind u
Ġnoblem an
Ġarche nemy
ĠED UC
ĠPort o
ĠPASS ION
ĠMens ch
ĠMens chen
Ġcann ib
Ġplough share
ĠRed emption
Ġtravell er
ĠVOL UNT
Ġcoinc ide
Ġhymn s
Ġvolcan o
Ġskil ful
Ġepidem ics
Ġtermin ology
Ġdivers ified
Ġstarting point
ĠJudÃ¦ a
Ġprocreat ive
Ġhalluc ination
Ġhalluc inations
Ġreprodu ce
Ġmicrosc op
Ġmicrosc ope
writ ing
Ġbree ze
Ġster ility
Ġstif le
Ġevild oer
ĠComm and
Ġperf ume
ĠBac ch
Ġproli fic
Ġabom inable
Ġunacc ustomed
ĠMess rs
ĠMag ician
ĠMel ancholy
Ġembit tered
Ġinflex ible
Ġgravedig gers
Ġslumber ing
ĠUlt imately
Ġelucid ation
Ġrevell ers
ĠRomantic ists
Ġastrol ogy
ĠINTER PRE
Ġfragr ance
Ġencoun ter
Ġomnipot ence
Ġanteced ent
ĠEUROPE AN
Gree k
OV ICI
Ġingred ients
Ġnur se
Ġrenow n
Ġrealist ically
ĠSud den
Ġshroud ed
Ġunut ter
Ġunpo litical
Ġchan nels
ĠMOD ERN
ĠDutch man
Ġplaus ible
ensitive ness
Ġatten uated
righte ousness
Ġblust erer
Ġretali ation
OURA GE
ĠAnim al
Ġswarm ing
Ġtresp asses
Ġcounterarg uments
Ġlegit imate
Ġencro ach
ĠAdm ire
Ġgrunt ing
Ġsorce rer
Ġlegislat or
Ġphantasm agoria
Ġindefatig able
Europe an
Ġpanegyrist s
Jew s
Sch openhauer
ĠÃ¦ tern
Ġtrop ical
Ġafore said
Ġbust le
Ġcad aver
Ġpseud o
stro ke
ĠTW O
Ġmeas uring
Ġexig encies
ĠOM ICRON
Ġunfor gettable
Ġunthink able
Ġunphilosop hical
Ġunalter able
ĠRH O
Ġrung s
Ġrubb ish
Ġchari ot
Ġdiscourage ment
Ġinfam ous
Ġreligios i
Ġconflag ration
Ġsensu alists
ĠAscetic ism
Ġimpercept ibly
Ġembark ed
ĠNECESS ARY
Ġportra it
Ġwinters ky
ĠPerson al
Ġselfsacrific ing
Ġpredeterm ined
Ġsyllog ism
Ġnightwatch men
Ġmimic ry
Ġperenn ius
uci us
Ġtum ult
Ġaux ili
Ġofte ner
Ġpus ill
Ġpatter n
Ġpip ing
Ġsug ary
ĠAri adne
ĠTheogn is
Ġvist a
ĠGover nment
ĠSavi ours
ĠHo hen
Ġprehist oric
Ġimpre gn
ĠOper a
ĠOptim ism
Ġaberr ations
ĠFRE ED
ĠLAM DA
Ġpeck er
ĠDoub t
ĠDOU B
Ġenli ven
ĠRoss ini
Ġapothe osis
Ġattent ively
ĠJah veh
Ġentra ils
Ġrefut ations
Ġrefract ory
ĠVed anta
Ġimme asurable
Ġimmod erate
Ġpurposeless ness
Ġvet itum
conce aled
Ġunmist akable
Ġinconsider ate
ĠSilen us
Ġunprejud iced
ĠESP RIT
ĠInterpre tation
Ġcampa ign
Ġdyspept ic
Ġcolleag ues
ĠSACRIF ICE
Cor inthians
Ze it
xist ent
Ġze al
Ġomin ous
Ġoffici als
Ġfart hest
editer ranean
Ġeun uch
Ġniaiser ie
ĠTac itus
Ġlung s
Ġsult ry
Ġvali ant
Ġvary ing
Ġdogg ish
ĠGrad ually
Ġnoond ay
ĠCopern icus
Ġprolet ari
Ġunnot iced
ĠFUT URE
ĠFLAT TER
ĠFonte nelle
ĠMach iavel
ĠMuse um
udov ici
ĠLUD OVICI
Ġindiss ol
Ġworldmali g
Ġunderto ok
Ġselfpoll ution
Ġrappres entativo
Ġsubmer ged
Ġsuburb an
ĠJUD GMENT
Ġdisconne cted
Ġassfest ival
Ġsuperflu ity
ĠKÃ¶ nigsberg
Ġsacros anct
ĠSooths ayer
Ġcontradistinct ion
Ġtreacher ous
ĠGenoes e
ĠADDITION AL
0 0
A V
A s
A IS
A IT
A IL
B Y
C on
C RE
D ER
E ven
F ather
G ood
G TH
G UM
H UM
I O
I f
I US
L ETY
M P
M Y
M ount
M OT
M aria
N ING
O ne
P r
P er
P ERM
R OW
R ISE
R ICH
S O
S Y
S o
S on
S ER
S ION
S ax
S AY
S pirit
T ake
T hy
T LETY
U P
U IT
U CT
V EM
V irtue
W ag
W hen
Y E
Z ARATHUSTRA
a fe
a um
a ft
a iser
a weth
b in
b ot
b ra
b us
b ine
b led
b ler
b anks
c s
c all
c ertain
c ount
c olic
c ulture
c ultured
d s
d ity
d rew
d oes
d ream
e a
e g
e ight
e ech
e ze
e cked
f ac
f ind
f ier
f ash
f ric
f arer
g ist
g us
g ies
g ative
g ular
g ia
g row
g ospe
g otten
g ime
g race
h og
h ost
h ild
h ook
h ouses
h igher
i em
i ab
i ability
i ators
i Sem
i heit
l en
l or
l as
l ow
l ac
l ative
l ange
l ave
m ong
m ag
m uch
m ade
m ering
m aker
n oc
n ung
n oble
n iff
n avig
n hild
o ci
p ent
p ur
p ati
p unishment
r ot
r us
r ound
r ons
r ather
r ulous
s atisfied
s ouls
t on
t or
t ow
t em
t ree
u ble
u ned
u alisation
u alized
v ion
v irt
v ision
v ana
w ater
x ious
y cl
y Ã¢
y mph
Î ¯
Î ¼
Ï Ĩ
Ï ĩ
á ¿
Ġ iv
Ġ version
ne t
ne ys
ne ca
Ġt u
Ġt am
Ġt ac
Ġt ace
Ġt aut
Ġt aint
Ġt angled
Ġt umble
li ch
li sm
li ances
li gere
Ġa th
Ġa uch
Ġa right
Ġa ere
Ġa iling
Ġa xe
Ġa zure
he ight
he cked
Ġo g
Ġo aths
Ġo live
Ġo cular
in is
in ious
in cial
re ason
re arth
re present
re asons
Ġw ines
Ġw atching
Ġw reck
Ġs om
Ġs ly
Ġs ans
Ġs ord
Ġs Ã¦
Ġs lim
is k
is ability
is ibly
er th
er ated
er land
er nere
at o
at on
at en
at est
at able
at rical
it re
it as
it ud
it ical
it ry
it ted
it io
it che
it mot
Ġm ie
Ġm err
Ġm ane
Ġm Ã©
Ġm aled
Ġm ouse
Ġm atch
Ġm arsh
on oc
on the
on othe
on cour
en c
en ous
en ger
Ġb at
Ġb or
Ġb light
Ġb ub
Ġb ank
Ġb abb
Ġb abble
Ġh ort
Ġh ues
Ġh ook
Ġh ark
Ġh over
Ġh orde
Ġh angeth
Ġc am
Ġc um
Ġc ance
Ġc ures
Ġc ask
Ġc ert
Ġc ordial
Ġf ak
Ġf ling
Ġf ie
Ġf lic
Ġf ati
Ġf its
Ġf ocus
Ġf ourand
Ġf arsighted
es iod
Ġp est
Ġp iet
Ġp uber
Ġp sal
Ġth orns
Ġin ch
Ġin act
Ġin gra
Ġin artistic
Ġin organic
or am
or ally
or ily
or ters
an ions
an ism
an tern
an atics
Ġto e
Ġto ss
Ġto ken
Ġto uc
Ġto kens
ot an
ot ions
Ġd ur
Ġd us
Ġd un
Ġd ense
Ġd ried
Ġd aughter
Ġd aunt
Ġd resses
st r
st on
st ate
st au
st here
st rong
ic ants
ar a
ar p
ar is
ar row
Ġe ine
Ġe there
Ġbe re
Ġbe ard
Ġbe ned
Ġbe ating
Ġbe que
Ġbe areth
Ġbe fou
le ter
le aps
le cht
Ġis t
se x
om oral
al most
al ms
Ġn i
Ġn ak
Ġn un
Ġn ailed
Ġn uance
Ġn ymph
Ġit he
Ġit to
Ġit they
ote lian
as a
as is
as ible
as hes
ce t
Ġre ly
Ġre ver
Ġre ass
Ġre tic
Ġre lies
Ġre formed
ow l
Ġg ush
Ġg ushes
Ġg abble
ent ment
ent hat
ut s
ĠT er
ĠT im
ĠT ay
ĠT rib
ĠT REE
ĠT REAT
ĠT iber
ĠT EACH
ĠI X
ĠI RON
ĠI GN
Ġhe n
Ġhe aled
Ġhe aped
Ġfor ty
ir vana
Ġl od
Ġha pless
ur ality
ur ated
ur rent
th ro
th ical
id ering
Ġan othe
ss uch
ss ip
ich ten
ich ael
ra i
ra ining
ra ctions
Ġnot ices
Ġnot icing
Ġst em
Ġst ings
Ġst ew
Ġst up
Ġst ole
Ġst uck
ch osen
od ing
her o
Ġwith drew
Ġli b
Ġli p
Ġli fts
Ġli fted
ist ingu
Ġsu gar
Ġall owing
Ġall udes
ĠA GE
ĠA fric
Ġde ter
Ġde fic
Ġde ference
Ġde ify
Ġde leter
ation ality
ul um
ul ling
ri a
ri ers
sel s
est iny
Ġmo sa
ĠThe sis
Ġse ers
Ġse ctions
Ġme te
Ġme tic
Ġme ted
Ġme aner
Ġex ile
Ġex terior
Ġex orc
Ġex oticism
ust ration
all to
ad ic
ad dle
Ġv ou
Ġv oc
Ġv ia
Ġv ocal
Ġv ultures
ĠW er
ĠW ars
ĠW ilt
ĠW AS
ĠW AIT
ĠW otan
Ġy out
Ġat e
Ġat oned
Ġal lies
Ġal beit
ge ance
ge hog
Ġman that
ak ings
if ferent
Ġare as
Ġare na
am m
am an
am ation
ci vious
ness es
ome th
Ġor gy
fe ll
Ġdo ve
Ġso othes
ate ful
Ġby gone
ĠG ru
ĠG oth
ĠG REEK
ĠG aya
ĠG oncour
ĠS it
ĠS qu
ĠS ty
ĠS et
ĠS ick
ĠS und
ĠS EN
ĠS ank
ĠS cientific
ĠS OM
ĠS orrow
ĠS IM
ĠS CH
ĠS leep
ĠS OC
ĠS ais
ĠS ombre
ĠS iber
ĠS CIENCE
ĠS URP
ĠS imply
ĠS acrifice
our teous
Ġsh irt
Ġsh atter
Ġsh aking
Ġsh uff
Ġsh oes
Ġsh orter
os est
os ive
and em
ĠH ed
ĠH ic
ĠH um
ĠH ast
ĠH art
ĠH ark
ĠH az
ĠH OUR
ĠH af
ĠH ARD
ĠH erman
ĠH esiod
ast y
ast hen
ast icism
Ġint el
Ġint end
Ġno ose
ard o
Ġpre f
Ġpre acheth
Ġpre exist
Ġpre ordained
Ġpre Aryan
Ġthem it
Ġthem the
ĠC L
ĠC ow
ĠC red
ĠC iv
ĠC ap
ĠC are
ĠC old
ĠC OR
ĠC irc
ĠC ustom
ĠC UL
ĠC osm
ĠC ourt
Ġper v
Ġper ishes
ac he
ac able
ig es
ig ma
ĠB R
ĠB r
ĠB ick
ĠB RA
ĠB UT
ĠB uck
ĠB AD
ĠB ACK
ĠB reak
Ġits o
ind ed
Ġpo ised
Ġpo ndered
Ġlo athe
Ġpro ne
Ġpro sec
em p
em per
ru its
ath ing
Ġar id
Ġcom ical
Ġfe asts
Ġfe asible
Ġsp in
Ġsp right
Ġsp ying
Ġsp its
Ġsp iders
Ġsp ernere
ĠN A
ĠN ine
ĠN aked
ĠN IGHT
ĠN arrow
ĠN irvana
Ġab j
Ġab bre
Ġun h
Ġun wise
Ġun ities
Ġun ites
Ġun ob
Ġun inter
Ġun set
Ġun Dionysian
Ġun luck
Ġun burden
Ġun attained
Ġun righteousness
ĠE in
ĠE at
ĠE ast
ĠE vent
ĠE ffect
ĠE TA
ĠE quality
ĠE PSILON
ĠE RR
per ors
iv inity
Ġle an
Ġle aning
Ġle itmot
ag ore
ag ogue
ĠP H
ĠP our
ĠP ast
ĠP ious
ĠP ost
ĠP oli
ĠP ractical
ĠP SY
ĠTh row
ĠTh uring
Ġdis inc
Ġdis respect
Ġdis ordered
now adays
Ġch ill
Ġch atter
Ġch ained
Ġch amp
Ġch oked
ĠF all
ĠF ive
ĠF em
ĠF lat
ĠF OUR
ĠF ool
ĠF oer
ĠF UND
ĠF ichte
Ġj oint
Ġj ests
Ġj umped
ĠM ain
ĠM et
ĠM oses
ĠM IST
ĠM Ã¢
ĠM odest
ĠM ARRI
ĠM ichael
Ġfa ulty
ans ing
ap art
Ġr od
Ġr asc
Ġr ouse
Ġr ushing
Ġr usheth
Ġmor alistic
Ġknow led
so ne
Ġlife in
Ġlife that
Ġlife work
Ġlife preserving
Ġtr ice
Ġtr ump
pre cisely
Ġpr Ã¦
Ġpr ouder
Ġcont rovers
ĠL if
ĠL and
ĠL oc
ĠL uc
ĠL AND
ĠL ONG
ĠL IF
ĠL ogic
ĠL IMIT
ĠL udovici
ĠL ichten
Ġtim orous
Ġam iss
Ġam eli
og ers
og ists
Ġpe cc
Ġpe pper
Ġqu ack
Ġqu ia
Ġqu oted
Ġqu ivers
Ġworld interpre
Ġworld weary
Ġgood s
Ġgood nature
Ġhimself and
Ġhimself this
ili sation
ĠD ion
ĠD ialect
ĠD run
ĠD AY
ĠD estiny
ff auer
ue nd
Ġen l
Ġen velop
Ġen force
Ġart form
Ġart fulness
Ġart lessness
Ġart impulses
ĠIn v
ĠIn cip
ult imate
Ġthings and
ers on
ers man
Ġdes ist
Ġdes ec
Ġdes igned
Ġow ed
lie ver
Ġunder world
Ġunder rate
Ġunder going
Ġunder neath
Ġres ide
Ġres ign
Ġres urre
Ġres iduum
Ġpower fulness
Ġca red
Ġpl aint
Ġpl anted
Ġpl ots
Ġpl aine
Ġpl urality
Ġform ative
Ġob sequ
Ġide ality
Ġad j
Ġad rift
Ġad orned
Ġad amant
Ġover st
Ġover work
Ġover lad
Ġover much
Ġimp ost
ĠR ound
ĠR ub
ĠR ED
ĠR ob
ĠR Ã¶
ĠR ICH
ĠR ANK
ĠR oyal
Ġacc ents
ĠGod head
ab s
ab ove
ab eau
ys ms
Ġfirst ling
Ġfirst born
un k
Ġsel ling
ell est
ens ively
ict ory
Ġstr ide
Ġself lessness
Ġself lac
ep art
Ġra v
Ġra w
Ġra ck
Ġra iny
Ġreg im
Ġreg ulates
Ġreg ulative
Ġsub conscious
int s
int end
int erest
int ellig
int ox
int egr
Ġthemselves and
Ġap olog
Ġap ology
Ġsoul ful
Ġend and
Ġcl am
Ġcl utch
Ġcall est
Ġatt entive
Ġvirt us
Ġgo ble
Ġgo ather
Ġtra m
Ġtra vers
Ġnew est
Ġhum p
ord ing
Ġregard less
Ġthink able
Ġdist raction
Ġinc est
Ġinc ont
Ġinc ited
to oman
read er
Ġkind le
Ġkind liness
Ġmorality that
we alth
oth at
Ġdec omp
Ġdec reed
Ġwell constitut
Ġappe ase
Ġappe aling
Ġever inc
Ġever present
Ġpart ing
Ġrec ords
peri or
peri ences
Ġhand ling
Ġhand led
Ġhand maid
ĠWe imar
act ions
act ors
Ġdif fer
Ġcond ensed
Ġwhere upon
Ġmake believe
Ġmod er
Ġmod us
sc ript
press es
for g
Ġhuman ising
ĠJ UST
ĠY or
ĠY ET
rit t
ick en
Ġem inent
Ġem perors
Ġunt iring
Ġunt ouched
ĠTHE N
ĠTHE SE
Ġlast ed
Ġent ice
Ġent ering
Ġent rust
te face
Ġru se
Ġru ination
Ġru pture
Ġru dest
Ġfar reaching
Ġfar seeing
Ġbl ot
Ġbl aming
Ġbl unted
Ġspeak er
Ġchar lat
Ġchar co
Ġconc rete
Ġconc omit
Ġext ending
Ġte xts
Ġte achest
Ġinv i
Ġinv ited
Ġinv ites
Ġinv inci
Ġro ast
ER ATION
Ġneed y
Ġdisc ourteous
ivid ed
ivid ual
Ġpri zes
ĠV O
ĠV an
ĠV ic
ĠV iew
ĠV AIN
ĠV ANITY
Ġapp les
Ġapp lying
Ġcomp osing
Ġquest ioned
Ġmany tooman
Ġsec ular
Ġimm aterial
Ġgl oss
ON E
ON AL
Ġreason that
Ġsm art
Ġmis de
Ġmis jud
Ġmis appre
Ġins ufficient
Ġins idiously
Ġtw inkling
ress ion
ern i
fic ially
ĠThere sa
Ġbad dest
ck en
Ġsaid st
Ġread iest
Ġlight ed
Ġlight some
Ġlight picture
Ġsym m
Ġsc um
Ġsc ape
Ġsc rew
Ġsc hem
Ġsc rup
Ġpain less
Ġpur gative
Ġgra pp
Ġbest ower
Ġmatter off
Ġunderstand eth
edi ately
Ġexperi encing
Ġfeel est
Ġtru nk
Ġpra ising
ocr ates
aut ion
IS ED
Ġple as
Ġple ad
Ġquestion ableness
Ġtrans pl
Ġtrans itions
Ġtrans itory
Ġfl owing
Ġfl attered
Ġprof usion
Ġprof itable
Ġass ailed
Ġass ault
Ġadv ises
Ġwar nings
Ġvalue less
Ġsl ate
Ġsl oth
Ġsl aughter
Ġfree zing
ph itry
Ġanim ality
Ġill s
Ġill umin
Ġconst ell
Ġcle ansing
Ġpar aph
Ġpar ox
Ġsur fe
Ġsur ging
Ġrep uted
Ġrep asts
Ġsoci alist
Ġgod liness
Ġgod lessness
Ġgod head
Ġdifferent iation
be am
be fore
be liever
Ġoppos es
Ġdiv ination
Ġdiv isions
ĠU ne
ĠU ND
ĠU TIL
Ġac he
Ġel apsed
gg ing
Ġfre t
Ġfre sc
Ġsign ifying
Ġequ animity
ĠAs k
Ġhon or
Ġhon orable
Ġhon ourably
Ġpsycholog icis
Ġsuper ve
Ġsuper man
Ġsuper imposed
Ġsuper ficially
Ġconce iving
Ġobject ed
Ġfo am
Ġfo lie
ĠK n
ĠK ind
ĠK aiser
Ġnatur alistic
Ġaccord ed
Ġrequ ital
Ġexam ines
Ġpoet ising
lit ions
Ġtri p
Ġtri al
Ġdra in
Ġdra ped
Ġdev out
Ġdev ours
Ġsupp oses
Ġsupp lies
bit ably
ret ius
Ġdeath s
Ġdeath bed
Ġrest or
Ġrest lessly
Ġphys ics
AN AT
Ġest ate
Ġhard ship
Ġcontra cted
Ġcontra cts
Ġden ier
Ġden otes
Ġden ouncing
Ġfut ile
Ġfut ility
Ġreal ms
Ġfear lessness
Ġfear inspiring
Ġunc hecked
ha le
Ã¦ n
Ġdef ile
Ġdef iant
Ġes peci
Ġfore lock
Ġfore bears
Ġke ys
Ġcirc ulation
Ġclass ed
Ġcomple tes
ĠYe ars
ĠYe asaying
Ġdesp ond
Ġdesp otic
Ġshort lived
Ġsun beam
lu x
Ġsick liness
Ġmar ches
Ġexpl oded
Ġoff ering
Ġoff ences
Ġprom otion
Ġinn uend
Ġcr ows
Ġcr ank
Ġcr ann
Ġcr umbling
unt ing
Ġret ard
Ġret ired
Ġret rie
Ġret rospect
Ġpract ises
po et
Ġco iled
Ġprop rium
Ġrecogn isable
ĠSt ay
ĠĠĠĠĠĠĠĠ ĠĠĠĠĠ
Ġphenomen alism
Ġhel m
Ġhel lish
Ġaff ili
Ġimport ed
Ġche at
Ġcur ve
Ġcur ses
sthe ir
Ġsing ers
Ġmet rical
Ġcare lessly
ĠAn ax
Ġ18 2
onst er
Ġexc re
Ġexc av
Ġexc itable
Ġexc urs
nera bility
Ġsil enced
Ġhy d
Ġuni o
Ġhead aches
Ġdelight fully
Ġcar n
Ġcar rion
AR IA
Ġstri p
Ġstri pped
Ġstri vings
ĠRe ad
ĠRe form
Ġid lers
Ġhar l
Ġpast ure
ale m
Ġsw ayed
Ġperfect ing
Ġsubject ivity
Ġdire st
Ġbu gs
Ġbu colic
Ġcre w
Ġprim um
Ġbur ned
cip ated
ier re
ĠAl one
ĠAl ps
Ġmove th
oss al
Ġwa ive
Ġrace the
ĠNo on
Ġrid ding
Ġhope lessly
Ġfat alists
Ġtre mbles
Ġhat ers
Ġteach ings
Ġcircum navig
Ġdisp ro
Ġdisp oses
Ġcontem n
Ġsymb oli
Ġcommon wealth
Ġbra ce
Ġcra b
Ġcra mped
Ġcoun se
Ġri p
Ġmag ically
Ġnight m
Ġnight ly
Ġprov incial
ĠPlat onism
Ġadd ressed
Ġwo ven
ĠSu ccess
Ġlaugh able
ED RICH
Ġmeasure ment
Ġego ists
Ġvol teface
Ġcorru pter
ug es
ug ly
Ġine rt
Ġred iscovered
ĠWhere in
ĠPer ception
ĠSp it
ĠSp ain
Ġcold ly
Ġdece iver
Ġexp oses
Ġexp ounded
Ġexp onent
Ġexp iated
Ġexp licit
Ġexp ansion
Ġinvent iveness
Ġsympath ise
Ġsympath icus
val ued
Ġtyp ically
Ġneighbour ing
Ġfine sse
Ġlonging ly
ethe y
Ġrare ness
Ġciv ic
Ġphilosoph izing
Ġsuccess ive
Ġsuccess ively
Ġmel anch
Ġformul ate
Ġformul ates
ung ry
Ġav idity
ĠSe ven
ĠSe neca
Ġsatisf actory
Ġsea farer
ĠDo ing
Ġswe eter
Ġforg ives
Ġunivers ity
Ġunivers ities
Ġunivers alia
Ġfavour ing
IL E
Ġcommand ment
ĠTR UE
Ġtur bid
Ġbreak down
Ġpublic sch
uli ty
Ġprob abilities
ric ity
ric ane
Ġvan ities
Ġdiss imilar
Ġwind ings
Ġwind fall
Ġmyst ics
Ġpraise worthy
Ġcounter point
Ġcounter stroke
cul us
Ġbes eech
Ġhate th
Ġexhaust ive
Ġextra ct
Ġoper ations
Ġbo ots
Ġfan ciful
Ġec li
Ġcol ossal
Ġeduc ator
Ġeduc ators
Ġep ilogue
lin s
lin ation
Ġbit ing
Ġbar riers
Ġener vation
Ġcharm ingly
fl akes
Ġwild ly
ines sthe
Ġign ore
Ġlist eners
Ġevent ide
Ġrespons ibilities
Ġdeli vers
Ġdeli verer
Ġreverse ly
umb ed
umb us
umb led
Ġsedu cing
Ġliber ate
Ġliber ated
lud ing
Ġconqu ests
Ġgloom ily
Ġgrad es
ĠCon v
ĠCon cept
ĠCon sequ
ĠPr ot
ĠPr ide
ĠPr oud
ĠPr ayer
Ġsymptom atic
ĠÃ¦sthetic ally
Ġbas ic
Ġho lier
ĠSh adow
EL LECT
Ġexcess ively
Ġschol astic
Ġterm ination
Ġcross es
ĠPro ver
Ġround s
Ġmonst re
Ġder ide
Ġder anged
Ġcomfort s
Ġabsurd ities
TH US
Ġpolitic ally
Ġtort uring
Ġtort oise
Ġarg ues
ĠPe oples
Ġbehold ing
Ġbehold ers
Ġhop ping
Ġste ersman
land ers
ALL ED
ĠUn less
Ġsweet ened
ĠX VIII
Ġnon con
Ġnon Dionysian
Ġnon value
Ġ19 2
Ġ19 3
Ġ19 4
Ġ19 6
Ġ19 7
Ġ19 8
Ġoblig ing
Ġdread ed
Ġrepe l
Ġrepe ating
Ġlogic ally
Ġchor ic
Ġelev ations
Ġwilling ness
Ġ17 0
Ġ17 1
Ġ17 2
Ġ17 3
Ġtest ify
Ġmed ication
Ġmed itative
Ġstud ying
Ġ14 5
Ġ14 6
Ġ14 8
Ġ14 9
uff icing
Ġment hat
Ġimmort alised
Ġdialect icians
Ġ16 2
Ġ16 3
Ġ16 6
Ġ16 8
Ġ16 9
Ġstrict ness
Ġdi agn
rol ling
Ġglor ies
Ġsimilar ity
isc hen
Ġdet ract
Ġdet ested
Ġ15 0
Ġ15 1
Ġ15 2
Ġ15 3
Ġ15 4
Ġ15 5
Ġ15 8
Ġ15 9
Ġfool ery
Ġannihil ating
Ġchorus es
Ġmon op
Ġmon olog
ĠDe v
ĠDe velopment
gn ost
gn ashing
Ġmult iform
Ġ20 0
Ġ20 1
Ġ20 2
Ġ20 3
Ġ20 4
Ġ20 5
Ġ20 6
Ġ20 7
Ġ20 8
Ġ20 9
Ġlaught ers
Ġcoward s
Ġcred o
rop ri
Ġmem or
Ġpost ulating
Ġexpect s
Ġvul nerable
Ġvul gus
Ġillness es
Ġcontrast ed
rent o
Ġgent ler
Ġash ore
Ġprote ctive
Ġmagn ified
Ġantiqu ities
Ġdesign s
IV ERS
IV ID
Ġna vel
Ġlarge ly
Ġlarge ur
Ġconne cting
Ġfire s
Ġexper ts
Ġ21 0
Ġ21 1
Ġ21 2
Ġ21 3
Ġ21 4
Ġ21 5
Ġ21 7
Ġ21 8
Ġ21 9
Ġard or
Ġmaj estic
Ġpret t
Ġpret ence
Ġenc l
Ġer as
Ġer go
Ġmut il
Ġmut ilation
Ġord ains
Ġuns atisf
Ġabst ain
Ġabst ention
Ġintox icants
Ġ23 0
Ġ23 2
Ġ23 3
Ġ23 4
Ġ23 5
Ġ23 6
Ġ23 8
Ġ23 9
Ġanal yse
Ġsav ages
Ġtouch stone
ĠHer d
Ġgaz eth
Ġstart ling
Ġtrust s
ĠRE F
ĠRE AD
ĠRE ASON
ĠRE QUI
Ġ22 0
Ġ22 1
Ġ22 2
Ġ22 3
Ġ22 4
Ġ22 5
Ġ22 7
Ġ22 8
Ġ22 9
Ġ26 1
Ġ26 2
Ġ26 3
Ġ26 4
Ġ26 5
Ġ26 6
Ġ26 7
Ġ26 8
Ġselfs urre
Ġselfs atisfied
Ġselfs ufficing
RA D
Ġlust s
Ġ24 0
Ġ24 1
Ġ24 2
Ġ24 3
Ġ24 4
Ġ24 7
Ġ24 8
Ġ24 9
Ġ27 1
Ġ27 3
Ġ27 4
Ġ27 5
Ġ27 6
Ġ27 7
Ġ27 8
Ġ27 9
Ġ188 2
Ġ188 7
cl usion
cl ock
Ġdecline d
Ġschool b
Ġschool masters
Ġrese mbled
Ġstimul ates
ilit ation
ĠJud gment
look ing
ĠÃ ¢
Ġstar ving
Ġ28 0
Ġ28 1
Ġ28 2
Ġ28 3
Ġ28 4
Ġ28 5
Ġ28 6
Ġ28 7
Ġ28 8
Ġ28 9
ĠNE VER
Ġ25 0
Ġ25 1
Ġ25 2
Ġ25 3
Ġ25 4
Ġ25 5
Ġ25 6
Ġ25 8
Ġ25 9
Ġredu ces
Ġanarch ical
Ġunre f
Ġunre cogn
Ġ29 0
Ġ29 1
Ġ29 2
Ġ29 4
Ġ29 6
Ġremark ed
eper s
Ġtal keth
Ġexhib ition
Ġexhib iting
ocra cies
Ġwarm ly
Ġblessed ly
Ġemancip ateth
aper s
Ġvers a
Ġhur l
Ġfort itude
Ġenorm ity
Ġremem brance
Ġreflect ing
Ġreflect ive
Ġoccur ring
Ġcondemn ations
Ġla nes
Ġshar per
Ġcho icest
Ġpresupp osed
EM ENT
Ġmater ially
Ġtoler ates
Ġinvestig ate
Ġinvestig ating
Ġur gently
Ġvo iced
Ġprefer ably
Ġ30 9
Ġwrite th
Ġsanct ification
Ġsanct uary
CH OLOG
Ġbus y
Ġcontent edness
Ġdeser ted
Ġblack er
Ġcollect ing
Ġdel ayed
Ġfair y
Ġcalcul ations
Ġcalcul ating
Ġten able
Ġsn atch
ĠSU FF
Ġpred icate
Ġphilolog ian
Ġobjection able
Ġestim ating
Ġbirth day
Ġpot ency
Ġbetray er
Ġmiss ed
Ġparad isiac
BLE M
Ġfirm ament
Ġdepart ing
Ġadmire s
Ġhang men
Ġcoarse ned
Ġproportion ately
Ġoptim ist
gl ow
gl oom
Ġban ks
Ġban ished
Ġban quet
Ġcli mbs
anim als
Ġprice less
Ġ31 0
Ġconfess ed
Ġclever ly
Ġsqu at
Ġmild ly
Ġpal er
ĠFin o
Ġ32 4
Ġirre voc
Ġirre gular
Ġwicked est
Ġbright est
Ġbright ness
ĠdÃ© n
Ġeight y
Ġstop g
ĠEm erson
Ġpresum ed
Ġremote ly
Ġpurs uing
Ġpurs uits
OUR SES
Ġport rayed
ĠAph rod
Ġesteem s
Ġdepri ving
Ġtemper ate
Ġmill stone
ĠSel ah
Ġ35 7
Ġsupport ing
Ġcritic ising
ĠArist otelian
Ġperpet uation
Ġgrace fully
Ġwitness ed
Ġaccompan iments
Ġed ge
Ġed itor
Ġrevel s
Ġrevel ling
Ġrevel ations
ĠAb ility
Ġloss es
ĠLo beck
Ġappropri ates
Ġmiddle man
work er
Ġcrowd s
Ġcrowd ing
Ġdam age
ĠSc ar
Ġident ified
Ġcountry men
Ġbroad ly
Ġexperiment ing
Ġrejo ic
Be ing
whe el
Ġancest or
Ġdeb ility
ĠEx pressed
ĠMAN Y
ĠDE CE
ĠDE LIGHT
ĠDE EP
Ġsurv iving
Ġsuppress es
Ġsooths ayers
ĠSelf cont
Ġhom o
Ġthreat s
ĠAN IM
ĠAN OTH
ĠBay ard
Ġspo ilt
Ġselfd el
ĠWagne ri
ĠSpirit s
cr ows
Ã¼ nd
Ġnine teen
urs ed
Ġsubter f
Ġemph atic
Ġstret cheth
ATH ER
Ġunex pressed
Ġunex hausted
Ġacknowled gment
ov a
Ġthunder s
Ġunhapp ily
Ġindu cing
ĠSoci ology
Ġfemin ism
Ġod ious
Ġod ours
Ġbid ding
Ġstomach s
ĠAL SO
ĠST REN
Ġimpe lleth
ĠPR IN
Ġpenetr ates
Ġcomprom ised
Ġpois oner
Ġrepro ached
AC TER
oe ic
Ġinqu ired
Ġinqu iring
Ġnut crack
Ġunm oral
Ġunm usical
Ġdish arm
Ġsuccumb s
ĠPhilosop hical
draw ing
vell er
Ġreact s
Ġreact ive
imp ortant
ĠWor k
ĠSoph oclean
Ġfer ocity
Ġdedu cted
Ġgar ment
Ġgar rulous
Ġexec rable
Ġloving ly
ĠME ANS
Ġteeth gnashing
Ġdiscl aim
Ġtranscend s
Ġparas itical
Ġsurre pt
Ġ187 1
UM B
inc luding
Ġsigh s
Ġhide th
ĠInt ox
ithyra mbs
Ġimpart iality
Ġtext ure
Ġflatter s
Ġcalumn iation
Ġappreci ations
Ġsurround s
Ġtitle page
Ġprodig al
Ġbed ecked
Ġdow nt
Ġdow ry
Ġnour ish
Ġnour ished
ĠAd d
ĠAd am
ĠAd mitting
ĠEX PER
Ġprompt ly
Ġskept ic
Ġbattle field
Ġpin n
ĠAR ISE
ĠAR GUM
Ġinsist ence
Ġinsignific ance
ĠBrah min
Ġcree ps
Ġdro pped
Ġkill eth
ĠCOM E
Ġproced ures
Ġworking man
Ġbestow eth
Ġmedic ines
URE S
Ġmil es
Ġhind rance
Ġdict ate
Ġdict ates
Ġwithdraw ing
Ġindust rial
Ġaccur acy
Ġsubt itle
Ġprophe cy
Ġproduct ivity
Ġmotion less
Ġcatch ing
Ġconsec ration
Ġpredom inating
ĠCons idering
ĠRuss ians
Ġadopt ion
lo ad
Ġsli pped
Ġsli ppery
Ġtow ering
aliz es
Ġju ice
Ġovert ure
Ġovert aken
ĠVal ue
Ġinsati ably
Ġfurthe red
Ġoverwhel med
Ġstrang le
Ġmusc le
Ġawkward ly
Ġawkward ness
Ġantip agan
Ġselfcon ce
ĠImm ediately
ĠAugust us
rum s
Ġtheore tic
Ġwat ches
Ġdu alistic
Ġgn awing
Ġgn awed
Ġgn aweth
Ġprotest ed
Ġcommit ting
mbl ers
gre y
Ġstern ly
ĠHE IGHT
Ġselfre liance
Ġhumane ly
Ġhumane ness
Ġrock y
Ġflood ed
Ġfraud ulent
rim ony
Ġsnow flakes
Ġoft times
Ġble mish
Ġere cted
Ġprem ises
acc ording
Ġquali fy
ĠDem ocracy
Ġunderm ining
Ġhumili ate
Ġempire s
Ġequival ents
Ġsupple ness
Ġmarvel ous
Ġhurt ful
Ġconsumm ate
UN E
Ġped antic
Ġgro an
Ġgro aning
Ġlament able
Ġconject ured
ĠBless edness
Ġunjust ly
Ġgrim ace
Ġfreethink ing
Ġ186 9
Ġunequ alled
ĠXXX VI
Ġascertain ing
Ġsquand erer
Ġceremon ious
Î¿ Î»
Ġwond rous
Ġmasc ulin
Ġhosp itable
Ġfi at
Ġpill ars
Ġconvers ant
Ġconvers ations
Ġshine th
ĠHy bris
ĠCR IM
ĠComp assion
ĠComp anions
Ġloose ned
Ġuniform ity
ĠFe uer
Ġagit ator
Ġindig ence
Ġvirtu osos
Ġreckon ing
Ġhazard ous
ool ed
well ers
ĠSw itz
Ġintim acy
Ġproclaim ing
Ġdispar aging
Ġplastic ity
Ġimpl ant
Ġimpl acable
Ġimpr inted
ĠVict ory
Ġutilit arians
Ġkey h
Ġparticip ated
Ġparticip ates
Ġcontempor aneous
Ġdissip ated
Ġknight s
Ġghost s
Ġghost ly
bl ooded
occ o
Ġomn i
Ġharsh ly
Ġgulf s
Ġlord ship
ĠAM ONG
Ġsequ el
Ġprost itution
ĠPo or
ĠPo etry
Ġdisse mblers
Ġcontrib uted
ĠDO CTRINE
Ġrecord ed
Ġrecover ing
Ġbloom s
Ġrose garland
Ġsimult aneous
Ġinflict ing
Ġhypnot ised
Ġpenit ence
Ġallevi ating
Ġdepreci ated
Ġparalys es
Ġic onoc
Ġtick le
Ġtick lish
ĠAD V
ĠGu y
ĠGu ard
ĠSOU TH
ĠPruss ia
ĠMo ors
ĠMad ness
Ġagon ising
Ġworldhist ory
Ġworldhist orical
Ġsubord inate
Ġsubord inates
ĠTHOU GHT
Ġflo at
Ġrelax ed
Ġrecommend ation
Ġbutterf lies
mar riage
Ġapt itude
Ġmat ched
Ġpick ed
Ġhed gehog
Ġexpend ed
ĠSH ALL
Ġspont aneous
Ġdisor gan
Ġfab ric
Ġfab ulous
Ġrout ine
Ġprick ly
Ġindescrib ably
Ġadjust ed
Ġcondu ce
Ġassimil ate
Ġrestra ined
Ġmotley ness
Ġsket ches
Ġdogmat ism
Ġdiver gent
Ġluxur iant
Ġoverflow eth
Ġmurder ous
Ġalcoh olism
Ġinquisitive ness
Ġwra pt
Ġburn s
Ġblend ed
Ġlit any
Ġexem pl
Ġprover bs
ĠFRI EDRICH
Ġsubd ue
Ġelect ricity
Ġsuperfici alities
Ġconvuls ed
Ġveget arianism
ĠantiSem itism
Ġexecut ive
Ġvindict iveness
ĠPHILOSOPH ER
ĠPHILOSOPH ERS
cor um
ĠÎ ´
Ġtent ative
ref ined
Ġcogn iz
Ġthread s
Ġdup lic
Ġdup licity
Ġgrie vous
ĠIND IVID
Ġconced e
Ġdefe at
Ġvic iss
ĠSub ject
ĠOB LIG
Ġunve il
Ġunve iling
Ġunve iled
Ġrhet orical
Ġcontr ition
Ġoutc ast
Ġoutc ry
Ġplung ing
ĠVAL U
ĠUnd oubtedly
Ġepilept ics
heart edness
Ġseduc ers
Ġmumm ery
Ġbull ock
Ġthw arts
Ġdrow ning
Ġgross ly
Ġsuck ing
ĠAss isi
ulch rum
Ġvest ige
Ġnook s
Ġpoly p
Ġimpet us
Ġabo lition
ĠPsych ological
ĠPsych ologist
ĠPRA CT
ĠFO OL
Ġpled ged
Ġsyll able
Ġguile less
Ġexplos ion
Ġmetamorph oses
ĠAngel o
ĠINT ELLECT
Ġsummit s
Ġautom aton
ĠPharise e
Ġunintellig ent
Ġdisquiet ing
Ġhoc usp
Ġfrog s
Ġpier ced
Ġincess ant
Ġbelit tles
Ġrevers al
Ġreestab lished
Ġhem iple
Ġalt ar
Ġorchest ration
Ġneur osis
Ġneur asthen
Ġupro ar
Ġupro oted
ĠNAT URE
Ġunp ardon
Ġenge nder
Ġenge ndered
Ġenge nders
Ġconvention al
ĠRegard ing
Ġvisit ors
Ġbrook s
ĠConf ucius
ĠBECOM E
Ġapprehend ed
Ġenterpr ises
Ġtorrent s
ĠSUB TLETY
ĠPRO BLEM
Ġstupe fies
Ġculmin ating
Ġsculpt or
Ġpreoccup ied
Ãª tes
Ġtig ers
ĠIDE ALS
Ġstam mer
Ġvap ours
ĠGERM ANS
ĠSpe ech
ĠSimil ar
Ġshif ting
ĠCru ellest
ĠPet re
ĠFEEL INGS
Ġcontag ion
Ġclown s
ĠTHEM SELVES
Ġextirp ation
Ġappoint able
Ġindividu alities
Ġinfl amed
Ġmisinterpre t
Ġmisinterpre ted
ĠSchle gel
Ġimportun ate
Ġacquaint ance
Ġmultif arious
Ġposthum ous
Ġembra ced
Ġembel lish
Ġimprov ised
ĠSche ffauer
post s
worm s
Ġsust ained
Ġvac ill
ĠSils Maria
ĠCor inthians
Ġarche type
Ġunst able
ĠFA CT
Ġcann on
ĠLIV ING
Ġpeac ocks
Ġactiv a
Ġenfor ced
Ġspecul ation
Ġresour ce
ĠRed eemer
Ġbloss om
Ġbloss omed
Ġtransval ue
Ġtransval uing
Ġforeig ner
Ġpunct ilious
Ġcruell est
Ġepidem ic
Ġsteep ed
Ġsavi ours
ĠJudÃ¦ o
ĠANT ICH
Ġbewild ering
Ġtribun als
RESS ION
Ġprecaution ary
Ġunravel ment
pain ting
Ġmudd le
Ġben umbed
Ġbash ful
Ġdrum s
Ġrend ez
Ġforfe it
Ġstult ification
Ġsettle ment
Ġshrie k
ĠCe ase
ĠCl ass
Ġimb ued
Ġarrest ed
Ġabom ination
ĠMasters ingers
ĠLI KE
Ġovers pread
ĠTHY SELF
ĠJu an
ĠJu ly
Ġillt reat
Ġillt reated
Ġreluct ance
Ġreluct antly
Ġrevell er
Ġastrol ogers
Ġepistem ology
Ġepistem ological
Ġlibert ine
Ġlibert inage
Ġ191 1
Ġencoun ters
ĠREC UR
ĠSTR ONG
impro ved
Ġtempest uous
Ġomnipot ent
ĠPuritan ism
Ġpositiv ism
Ġá¼ ĢÎ
ĠCheer fulness
Ġanteced ents
bless ed
Ġcher ished
Ġcand id
ĠcÅĵ ur
Ġdress ing
Ġvib rating
Ġatone ment
Ġshoot s
ĠHard ly
ĠCa es
ĠCa uses
Ġchristian ity
ĠMa xim
ĠMir abeau
ĠMil ky
ĠChar acter
ĠLaugh ing
ĠDes ire
ĠDesp ite
ĠInc identally
Ġimpass ioned
Ġimprud ent
Ġimprud ence
ĠRep ly
ĠTHINK ER
Ġcondescend ing
ĠVirt ues
Ġinfat uation
Ġconfer red
Ġcoord ination
Ġcoord inate
Ġvert ig
Ġexpand ed
Ġlabor iousness
Ġignom iny
Ġignom inious
Ġneglig ible
Ġfigur atively
Ġcliff s
Ġhomes ickness
Ġdisparage ment
Ġunquestion able
Ġunquestion ably
Ġobliter ated
Ġaugment ation
Ġbulw ark
Ġbulw arks
Ġdilett antism
Ġsapient ium
Ġcobwe bsp
Ġunhesitating ly
Îµ Î¹
Ġrib s
Ġtack le
Ġsatur ated
Ġmand ar
Ġcord ially
Ġpan oram
Ġpau corum
Ġvivid ly
ĠGent le
Ġshred s
ĠCol umbus
ĠCOUN TER
Ġperple xity
Ġpole m
ĠPRI DE
Ġagric ulture
ĠLone ly
Ġconsult ed
Ġadhere s
Ġoverfull ness
Ġwarned st
Ġrepay ment
Ġretire ment
Ġenerv ating
Ġdiplom at
ĠPhilist ine
ĠDec line
ĠImag ine
Ġprecurs ors
ĠScandinav ian
AMENT AL
Ġennob ling
Ġcasu istry
Ġungod ly
Ġflattere rs
ĠInnoc ent
ĠNATUR AL
Ġdynam ite
ĠFRIENDS HIP
Ġostent ation
Ġinaug urated
Ġmanufact ure
Ġastronom y
PEN S
cill or
hig hest
vention al
Ġoffe nder
Ġmaw kish
Ġcip her
Ġpow der
Ġpuff ed
Ġpuer ile
Ġreinst ate
Ġglist ening
ĠTIM E
Ġheter ogeneous
Ġlas civious
Ġlin ked
roll able
Ġvam pire
Ġunfe t
kel mann
ĠFell ow
Ġrat cat
ĠrÃ© gime
ĠLACK ING
ĠDen ial
ĠDra ma
ĠDRE AM
Ġenric hed
Ġplat form
Ġplent iful
Ġselfest eem
Ġgob lins
Ġdecre ases
ĠWeak ness
Ġrud imentary
Ġroped ancer
Ġcompli ment
Ġglaci er
Ġinfalli bility
Ġinsens ible
Ġscaff olding
Ġantis cientific
Ġcoroll ary
Ġputref action
Ġconvent icle
Ġpromisc uous
Ġhypers ensitiveness
Ġbuzz ing
ĠAppe arance
Ġacquies cence
Ġvolunt atis
ĠPeriod s
ĠmediÃ¦ val
Ġsubstant ial
Ġminst rel
Ġfellowcreat ure
Ġpersuas ive
Ġlightningfl ash
ĠCHAR ACTER
glom eration
ĠQuix ote
Ġsemibarbar ity
Åĵd ia
Ġintimid ation
ĠUtop ia
ĠAPPEAR ANCE
Ġconnoisse ur
Ġeuphem ism
Ġonslaught s
ĠCorsic an
limb ing
Ġae tern
Ġbrist ling
Ġintern ational
quar ters
Ġnu ances
Ġwhist ling
Ġwhiz zing
Ġreech o
Ġreleg ated
ĠTreitsch ke
ĠIgn orance
Ġud ders
Ġhallow eth
Ġcongrat ulate
ĠAF TER
Ġvot ary
Ġsob riety
Ġworme aten
ĠSor rento
Ġintrig ues
ĠCro oked
ĠBur ckhardt
ĠBab yl
ĠOed ipus
ĠNation alism
Ġunne cessary
Ġunhing ed
person al
Ġdisl ocation
ĠRa ise
Ġselfover coming
Ġselfenjoy ment
Ġincomm ens
Ġroc oco
ĠVers es
Ġapplau d
Ġglo be
Ġefful gence
ĠBegg ars
ĠAnarch ist
Ġcircumvent ed
Ġcraz iness
ĠTRAG EDY
Ġmythop oeic
Ġeffic acious
ĠLeon ardo
ĠLeopard i
ĠHeracle itus
ĠPREJUD ICE
ĠEXT ENT
ĠEXIST ENCE
ĠENEM Y
Ġshallowp ates
Ġbuffo ons
Ġbellw ether
Ġgeneal ogists
Ġsubdiv ision
ĠINDULG ENTLY
Ġrhetor ician
ĠSchleierm acher
ĠEDUC ATION
ĠVOLUNT ARY
Ġunutter able
Ġcadaver ous
ĠHohen stau
ĠDOUB T
Zeit ung
Ġproletari at
Ġindissol uble
Ġworldmalig ners
Wag ner
count ry
fash ioned
Ġtac it
Ġsom n
Ġmie ux
Ġmerr iment
Ġbub ble
Ġfak ir
Ġpuber ty
Ġtouc heth
Ġnak edness
ĠTay lor
ĠTrib schen
ĠTiber ius
Ġdefic ient
Ġdeleter ious
Ġmosa ic
allto ohuman
ĠSund ay
ĠHart mann
Ġintel ligere
ĠCUL T
ĠBick ley
ĠBuck le
Ġabbre vi
Ġuninter rupted
Ġunluck y
Ġleitmot if
agore an
ĠPSY CHOLOG
ĠFoer sterNietzsche
ĠFUND AMENTAL
ĠMÃ¢ yÃ¢
Ġcontrovers y
ĠLoc ke
ĠLuc retius
ĠLIF E
ĠLIMIT S
Ġameli oration
Ġoverlad en
ĠRÃ¶ cken
Ġwellconstitut edness
Ġeverinc reasing
Ġcharco al
Ġconcomit ant
Ġinvinci ble
Ġmanytooman y
Ġscape goat
Ġmatteroff act
Ġparox ysms
ĠUND ER
Ġespeci al
Ġcrann ies
ĠAnax agoras
Ġsymboli st
Ġmultiform ity
Ġselfsurre nder
ĠANOTH ER
ĠSTREN GTH
ĠEXPER IENCE
ĠARGUM ENT
ĠFeuer bach
ĠSwitz erland
ĠTHOUGHT S
ĠINDIVID U
Ġhocusp ocus
Ġrendez vous
ĠHohenstau fen
6 7
A m
A n
A gain
A lexand
A REN
A rt
B ite
B ook
B irth
C Y
C ONT
D e
E V
E X
E CH
F I
F est
F reedom
G G
G re
G EN
G ET
H ING
H OM
H igher
I B
I AL
I BLE
I ALLY
J oy
K EN
L T
L ove
L OW
L UD
L UDE
M B
N e
N ature
N ever
N ISE
O OD
O VER
O YS
P lat
P aul
R ousseau
R UST
R OUGH
S M
S tr
S UR
S ESS
S imon
T hen
T ING
U AL
U OUS
U PT
V ED
V AIL
W ith
W here
W OR
Y es
Y ou
Y OND
Z A
a ic
a iah
b al
b ation
b ad
b et
b ru
b red
b ade
b bed
b ending
c om
c ol
c ret
c overed
c omed
c ifixion
d ust
d ness
d led
d oth
d iction
d esp
d oing
d ivine
d rops
e b
e o
e u
e an
e ling
e ach
e neth
e ky
f o
f ing
f ed
f ra
f ight
f ish
f fere
f air
f ruit
f ruits
g a
g old
g ency
h l
h in
h om
h ill
h ast
h ish
h ang
h oney
h onour
i ar
i ence
i per
i el
i age
i ently
i verse
i alism
i asm
i atory
i work
i antly
k n
k ering
k ingdom
l a
l op
l ame
l ab
l orn
l usion
l Ã¤
l van
m ess
m ans
m el
m ates
m ia
m ont
m ma
m arks
m etaphys
n x
n iness
n atur
n aring
n ched
n ational
n ox
n alia
n uts
o o
o ir
o ard
o ols
o val
o lished
p ort
p ick
p ocr
p unt
p its
p acity
p ray
p ipe
p arson
r d
r ite
r ative
r ously
r ounded
s k
s u
s ir
s ay
s op
s um
s per
s aken
s ix
s leep
s ufficient
t ong
t ings
t empt
t itions
t alk
t ale
t res
t ium
t was
t otal
u v
u z
u ve
u ard
u ke
u ling
u ple
u ven
u istic
v o
v ance
v ated
v ations
v iew
v ities
v oli
v atives
w o
w all
w and
w ood
w orn
w omen
w ife
w illing
w oman
w rought
x c
x ed
x ic
x ities
y re
y st
y ard
z ac
z ied
¼ ber
Â §
Ã ł
Î ¬
Î ·
Ï ĥ
Ġ quote
Ġ ix
Ġ Â§
ne g
ne ity
Ġt inct
Ġt un
Ġt ense
Ġt ied
Ġt ides
Ġt ug
Ġt onic
Ġt atters
li x
li me
li day
li vity
li sts
li vities
Ġa u
Ġa val
he v
he ll
he ard
he nt
Ġo ak
Ġo lig
Ġo men
Ġo miss
Ġo asis
Ġo tium
in ous
in ies
in ue
in ced
in ths
in ners
in noc
re ality
re ations
re ared
re aring
Ġw ed
Ġw ri
Ġw ight
Ġw ie
Ġw ail
Ġw ides
Ġw ins
Ġw rap
Ġw reak
Ġs ic
Ġs id
Ġs ich
Ġs od
Ġs ward
Ġs que
Ġs ize
Ġs isters
is ations
is ons
is heth
is eration
nd re
nd em
er c
at om
at ious
at itude
at ches
at esthe
at tereth
it o
it ch
it ter
it ness
it iously
it ativo
Ġm ise
Ġm ili
Ġm ars
Ġm ists
Ġm nem
Ġm ail
Ġm uli
Ġm ime
Ġm aker
Ġm aud
Ġm umbling
Ġm akest
on n
on ce
on ation
on aut
on istic
on ium
en a
en o
en ment
en ius
en cest
en iable
Ġb i
Ġb er
Ġb ir
Ġb our
Ġb ag
Ġb one
Ġb ible
Ġb als
Ġb und
Ġb iz
Ġb ury
Ġb ane
Ġb its
Ġb ask
Ġb aff
Ġb others
Ġb omb
Ġh ill
Ġh ank
Ġh overed
Ġh iber
Ġc od
Ġc ali
Ġc ud
Ġc ens
Ġc aring
Ġc lin
Ġc ords
Ġc ros
Ġc atholic
Ġc odes
Ġf au
Ġf og
Ġf ue
Ġf oc
Ġf ile
Ġf ates
Ġf rit
Ġf und
Ġf ists
Ġf illing
Ġf uss
Ġf used
es que
Ġp ir
Ġp all
Ġp il
Ġp ac
Ġp ian
Ġp ack
Ġp aw
Ġp ave
Ġp ins
Ġp atch
Ġp iqu
Ġp aws
Ġth umb
Ġth aum
Ġin an
Ġin form
Ġin verse
Ġin ception
Ġin vert
or ological
an o
an ter
an ke
an age
Ġto re
Ġto us
Ġto pic
Ġto wered
Ġto days
ou ng
ou led
ou sso
ot aur
Ġd il
Ġd ess
Ġd ive
Ġd art
Ġd ip
Ġd iz
Ġd iction
Ġd aint
Ġd urable
Ġd rows
Ġd rin
st ar
st ab
st hen
st ands
st ring
st ache
ll t
ed ed
ic a
ic ra
ic ant
ic ily
ar c
ar re
ar um
ar ry
ar ged
ar iest
ar ches
ar ication
Ġe ve
Ġe ld
Ġe ats
qu ite
Ġbe e
Ġbe es
Ġbe ac
Ġbe ats
Ġbe arers
Ġbe gets
le i
le en
le id
le ment
le af
se en
se very
se verance
om or
al ways
al ready
al Ã©
Ġn ong
Ġn ays
Ġn ib
Ġn oses
Ġn icer
Ġn ieder
Ġwh ine
Ġwh ale
Ġwh ited
Ġit a
Ġit is
Ġit as
Ġit ali
Ġit em
Ġit ching
ote an
ve ys
as per
as Ã©
as ayer
ce mber
Ġre new
Ġre cept
Ġre lished
Ġre alists
Ġre igned
Ġre ef
ow eth
ow ho
im ag
im ated
im age
im med
Ġg ut
Ġg ast
Ġg ree
Ġg ape
Ġg het
Ġg orge
Ġg liding
ent red
ent ary
ut y
ut in
ut ive
ut ary
ut arch
ct ic
ct ory
ct ors
ct uous
ct ics
ĠT al
ĠT ri
ĠT urn
ĠT ruly
ĠT ASTE
Ġas in
Ġas hy
Ġas piring
ĠI l
ĠI r
ĠI OT
Ġu ner
Ġu mb
Ġhe ated
Ġhe ave
Ġhe irl
Ġhe ns
Ġfor ged
Ġfor ties
Ġfor bearing
Ġfor bade
ir ie
Ġl out
Ġl uring
Ġl urch
Ġl ash
Ġl antern
Ġl ulling
Ġha un
ur ning
ur ry
ur ities
th an
th rift
id ol
id ences
Ġan athe
Ġan oint
Ġan terior
ith ing
ss en
ra ced
ra ised
ra ms
ra bs
Ġnot or
Ġst il
Ġst ature
Ġst ab
Ġst ating
Ġst ark
Ġst air
Ġst ares
Ġst aying
Ġst ories
Ġst oring
Ġst agg
Ġst unting
ch ain
ch ism
ch amber
Ġwe ars
Ġwe aving
Ġwe igher
od o
od om
od our
od ists
Ġli c
ist ence
ist ering
ist orical
Ġsu ic
Ġon look
Ġall y
Ġall er
Ġall ude
Ġall that
Ġall ures
Ġall power
Ġall uded
ĠA w
ĠA y
ĠA st
ĠA qu
ĠA ry
ĠA lt
ĠA mb
ĠA BLE
ĠA UT
ĠA cad
ĠA ye
ĠA cts
ĠA rabs
Ġthis that
Ġde line
Ġde tain
Ġde cip
Ġde human
ul c
ul es
ul us
ul ary
ul ace
ul aire
ul nerable
ul osity
ri fied
ri ends
est ible
ro cious
ro oted
ain te
ĠThe e
ĠThe ory
ĠThe nce
Ġse ated
Ġse ats
Ġse nds
Ġse izing
Ġse eds
Ġme ad
Ġme ment
Ġme think
Ġex it
Ġex ch
Ġex pelled
Ġex asper
ust he
all o
all er
all ow
all ust
ad om
ad ies
ad oration
Ġv ort
Ġv ogue
Ġv oting
Ġone that
ĠW es
ĠW al
ĠW ay
ĠW ays
ĠW IS
ĠW ater
ĠW AR
ĠW ISE
ĠW onder
ĠW rong
ĠW ARRI
ĠW Ã¶r
ĠW estern
Ġy on
Ġy est
Ġat rocious
Ġal tÃ©
ge tic
Ġman is
Ġman ual
Ġman the
Ġman for
ak ens
if ter
if ted
il oqu
ous and
us cept
us pic
am ong
am ers
am ents
am ph
am ining
am ois
ci ling
ess es
ess ion
rom atic
Ġor ation
Ġor atory
fe lt
Ġdo l
Ġdo lt
Ġso ever
Ġso lic
Ġso bs
Ġso rest
Ġso licit
Ġso othed
op y
op in
op es
ate gy
Ġhim he
ol and
ol able
ol ved
ĠG L
ĠG er
ĠG es
ĠG aut
ĠG RE
ĠG row
ĠG ET
ĠG RI
ĠG lau
ĠG Ã¶
ĠG host
ĠG omor
ĠS im
ĠS ent
ĠS ag
ĠS oc
ĠS age
ĠS ove
ĠS ense
ĠS hy
ĠS av
ĠS IL
ĠS AIN
ĠS CEPT
ĠS anct
ĠS anta
ĠS OLIT
ĠS odom
ĠS ainte
ĠS allust
Ġsh o
Ġsh am
Ġsh ru
Ġsh ap
Ġsh one
Ġsh aring
Ġsh amed
Ġsh aper
Ġsh aped
Ġsh ocks
Ġsh imm
ali n
ali t
Ġev ap
Ġev asion
Ġev inces
Ġev inced
Ġwas hed
Ġhas hish
um ed
um ps
os c
os imilar
os issima
and o
ĠH on
ĠH ide
ĠH ans
ĠH ab
ĠH ost
ĠH AL
ĠH AT
ĠH ours
ĠH AS
ĠH off
ĠH ald
ĠH ERE
ĠH aving
ĠH alf
ĠH alÃ©
ast ity
ast rous
Ġint ends
Ġint emper
Ġno v
Ġno is
Ġno xious
nt he
nt ine
nt ire
Ġpre st
Ġpre estab
Ġpre ferences
Ġpre ludes
Ġthem sel
Ġthem but
Ġthem they
ĠC E
ĠC ur
ĠC ame
ĠC ount
ĠC AL
ĠC orn
ĠC openh
ĠC LE
ĠC OW
ĠC amp
ĠC lau
ĠC ohn
ĠC ommon
ĠC icer
ĠC OURAGE
ĠC rus
ĠC ycl
Ġthere at
ant ations
ant ically
Ġper tur
Ġper severance
ac ul
ac keth
reat hing
Ġne b
Ġne ts
ig en
pp ings
ine l
ine n
ĠB re
ĠB ar
ĠB el
ĠB old
ĠB ild
ĠB und
ĠB ET
ĠB ols
ĠB IR
ĠB AS
ĠB EST
ĠB aud
Ġwhe els
ive red
ther ly
ther ners
Ġpo ign
Ġpo ols
Ġpro ff
Ġpro gen
Ġpro gnost
ian ism
em bra
ru ed
ru se
ru ling
ru cifixion
Ġim itates
red ible
red emption
ĠO me
ĠO ft
ĠO ught
ĠO sir
Ġar rearth
Ġfe ather
Ġfe eding
Ġsp ed
Ġsp ill
Ġsp ice
Ġsp inner
Ġsp inning
Ġsp onge
Ġsp erni
Ġsp leen
ide alism
Ġup li
Ġeven ings
ĠN ays
ĠN ie
ĠN ove
ĠN igh
ĠN aught
ĠN ational
ĠN IGH
ĠN ax
Ġab ide
Ġab ash
Ġab odes
Ġun a
Ġun per
Ġun ful
Ġun sp
Ġun man
Ġun its
Ġun know
Ġun iting
Ġun bre
Ġun init
Ġun Christian
Ġun change
Ġun ruly
Ġun acqu
Ġun merited
Ġun holiness
Ġun important
Ġun ctuous
ĠE P
ĠE g
ĠE li
ĠE re
ĠE ight
ĠE ck
ĠE nem
ĠE AR
ĠE ug
ĠE ager
ĠE MOT
ĠE YE
ĠE ntire
per fection
iv a
iv oc
iv ists
Ġle w
Ġle ver
Ġle aven
Ġle af
Ġle eches
ag en
ag ans
ag na
ag ogues
ĠP in
ĠP ut
ĠP rom
ĠP ap
ĠP EN
ĠP over
ĠP ET
ĠP UR
ĠP AIN
ĠP URE
ĠP UB
ĠP anthe
ĠP OLIT
ĠP LUS
ĠP neum
ĠP ulchrum
ĠTh ought
Ġus and
Ġus we
Ġus ages
Ġdis f
Ġdis av
Ġdis heart
Ġdis astrous
Ġch im
Ġch il
Ġch ant
Ġch ise
Ġch illing
Ġch illed
Ġch anced
Ġch anc
Ġch attering
Ġch apters
Ġch oler
Ġch amois
Ġch romatic
ĠF at
ĠF ind
ĠF ort
ĠF ore
ĠF als
ĠF ew
ĠF ox
ĠF AS
ĠF Ã¶r
ĠF riends
Ġhow leth
Ġj ok
Ġj uris
thing initself
ĠM er
ĠM ot
ĠM ult
ĠM un
ĠM ount
ĠM eth
ĠM edi
ĠM Ã©
ĠM OT
ĠM ech
ĠM IR
ĠM ID
ĠM others
ĠM ADE
ĠM editerranean
ĠM Ã¦n
Ġfa irm
ort he
ort ality
ort ioned
ans om
Ġag ents
Ġag gra
Ġag glomeration
ap l
ap en
ap ost
Ġr umin
Ġr umbling
Ġr atio
art ist
art ists
ud ing
ud ent
ud imentary
Ġmor alised
Ġmor alizing
Ġknow able
Ġcan ker
ĠCh i
ĠCh o
ĠCh ild
ĠCh urches
ĠCh apters
ĠCh astity
Ġmust y
Ġlife it
Ġlife and
Ġlife less
Ġlife the
Ġlife like
cc o
pre me
Ġinst il
Ġpr ays
Ġpr anks
Ġcont ends
ĠL at
ĠL am
ĠL ON
ĠL ib
ĠL ead
ĠL OS
ĠL astly
ĠL IGHT
ĠL III
ĠL aughter
ĠL IVE
ĠL anguage
ĠL uke
Ġph Åĵn
Ġam pl
Ġpe al
Ġpe ak
Ġpe ep
Ġpe als
Ġpe eps
Ġout p
Ġout ra
Ġout the
Ġout wards
Ġout land
Ġout lined
Ġout lets
Ġout do
Ġout law
Ġind emn
Ġlong ings
Ġqu id
Ġqu ell
Ġqu oth
Ġqu aff
Ġqu enched
Ġqu alms
Ġitself in
Ġitself we
Ġworld that
Ġhimself he
Ġhimself it
ĠD er
ĠD am
ĠD ig
ĠD are
ĠD ark
ĠD ider
ĠD iss
ĠD ION
ĠD ead
ĠD EL
ĠD EST
ĠD UTY
ĠD OTH
ĠD estroy
ĠD uchess
ĠD epart
ĠD ithyrambs
ok y
Ġmen and
one self
ff able
ue ness
Ġlike th
Ġen gra
Ġen veloped
Ġart a
Ġart for
Ġart de
Ġart world
Ġart illery
ass er
ĠIn justice
ĠIt self
Ġmay st
Ġthings in
Ġthings for
ĠChrist op
Ġspe ar
Ġdes olation
Ġdes olate
ĠHe av
ĠHe arest
Ġye ll
Ġow ner
lie th
Ġunder valued
ĠWh oso
el aire
ĠChristian ised
Ġres ounded
Ġpower in
Ġpower the
Ġpower lessness
Ġpower they
Ġca bb
Ġca ptured
ang es
ang ord
Ġpl ank
Ġpl umb
Ġpl ume
Ġpl ump
Ġform ality
inct s
Ġtime ly
Ġob nox
Ġide ology
Ġide alisation
Ġad der
Ġad ored
Ġover sh
Ġover grown
Ġimp ute
Ġimp oses
ĠR oll
ĠR EL
ĠR aci
ĠR uling
ĠR anke
ĠR udimentary
ĠR angord
Ġacc use
Ġsou therly
ab ulary
Ġpres age
Ġfirst rate
un ic
un ci
ell ed
ple nd
ple xity
pl aced
pl anation
ens Ã©es
ict s
Ġstr ings
Ġstr ategy
Ġlove liest
olog ians
Ġself ob
Ġself appro
Ġra ve
Ġra iment
Ġra ison
Ġra cing
Ġra illery
Ġra pacity
Ġreg ain
Ġreg ained
Ġreg iment
Ġreg ulated
Ġreg ulate
ign ity
Ġsub sc
Ġsub vers
Ġcl od
Ġcl ue
Ġcl ause
Ġcl ash
Ġcl ocks
Ġcl attering
Ġcl apping
Ġcl osest
Ġcall ous
Ġatt acketh
Ġgo at
Ġgo ad
Ġgo ssip
Ġcertain ties
Ġtra ins
Ġtra iner
Ġnew s
Ġnew born
Ġhum ours
Ġexist ent
ord ant
ord ers
Ġwhole hearted
Ġregard eth
lig ious
ren ced
ren ched
Ġway l
Ġway ward
Ġway that
ven ile
Ġnature that
Ġrem onst
Ġrem oval
Ġdist ort
Ġdist orting
ĠTH AN
ĠTH REE
Ġinc ites
Ġinc ensed
Ġinc lines
Ġinc ulc
to ld
read ful
read ers
Ġkind hearted
we et
we igh
Ġdec ried
Ġdec livity
fect ed
Ġsuff rage
Ġfee leth
Ġfee bler
Ġwell me
Ġwell ordered
Ġthought the
Ġthought lessly
Ġever re
Ġpart ake
Ġpart ie
Ġsy lvan
Ġold fashioned
Ġrec ur
Ġrec ast
Ġrec rud
Ġrec reations
Ġrec itativo
Ġhand breadth
Ġhand iwork
ĠWe h
ĠWe ber
Ġhere sy
Ġnecess itated
Ġnecess itous
ject ions
ject ivity
Ġbr ush
Ġbr ushed
Ġpass ant
Ġcond esc
les que
sh ow
sh irt
sh apen
eth ink
Ġcomm end
Ġcomm iseration
Ġreas oned
Ġmod ifying
sc ence
sc hes
sc urity
sc oloured
Ġseem est
press ion
Ġpresent ation
for saken
ĠJ E
ĠJ ack
ĠJ oh
ĠJ OY
ick ly
Ġthus and
Ġaw akens
here rs
Ġem blem
Ġunt old
Ġunt enable
Ġlast ly
ific es
Ġent reat
ber ger
Ġref utable
Ġref utes
Ġref using
Ġref raining
Ġru der
ĠChristianity and
Ġafter life
Ġbl o
Ġbl ast
Ġbl undered
Ġbl asÃ©
Ġhist ri
Ġchar ging
Ġext en
Ġext ant
Ġext ricate
Ġext ensively
lic king
Ġte ard
Ġte asing
Ġinv ig
Ġinv ades
Ġinv isibly
Ġro le
Ġro ars
Ġro ared
Ġro lled
Ġro aming
Ġro areth
Ġdisc ount
Ġdisc ords
ĠV E
ĠV e
ĠV ir
ĠV IS
ĠV EN
ĠV ision
ĠV III
ĠV inci
ĠV ita
Ġevil verily
Ġevil smelling
Ġapp le
Ġapp anage
Ġapp ortioned
ten ces
Ġcomp ound
Ġcomp orting
Ġsec ures
Ġsec lusion
Ġgl ove
Ġsim ulation
Ġsim ulate
Ġshall ower
ib i
ib el
Ġsm othe
Ġsm elt
Ġsm oky
Ġinf init
Ġmis eries
Ġmis shapen
Ġins er
Ġtw addle
Ġrelig i
atur gist
ĠThere in
ĠThere after
AL TH
ering ly
Ġinter ced
Ġinter mit
Ġinter cal
Ġinter ruption
Ġinter loc
Ġinter jections
Ġlight minded
Ġgener is
Ġgener ate
Ġsc an
Ġsc out
Ġsc ab
Ġsc rib
Ġsc andal
Ġsc ribe
Ġsc reed
Ġsc ented
Ġsc ream
av it
Ġorigin ating
Ġorigin ale
Ġpossible that
Ġpur ifies
Ġgra ces
Ġgra vest
Ġlet teth
sy tur
Ġbest owers
Ġconcept ual
OR M
Ġsin ning
Ġtru est
Ġtru ethat
Ġpra irie
ange l
ange li
me re
me ans
light enment
Ġideal that
IS S
Ġmight ier
Ġquestion ings
Ġquestion mark
Ġtrans iency
Ġfl are
Ġfl aw
Ġfl air
Ġfl utes
Ġprof its
Ġprof anation
ĠNietzsche ism
Ġass id
Ġass ents
Ġass igns
Ġass essing
den ing
Ġfri g
Ġfri voli
Ġsl aught
Ġsl ayer
Ġfree ing
Ġconf use
Ġconf idently
Ġconf erring
ph a
ph ant
Ġcou ches
Ġill disposed
Ġill health
Ġill concealed
Ġill ustration
Ġconst ip
Ġmean ness
Ġop us
Ġetern ities
IN T
Ġback st
Ġrep ort
Ġrep ulsion
Ġrep orts
Ġrel apse
Ġant im
Ġant ih
Ġjud icial
Ġbeaut ify
Ġbeaut ifying
Ġsens ational
Ġweak ly
Ġweak ens
be en
be yond
be ards
Ġdiv ide
Ġconsequ ent
Ġinstincts and
ĠU G
ĠU r
ĠU s
ĠU pper
ĠU SE
ĠU PSILON
ĠU bi
ĠU LT
RE AK
Ġac utest
Ġac rob
Ġac umen
Ġprin ters
Ġprin cely
Ġel ated
Ġel ude
Ġel astic
gg ard
gg les
Ġcor rob
Ġfre es
Ġlive that
Ġdem ure
Ġdem ocrats
Ġdem olished
Ġdem arc
Ġcharacter that
ĠBe gin
ĠBe come
ĠBe gone
ĠBe lievers
Ġsign o
Ġequ alisation
Ġlaw bre
Ġscience and
Ġeyes ight
mit ation
alth ough
Ġhon ored
Ġhon orem
AT OR
AT ES
Ġele ven
Ġele phant
Ġsuper moral
Ġsuper European
Ġsuper lative
Ġpriest craft
Ġeffect ing
Ġbre wed
Ġbeh aved
ĠSch ool
Ġfo x
Ġfo olis
Ġput teth
ĠK re
ĠK ings
ĠK emp
sp lit
Ġchild birth
Ġtaste a
Ġfin an
Ġfin ish
Ġfin ale
Ġlau nch
Ġpoet isation
Ġmast s
Ġdown cast
Ġtri ers
Ġwoman who
Ġdra ined
Ġdra fts
Ġdra pery
Ġdev ising
Ġdev otes
Ġdev iation
form ist
Ġsupp l
Ġsupp ly
Ġsupp orters
bit s
ret to
ret urn
ret rie
Ġdeath struggle
ES C
Ġvalu er
Ġvalu ers
Ġsac ra
Ġgen i
Ġphys i
Ġphys ic
Ġphys ically
iz able
AN QU
ĠIs aiah
EN CES
Ġcontra punt
itions and
Ġmakes h
Ġden ote
Ġden oting
Ġdest inies
ĠAt las
Ġreality were
Ġunc ont
Ġunc over
Ġunc omfort
Ġut ilities
Ġimag inations
IT E
IT AL
Ġhigh spirited
Ġfaith lessness
Ġdream y
Ġdream land
Ġdream picture
man kind
man nered
man cipated
ont ory
Ġcent res
Ġspeci ality
Ġspeci alists
Ã¦ a
Ã¦ mon
Ġwr ithing
hat red
Ġdeep ens
Ġdeep ening
Ġdeep minded
Ġfuture for
Ġdef iling
Ġes se
Ġcontin u
Ġfore ver
Ġfore told
Ġdom ains
Ġke ener
Ġaccount ed
Ġless ons
Ġcirc uit
Ġcirc ulaire
Ġworth s
Ġbetter ment
Ġclass ics
go es
Ġerr atic
Ġprev arication
ĠYe ar
Ġdesp ots
de red
de ath
Ġsat ire
Ġshort ness
Ġshort ened
Ġsun ken
Ġsun rise
Ġshe et
Ġshe lls
Ġmar ched
Ġmar ching
Ġprom ot
Ġprom ul
Ġprom pter
Ġprom ontory
Ġinn ings
Ġocc ult
under stand
Ġcr ou
Ġcr us
Ġcr umb
Ġcr ushes
unt ariness
Ġsent enced
Ġsent inel
Ġmanner isms
Ġret iring
Ġret arded
Ġret ribution
lis es
lis ing
Ġpract ising
po ise
Ġco asts
Ġco ales
Ġco oling
Ġco olly
Ġprop ound
Ġprop ounded
Ġsociety and
Ġrecogn izes
Ġrecogn isability
ĠSt and
ĠSt ep
ĠSt ock
ĠSt upid
ĠSt iff
ĠĠĠĠĠĠĠĠ ĠĠĠĠĠĠ
nes sthis
Ġaff ability
Ġaff inity
Ġaff lict
LI ME
Ġche ers
Ġche cks
Ġche eky
Ġcur b
Ġcur ves
ati one
sthe tic
Ġsing ed
Ġsing eth
Ġmet ab
Ġcare lessness
ĠAn chor
ĠAn archy
Ġentire ty
Ġdivine r
Ġdivine th
Ġcap o
ĠHere sy
ĠHere tofore
Ġve h
Ġve lle
Ġexc it
Ġir respect
Ġir retrie
Ġreve rers
Ġreve renced
Ġsch lecht
Ġhy per
Ġhead ing
Ġhead long
Ġhead strong
Ġcar ved
Ġcar riage
AR CH
AR KS
Ġcru dity
Ġstri pes
Ġimpul s
ĠRe f
ĠRe qu
ĠRe ich
ĠRe fer
ĠRe yn
ĠRe verence
Ġcontempt uous
Ġhelp fulness
Ġid ling
Ġid Ã©e
Ġhar nessed
Ġpast or
ser vation
Ġsw ans
Ġsw ollen
Ġcrit ically
Ġfav or
Ġperfect ions
Ġbu ying
Ġcre aking
Ġcre sts
Ġbur dened
Ġbur lesque
Ġmaster ful
Ġseek st
Ġrun away
ĠAl pa
ĠAl tenburg
ĠAl fier
ĠAl pha
Ġeas iest
Ġblood less
Ġessent ials
Ġsucc our
Ġce iling
Ġce asing
ET E
ET O
ET IC
Ġappro ving
Ġappro bation
Ġma itre
Ġfat uous
Ġgrow l
Ġgrow ths
Ġtre ason
ighb our
Ġmeaning less
full est
Ġsecret ion
Ġneighb or
Ġnum er
Ġver um
Ġver min
Ġcircum spect
Ġdisp atch
Ġdisp uted
IC A
IC S
IC ATION
IC TA
Ġconcl uding
Ġbra ke
Ġbra cing
Ġcra ven
Ġcra bs
Ġcra cked
Ġcra fts
Ġpub lis
Ġgenera lities
Ġserv ility
Ġri ot
Ġri ft
Ġri pen
ST INCT
az ine
Ġaim ing
Ġaim less
Ġaim lessness
Ġmag is
Ġimper iously
Ġimper tur
Ġimper ishable
Ġprov idence
Ġprov ocation
Ġprov oking
Ġbless es
Ġsure r
Ġdut iful
Ġadd itions
gr image
Ġtragic ally
Ġwo es
Ġwo ke
Ġwo oer
ĠSu ab
ĠSu icide
ĠSu ffere
ĠSu preme
Ġlaugh ingly
Ġside ways
Ġside long
Ġside leaps
Ġfew er
wor shi
Ġvol atile
Ġadm on
Ġine pt
Ġred hot
Ġhome coming
Ġdeterm in
Ġdeterm inate
Ġfurther more
Ġcold blooded
Ġdece ased
Ġexp ed
Ġexp osing
Ġexp licable
Ġexp iation
Ġsympath ises
Ġsympath ising
Ġsympath iser
Ġsk ul
Ġsk ies
Ġund u
Ġund is
Ġund oubted
Ġund aunt
ĠGo bine
Ġopen ing
Ġsight s
Ġsight ed
Ġdog like
wh ose
Ġhost s
ĠTr inity
Ġphilosoph ise
Ġphilosoph ie
Ġphilosoph ised
Ġphilosoph ically
Ġphilosoph ize
Ġherd morality
Ġharm lessness
Ġsuccess ions
Ġsuccess ors
Ġnumber less
Ġvi i
Ġformul ation
Ġselfc omm
Ġselfc entred
Ġselfc rucifixion
Ġmetaphys ician
Ġforth it
ĠSe als
ĠSe cret
Ġair y
acher onthe
ps es
Ġswe ar
Ġhor ned
Ġforg ery
ler od
Ġfavour ites
IL T
Ġhal ting
Ġcommand e
Ġcommand eth
Ġlow liness
Ġstage world
gar ian
Ġmain ly
Ġanti Hellenic
Ġbreak ers
Ġbreak fast
Ġpublic ity
Ġmad dening
Ġwit t
Ġsit uated
Ġune asy
Ġune nding
Ġune thical
Ġune mancipated
udd ing
Ġvan ishing
Ġdiss olute
Ġheav ier
Ġcounter poise
ĠNature s
Ġyouth fulness
Ġyouth let
Ġextra neous
Ġgrand parents
Ġgrand iloqu
Ġoper as
Ġoper ari
Ġbo or
Ġbo ot
ĠAr my
ock ery
Ġast ral
Ġlay man
tr ans
Ġbound lessly
ĠIN S
ĠIN VENT
ĠIN CRE
ĠIN STINCT
Ġevol utions
ead y
Ġlab el
Ġlab oured
ters weet
Ġsought est
Ġcontempl ations
Ġpict orial
Ġbar rel
Ġener gies
Ġener getic
Ġsingle handed
enth is
Ġcharm ed
fl ow
fl owing
Ġmethod ical
br other
br inger
ĠÃ¦sthe tical
Ġcreate th
wer ving
Ġign ob
Ġevent ual
Ġeff ig
Ġeff ace
Ġeff usion
Ġeff aced
Ġdeli very
Ġvar iation
Ġcomb ative
Ġthirst s
Ġthirst ily
Ġhalf d
Ġhalf measure
Ġdestroy ers
Ġsedu ctions
Ġstupid est
Ġliber um
Ġliber ates
Ġliber ating
Ġgrat ifying
app arent
lud ed
Ġconqu ers
cer ned
Ġrich ly
Ġrich ness
Ġblind ed
Ġteaching what
Ġwonder ing
Ġwonder worker
Ġhundred fold
Ġarist ocracies
know er
ĠCon clusion
ĠPr inci
ĠPr otean
Ġho lies
Ġho lid
Ġho liday
Ġdie u
Ġdark est
Ġdark coloured
Ġsleep y
pir ism
Ġi ii
Ġfra il
Ġschol asticism
Ġpet it
Ġdefinite ness
OW ING
Ġcross sp
ĠWH EN
ĠPro c
ĠPro per
ĠPro of
ĠPro sper
Ġround ed
UR Y
Ġmonst ros
Ġmonst rum
Ġder iv
Ġnone xistent
Ġdisgust s
Ġmer rily
Ġyear ns
Ġtort uous
Ġused up
Ġclaim ing
Ġfight er
Ġpati ents
Ġste er
Ġste als
Ġste ering
rud ence
Ġunf ree
Ġunf riend
Ġunf ruit
Ġground work
Ġbrother hood
Ġsum mar
Ġsum total
ĠUn ited
Ġsweet ening
Ġdepend ing
Ġbird like
Ġdread s
Ġdread fulness
Ġrepe ats
Ġrepe titions
ĠAm phitry
Ġlogic ians
Ġcloud y
Ġcloud less
Ġaccept able
Ġaut hent
Ġsol utions
Ġguilt lessness
ĠGood natured
ĠHell as
Ġimmort ally
ĠNOT ES
ĠNOT HING
Ġdesir abilities
Ġdi verted
ĠBE EN
ĠBE YOND
ĠLe arned
ĠLe arning
Ġaccomp li
Ġglor if
isc her
Ġdet our
Ġvent ing
Ġprogress us
ĠPh ile
ĠPh oen
ĠSuper intend
Ġsever ing
ĠDe li
ĠDe ity
ĠDe vil
ĠDe cember
Ġsuffere st
Ġfast s
Ġfast en
Ġfast ing
Ġdistress ed
Ġcorre ction
Ġauthor ised
Ġauthor ized
Ġcoward ices
Ġcred ible
Ġcred ulity
Ġland marks
Ġmem ories
Ġemb old
ground s
gen ius
Ġsan ctions
esc ence
Ġvul nerability
Ġproceed ings
ĠNew ton
Ġamb ros
Ġunconscious ness
ĠTruth s
ob edient
ob jectivity
Ġren ouncing
Ġren ovation
Ġgent lest
onent ity
Ġmarri es
Ġmagn um
Ġmagn ification
Ġfashion ing
Ġscept re
ĠPar liament
Ġmorbid ly
Ġdesign ation
Ġdesign ating
IV A
IV ES
Ġpit i
Ġpit ied
Ġna ively
Ġconne ct
Ġrom p
Ġrom ana
Ġemotion ally
uss en
Ġdiscip lining
Ġascend ency
Ġcalm est
Ġmaj orem
Ġspring time
Ġtyrann ous
Ġtyrann ically
Ġtyrann ize
Ġsupreme ly
Ġpret ension
Ġpret ends
Ġenc omp
Ġimpro per
Ġaccustom s
Ġsuggest ive
Ġsuggest ions
Ġmin ister
Ġmut iny
Ġmort ified
Ġcost umes
Ġrej uven
Ġang lerod
Ġuns u
Ġuns ound
Ġuns cientific
Ġuns werving
OS SIBLE
Ġfals est
Ġfals ify
Ġabst racted
Ġabst ractions
Ġabst ruse
ĠMOR T
Ġanal ys
rad ition
Ġappre hens
Ġevolution ist
Ġevolution ary
lus ive
ĠHer acles
ĠFOR GET
Ġconduct s
Ġconduct ors
CT ION
Ġfright ens
Ġdw elling
Ġtrust fulness
Ġtrust worthy
Ġtrust worthiness
ĠRE ALITY
Ġdirect s
Ġbig ger
Ġfour teenth
Ġmechan ically
Ġ24 5
Ġ24 6
Ġ188 5
Ġfellow re
Ġfellow man
Ġopt ical
Ġwand ers
Ġeth os
Ġstorm eth
Ġdecline s
Ġeman ate
Ġconstra ineth
Ġtempt ing
Ġpos ited
Ġstimul ation
Ġkn it
Ġquiet ed
Ġquiet ness
Ġquiet ude
ĠJud ge
ĠJud ged
Ġinvest ed
Ġfrequ ency
Ġspecial ty
Ġavoid ance
ĠÃ ¼ber
Ġcour te
Ġnation alism
Ġstar ve
Ġagree ing
Ġagree ably
Ġmorning dream
bur ning
ĠĠĠĠĠĠĠĠĠĠĠĠĠĠĠĠ ĠĠĠĠĠ
Ġnarrow mindedness
Ġfle eth
Ġunre ality
Ġ29 7
Ġ29 8
Ġ29 9
Ġtal es
Ġwall ow
Ġwall owing
Ġselect ing
Ġtender ly
Ġmyster iously
Ġemancip ates
Ġhur ling
Ġhur ting
Ġhur ricane
Ġtot tering
Ġindul ges
Ġoccur rences
Th oughts
Ġje opard
Ġpresupp ositions
Ġassoci ations
Ġassoci ates
Ġfit ted
Ġrece iver
Ġadmit ting
Ġpersu ades
Ġpersu asion
onom y
Ġdign ities
Ġvo litions
Ġprefer able
Ġrad iant
Ġattrib uting
Ġ30 0
Ġ30 1
Ġ30 2
Ġ30 3
Ġ30 4
Ġ30 5
Ġ30 6
Ġ30 7
Ġ30 8
ĠUp ward
ĠUp right
Ġcelebr ates
Ġlabour ing
pri ests
pri vile
Ġbus hes
ĠHence forward
Ġdeser ving
Ġglad iator
world ly
Ġcollect ively
Ġdel ude
Ġexal ting
ĠPre lude
ĠPre acheronthe
Ġreck ons
Ġsn ort
Ġsn akes
Ġtone painting
ĠSU C
ĠSU I
ĠSU PP
ĠSU PERM
Ġpred icated
ĠCON V
Ġreser vation
Ġsorrow fully
Ġpot ion
ĠVol untary
Ġparad ises
UST OM
ĠMe isters
ĠMe garian
Ġconsum er
Ġconsum es
Ġconsum ptive
Ġdepart ments
Ch urch
Ġhang ed
Ġcate chism
Ġpat rons
Ġdig ress
Ġdig ests
Ġexagger ate
Ġexagger ates
Ġloft ily
Ġaffect s
Ġaffect ing
gl ances
rate ur
Ġban qu
Ġban ishment
Ġban ners
Ġobst inate
Ġobst ruct
Ġobst inately
Ġ31 1
Ġ31 2
Ġ31 3
Ġ31 4
Ġ31 5
Ġ31 6
Ġ31 7
Ġ31 8
Ġ31 9
Ġ34 0
Ġ34 1
Ġ34 2
Ġ34 3
Ġ34 5
Ġ34 6
Ġ34 7
Ġ34 8
Ġ34 9
Ġ37 0
Ġ37 1
Ġ37 2
Ġ37 3
Ġ37 4
Ġ37 5
Ġ37 6
Ġ37 7
Ġ37 8
Ġ37 9
ĠnaÃ¯ve ly
Ġcut tings
Ġpal li
Ġpal ms
Ġupright ly
Ġ32 0
Ġ32 1
Ġ32 2
Ġ32 5
Ġ32 6
Ġ32 7
Ġ32 8
Ġ32 9
Ġ33 0
Ġ33 1
Ġ33 2
Ġ33 3
Ġ33 4
Ġ33 5
Ġ33 6
Ġ33 7
Ġ33 8
Ġ33 9
Ġirre con
Ġirrit ating
Ġadmir ari
Ġvenge ful
Ġsharp ness
Ġsharp ening
UL ATE
Ġfood s
Ġbeg otten
Ġhes itated
Ġhes itates
Ġlevel s
Ġpresum es
Ġdistur bs
Ġsland ering
happ y
Ġriddle reader
Ġport als
Ġmob ility
Ġesteem ing
Ġstrive th
Ġsolemn ities
AK EN
Ġreb us
Ġprec arious
Ġprec incts
Ġ35 0
Ġ35 1
Ġ35 2
Ġ35 3
Ġ35 4
Ġ35 5
Ġ35 6
Ġ35 8
Ġ35 9
Ġ36 0
Ġ36 1
Ġ36 2
Ġ36 3
Ġ36 4
Ġ36 5
Ġ36 6
Ġ36 7
Ġ36 8
Ġ36 9
Ġvener ating
Ġcritic ised
how ever
Ġran c
Ġinspire th
ĠKnow ing
ĠTrans lation
Ġseductive ness
Ġaccompan iment
Ġobscure ly
ye ar
Ġed ified
Ġed ifices
Ġfif teenth
Ġrevel ry
Ġwel comed
ĠNe cessary
ĠNor therners
ĠEn vy
ĠEn igma
ĠEn lightenment
Ġpray ed
EST Y
Ġcolour blind
Ġscholars hip
ĠJuda eo
Ġindispens ability
Ġcrowd ed
human ity
Ġtable ts
Ġdam aged
Ġdam aging
Ġdam sels
ari wise
Ġoffer ings
Ġcountry parson
Ġbroad est
Ġnervous ness
Ġexperiment ation
Ġobey ed
Ġobey eth
Be come
Be uve
mon ies
think ing
ĠAnt iSem
Ġdeb ts
Ġdeb ase
Ġvig il
ĠWE AK
Ġorg ies
ĠEx cept
ĠEx istence
ĠDE C
ĠDE FIN
Ġsurpass es
af ers
enn a
Ġhom oge
Ġlad ies
Ġstro ked
Ġalle gor
Ġalle gorical
Ġalle gory
Ġcompl ac
Ġcompl ained
Ġspo ileth
Ġ38 0
Ġ38 1
Ġ38 3
ĠÃĨ sop
ĠÃĨ sthetic
Ã¼ r
Ã¼ bing
Ã¼ chtig
Ġexceed ing
Ġalter ing
amb ling
Ġrab bits
Ġstret ches
ATH Y
Ġoccup ations
ĠQu Ã¦
ĠQu alities
Ġthro es
Ġthro nes
Ġthro bb
Ġthunder ing
ĠGreat er
ĠGreat ness
ĠBra nd
Ġcomprehens iveness
Ġunle ar
Ġindu bitably
Ġaccess ory
Ġaccum ulate
Ġaccum ulates
Ġaccum ulating
Ġrecollect ed
Ġsurm ised
ĠSoci alist
ĠSoci alistic
Ġfatig uing
Ġfunction aries
Ġcourt iers
Ġtast ing
Ġtast eth
Ġtast eless
Ġcop ied
Ġcop iously
ĠST ATE
ĠST UP
Ġproc livities
Ġimpe lling
Ġarise th
Ġcompre ndre
ĠPR IV
ĠPR OP
ĠPR OD
ĠPRE ST
ĠPRE VAIL
ĠMus set
Ġ41 6
Ġmaid s
Ġlaughing stock
Ġrevolution ists
Ġsix and
Ġhunt ed
Ġfulf illing
Ġallto og
Ġkne aded
Ġoverc omes
Ġflour ishing
Ġrepro aches
pr im
Ġhint ed
esp ierre
Ġgard ener
ĠGr asp
ĠGr anting
ĠGr atitude
Ġnovel s
Ġarm ies
ĠLaw s
ĠLaw Book
Ġselfde pre
Ġpersist ency
Ġsmell eth
Ġ45 5
Ġguess ing
Ġconflict ing
Ġforest alled
ĠPhilosop her
Ġmillenn ia
Ġdouble faced
Ġreact ivity
ĠWor ks
Ġwoe ful
Ġpatient est
Ġcunning ly
Ġdull ed
Ġbew ail
Ġexec ution
ĠME ANT
Ġcontrol ling
Ġenig matic
Ġsubmit ted
Ġtravel ers
Ġwanton ly
Ġtranscend ent
Ġtranscend ence
Ġparas itic
Ġparas itism
Ġsurre ndered
Ġ187 0
Ġ187 3
Ġ187 8
Ġtalent ed
Ġanticip atory
UM N
Ġawe ary
inc kelmann
Ġcosm ical
Ġthri ves
Ġthri lled
Ġrev iew
Ġrev ived
Ġreject ing
ĠInt ellig
ĠInt rodu
Ġpreced ing
Ġpreced ent
appe ar
appe arance
Ġprot agon
Ġundert akings
Ġdiscer ned
Ġforeground s
Ġiron ie
Ġiron ically
Ġcalumn iator
Ġtrem ors
Ġprodig y
Ġprodig ally
Ġprodig ies
Ġsag a
acri fic
Ġarrog ates
Ġunbe coming
ĠEd uard
Ġpresc ribes
Ġbackground s
ĠUN TO
Ġprompt ing
ETH ING
Ġbrilli ance
Ġskept ics
CI PLE
EA D
Ġpin ion
Ġeat en
ĠAS S
Ġdisag rees
Ġdisapp ro
Ġabsor b
Ġflow eth
Ġpreponder ating
Ġfix e
Ġkill s
Ġtrib ulation
Ġridic ulously
Ġridic ule
Ġalien ated
Ġalien ates
EMP T
ex planation
Ġcover ing
Ġinit iate
Ġdon key
Ġdict ator
Ġhair shirt
Ġhair split
Ġworshi ppers
Ġspiritu alization
Ġsafe guard
Ġprophe cies
Ġluck less
ID ER
Ġcyn ic
ĠCont rad
ĠNO BILITY
ĠNO BL
Ġdisple ased
Ġdisple asing
Ġration ale
Ġtrick ery
Ġambit ions
Ġoverth rowing
Ġcompens ates
Ġ48 3
Ġassist ants
Ġdefin itive
Ġprotect ors
Ġdwarf ed
lo Sax
Ġpersec utors
ĠEr d
Ġju venile
ĠLXX I
ĠLXX VII
ĠLXX III
Ġovert akes
ĠTHERE OF
ĠTHERE BY
END IX
Ġcomplex es
Ġcomplex ion
Ġcomplex ity
Ġcomplex ities
Ġbung lers
Ġlabyr inths
Ġnarc ot
Ġmerit orious
Ġmalicious ly
Ġachieve ments
Ġcounterpart s
FOR M
FOR T
see kers
Ġheed ed
Ġheed less
Ġlur ked
ĠBook s
ĠFirst ly
ĠDis ci
ĠDis integr
Ġenra ged
Ġoverwhel ms
Ġstrang led
Ġfeeble ness
Ġavail able
Ġmultip lies
Ġmultip lied
Ġmultip lication
Ġtorment or
Ġsurrender s
Ġfost ers
Ġthick er
Ġthick et
Ġgn ash
Ġshout s
Ġshout ing
Ġrough ly
Ġenn oble
Ġselfm ockery
ERM IN
ĠKNOW S
Ġproductive ness
Ġgrey beards
uffici ently
equ al
equ ality
gre gation
Ġmature s
Ġinfect s
Ġech oes
Ġdeterior ating
ĠHE ALTH
ĠLook ed
Ġamaz ed
[...]
